<unk>	0
<s>	0
</s>	0
<0x00>	0
<0x01>	0
<0x02>	0
<0x03>	0
<0x04>	0
<0x05>	0
<0x06>	0
<0x07>	0
<0x08>	0
<0x09>	0
<0x0A>	0
<0x0B>	0
<0x0C>	0
<0x0D>	0
<0x0E>	0
<0x0F>	0
<0x10>	0
<0x11>	0
<0x12>	0
<0x13>	0
<0x14>	0
<0x15>	0
<0x16>	0
<0x17>	0
<0x18>	0
<0x19>	0
<0x1A>	0
<0x1B>	0
<0x1C>	0
<0x1D>	0
<0x1E>	0
<0x1F>	0
<0x20>	0
<0x21>	0
<0x22>	0
<0x23>	0
<0x24>	0
<0x25>	0
<0x26>	0
<0x27>	0
<0x28>	0
<0x29>	0
<0x2A>	0
<0x2B>	0
<0x2C>	0
<0x2D>	0
<0x2E>	0
<0x2F>	0
<0x30>	0
<0x31>	0
<0x32>	0
<0x33>	0
<0x34>	0
<0x35>	0
<0x36>	0
<0x37>	0
<0x38>	0
<0x39>	0
<0x3A>	0
<0x3B>	0
<0x3C>	0
<0x3D>	0
<0x3E>	0
<0x3F>	0
<0x40>	0
<0x41>	0
<0x42>	0
<0x43>	0
<0x44>	0
<0x45>	0
<0x46>	0
<0x47>	0
<0x48>	0
<0x49>	0
<0x4A>	0
<0x4B>	0
<0x4C>	0
<0x4D>	0
<0x4E>	0
<0x4F>	0
<0x50>	0
<0x51>	0
<0x52>	0
<0x53>	0
<0x54>	0
<0x55>	0
<0x56>	0
<0x57>	0
<0x58>	0
<0x59>	0
<0x5A>	0
<0x5B>	0
<0x5C>	0
<0x5D>	0
<0x5E>	0
<0x5F>	0
<0x60>	0
<0x61>	0
<0x62>	0
<0x63>	0
<0x64>	0
<0x65>	0
<0x66>	0
<0x67>	0
<0x68>	0
<0x69>	0
<0x6A>	0
<0x6B>	0
<0x6C>	0
<0x6D>	0
<0x6E>	0
<0x6F>	0
<0x70>	0
<0x71>	0
<0x72>	0
<0x73>	0
<0x74>	0
<0x75>	0
<0x76>	0
<0x77>	0
<0x78>	0
<0x79>	0
<0x7A>	0
<0x7B>	0
<0x7C>	0
<0x7D>	0
<0x7E>	0
<0x7F>	0
<0x80>	0
<0x81>	0
<0x82>	0
<0x83>	0
<0x84>	0
<0x85>	0
<0x86>	0
<0x87>	0
<0x88>	0
<0x89>	0
<0x8A>	0
<0x8B>	0
<0x8C>	0
<0x8D>	0
<0x8E>	0
<0x8F>	0
<0x90>	0
<0x91>	0
<0x92>	0
<0x93>	0
<0x94>	0
<0x95>	0
<0x96>	0
<0x97>	0
<0x98>	0
<0x99>	0
<0x9A>	0
<0x9B>	0
<0x9C>	0
<0x9D>	0
<0x9E>	0
<0x9F>	0
<0xA0>	0
<0xA1>	0
<0xA2>	0
<0xA3>	0
<0xA4>	0
<0xA5>	0
<0xA6>	0
<0xA7>	0
<0xA8>	0
<0xA9>	0
<0xAA>	0
<0xAB>	0
<0xAC>	0
<0xAD>	0
<0xAE>	0
<0xAF>	0
<0xB0>	0
<0xB1>	0
<0xB2>	0
<0xB3>	0
<0xB4>	0
<0xB5>	0
<0xB6>	0
<0xB7>	0
<0xB8>	0
<0xB9>	0
<0xBA>	0
<0xBB>	0
<0xBC>	0
<0xBD>	0
<0xBE>	0
<0xBF>	0
<0xC0>	0
<0xC1>	0
<0xC2>	0
<0xC3>	0
<0xC4>	0
<0xC5>	0
<0xC6>	0
<0xC7>	0
<0xC8>	0
<0xC9>	0
<0xCA>	0
<0xCB>	0
<0xCC>	0
<0xCD>	0
<0xCE>	0
<0xCF>	0
<0xD0>	0
<0xD1>	0
<0xD2>	0
<0xD3>	0
<0xD4>	0
<0xD5>	0
<0xD6>	0
<0xD7>	0
<0xD8>	0
<0xD9>	0
<0xDA>	0
<0xDB>	0
<0xDC>	0
<0xDD>	0
<0xDE>	0
<0xDF>	0
<0xE0>	0
<0xE1>	0
<0xE2>	0
<0xE3>	0
<0xE4>	0
<0xE5>	0
<0xE6>	0
<0xE7>	0
<0xE8>	0
<0xE9>	0
<0xEA>	0
<0xEB>	0
<0xEC>	0
<0xED>	0
<0xEE>	0
<0xEF>	0
<0xF0>	0
<0xF1>	0
<0xF2>	0
<0xF3>	0
<0xF4>	0
<0xF5>	0
<0xF6>	0
<0xF7>	0
<0xF8>	0
<0xF9>	0
<0xFA>	0
<0xFB>	0
<0xFC>	0
<0xFD>	0
<0xFE>	0
<0xFF>	0
th	-0
▁क	-1
▁th	-2
ನು	-3
ను	-4
nd	-5
▁a	-6
▁the	-7
ನ್	-8
ని	-9
▁h	-10
▁स	-11
▁ಅ	-12
▁s	-13
▁प	-14
▁ನ	-15
▁and	-16
▁म	-17
ಂದ	-18
▁ह	-19
ము	-20
▁w	-21
ने	-22
▁అ	-23
er	-24
▁ಮ	-25
▁उ	-26
और	-27
▁और	-28
▁o	-29
▁న	-30
▁ಹ	-31
▁त	-32
కు	-33
▁ಕ	-34
ನ್ನ	-35
ಲ್	-36
in	-37
ರು	-38
ಗೆ	-39
▁A	-40
▁b	-41
▁వ	-42
▁ప	-43
▁త	-44
ಲ್ಲ	-45
▁ತ	-46
to	-47
▁द	-48
ార	-49
re	-50
ಿದ	-51
ನ್ನು	-52
▁ज	-53
▁के	-54
డు	-55
▁మ	-56
▁ಅವ	-57
या	-58
▁of	-59
▁m	-60
▁उस	-61
▁f	-62
▁अ	-63
▁ಸ	-64
▁ब	-65
లు	-66
▁And	-67
▁య	-68
is	-69
▁చ	-70
్ర	-71
▁ने	-72
रा	-73
ెను	-74
▁క	-75
▁ಆ	-76
ed	-77
್ತ	-78
ಾಗ	-79
▁ಬ	-80
▁मे	-81
▁ద	-82
en	-83
▁व	-84
ou	-85
▁ल	-86
at	-87
ll	-88
▁c	-89
ರಿ	-90
▁से	-91
▁u	-92
ೆಯ	-93
ों	-94
್ದ	-95
ప్	-96
ಗಳ	-97
▁न	-98
▁d	-99
▁ದ	-100
▁ಇ	-101
हा	-102
ిన	-103
రు	-104
त्	-105
ಕ್	-106
ಿಯ	-107
ar	-108
▁भ	-109
▁को	-110
ప్ప	-111
on	-112
▁స	-113
ండ	-114
▁ఆ	-115
▁य	-116
am	-117
रे	-118
ಲ್ಲಿ	-119
▁to	-120
▁he	-121
వు	-122
▁ಯ	-123
್ಟ	-124
▁అత	-125
or	-126
ಕ್ಕ	-127
ಿಗೆ	-128
್ರ	-129
యు	-130
an	-131
▁में	-132
▁है	-133
ిం	-134
▁in	-135
▁sa	-136
▁l	-137
▁be	-138
దు	-139
న్	-140
ಡು	-141
ತ್ತ	-142
▁ನಿ	-143
▁I	-144
▁wi	-145
▁कि	-146
es	-147
as	-148
id	-149
ಿದ್ದ	-150
ಟ್ಟ	-151
▁ಎ	-152
ಾರ	-153
ట్	-154
గా	-155
▁నీ	-156
▁उसक	-157
▁his	-158
ಾದ	-159
రి	-160
▁पर	-161
न्	-162
▁अप	-163
▁un	-164
ಳು	-165
▁ग	-166
▁n	-167
ता	-168
ರೆ	-169
▁unto	-170
చి	-171
▁इ	-172
▁నా	-173
ಿಸ	-174
▁आ	-175
▁sh	-176
▁ಅವನ	-177
▁र	-178
▁ವ	-179
im	-180
లో	-181
ారు	-182
se	-183
कर	-184
it	-185
▁दे	-186
ిక	-187
्व	-188
ಂದು	-189
▁p	-190
--	-191
▁g	-192
▁की	-193
▁का	-194
▁ಪ	-195
ड़	-196
ಾಗಿ	-197
▁e	-198
▁that	-199
ah	-200
▁గ	-201
వా	-202
ట్ట	-203
ing	-204
్త	-205
చు	-206
ac	-207
▁ha	-208
िय	-209
▁wh	-210
▁said	-211
▁అతని	-212
ది	-213
ವು	-214
ld	-215
▁y	-216
ైన	-217
చ్	-218
ther	-219
om	-220
▁కు	-221
తో	-222
▁फ	-223
ना	-224
▁ए	-225
▁तब	-226
▁थ	-227
ಾನ	-228
ಮ್	-229
ಾಕ	-230
गा	-231
ప్పు	-232
र्	-233
ೊಂ	-234
▁कहा	-235
▁यह	-236
▁దే	-237
▁him	-238
▁J	-239
▁अपने	-240
ve	-241
▁सा	-242
ೇಲ	-243
్య	-244
ದು	-245
▁ಹೆ	-246
▁కుమ	-247
▁ಅಂದ	-248
od	-249
ಾಡ	-250
▁ನನ್ನ	-251
ರುವ	-252
िया	-253
లను	-254
ಿಂದ	-255
▁తన	-256
▁చె	-257
री	-258
▁బ	-259
▁मै	-260
▁ఇ	-261
లి	-262
▁చే	-263
▁ನಾ	-264
gh	-265
క్	-266
▁ತನ್ನ	-267
▁ర	-268
న్న	-269
all	-270
▁हु	-271
वा	-272
▁जा	-273
▁ದೇ	-274
తి	-275
िर	-276
ద్	-277
ಾಯ	-278
గు	-279
▁for	-280
್ಯ	-281
ch	-282
▁L	-283
▁च	-284
▁वह	-285
▁हो	-286
▁ನಿನ್ನ	-287
ay	-288
ame	-289
ಮ್ಮ	-290
పు	-291
▁इस	-292
▁ಆಗ	-293
▁पु	-294
ght	-295
్రా	-296
▁जो	-297
ಿನ	-298
ುವ	-299
▁t	-300
ನ್ನೂ	-301
▁భ	-302
▁मैं	-303
▁my	-304
ला	-305
ందు	-306
▁was	-307
ot	-308
▁ಒ	-309
ास	-310
▁me	-311
▁ते	-312
ాను	-313
ಕ್ಕೆ	-314
▁फिर	-315
का	-316
హో	-317
ప్పుడు	-318
▁ని	-319
el	-320
ిని	-321
▁G	-322
▁with	-323
▁कर	-324
ir	-325
ర్	-326
्रा	-327
▁सो	-328
▁son	-329
▁उसके	-330
ow	-331
▁ಅವನು	-332
▁కుమారు	-333
▁क्	-334
▁E	-335
▁it	-336
ent	-337
ुझ	-338
▁ನೀ	-339
ొని	-340
नी	-341
డి	-342
▁వార	-343
తు	-344
▁उन	-345
मे	-346
▁ಸಂ	-347
▁ప్ర	-348
▁ಅಂದನು	-349
▁:	-350
के	-351
ही	-352
▁thou	-353
▁చెప్ప	-354
ಾಮ	-355
ంద	-356
ut	-357
▁ಕು	-358
ద్ద	-359
ದ್ದ	-360
▁एक	-361
▁ಯಾಕ	-362
au	-363
▁S	-364
ಕೊಂ	-365
▁నే	-366
खा	-367
ಿದನು	-368
▁thy	-369
ೋದ	-370
▁se	-371
ad	-372
▁is	-373
▁thee	-374
ದಲ್ಲಿ	-375
కి	-376
▁యె	-377
▁up	-378
ere	-379
▁भी	-380
ान	-381
▁ಮೇಲ	-382
ೇಳ	-383
त्रा	-384
▁అతడు	-385
▁ల	-386
▁ಗ	-387
्र	-388
ver	-389
▁them	-390
ವನ್ನು	-391
మును	-392
▁shall	-393
सा	-394
▁तो	-395
ಲ್ಲಾ	-396
▁T	-397
ले	-398
ನಿಗೆ	-399
▁they	-400
▁ले	-401
ళ్	-402
and	-403
ವರು	-404
▁ye	-405
ियों	-406
▁all	-407
ಲಿ	-408
म्	-409
మి	-410
ರ್	-411
le	-412
ph	-413
▁ಎಂದು	-414
▁వె	-415
మీ	-416
▁జ	-417
▁बा	-418
ಗಿ	-419
▁fa	-420
▁ತಂದ	-421
▁ಪ್ರ	-422
ूं	-423
्वर	-424
▁యా	-425
▁ಮು	-426
ండి	-427
▁ನಾನು	-428
▁हम	-429
▁तू	-430
▁ಅಬ	-431
నెను	-432
▁God	-433
▁Ab	-434
▁ಕೊ	-435
ికి	-436
▁దా	-437
▁ఏ	-438
▁था	-439
▁not	-440
ke	-441
ల్	-442
▁మీ	-443
श्वर	-444
▁पुत्रा	-445
ತ್ತು	-446
ंग	-447
ೋಸ	-448
िये	-449
▁पि	-450
ಡುವ	-451
हे	-452
ించ	-453
▁मेरे	-454
▁मि	-455
ाम	-456
ಂಡ	-457
ಂತ	-458
ಗೂ	-459
▁ಏ	-460
▁అబ	-461
▁దేవు	-462
ಾಸ	-463
ose	-464
▁ಕರ	-465
▁br	-466
▁B	-467
క్క	-468
సి	-469
▁ಜ	-470
ore	-471
ter	-472
यों	-473
▁गया	-474
▁ಮೇಲೆ	-475
▁father	-476
ంత	-477
▁भा	-478
▁परमे	-479
▁परमेश्वर	-480
▁whi	-481
▁you	-482
▁दिया	-483
▁ఎ	-484
ೋಬ	-485
ನಾದ	-486
▁she	-487
ದೆ	-488
▁మా	-489
ండ్ర	-490
▁पास	-491
టి	-492
▁Th	-493
▁या	-494
▁ಆದ	-495
▁her	-496
మె	-497
ನಗೆ	-498
▁ಮಾಡ	-499
▁ಅಬ್ರ	-500
▁देश	-501
ష్	-502
▁came	-503
ಳ್	-504
ven	-505
▁ಮಾ	-506
▁नि	-507
▁ಅದ	-508
ूब	-509
▁ಸಹ	-510
▁which	-511
▁will	-512
ಾವ	-513
ొద్ద	-514
▁వచ్	-515
ur	-516
ति	-517
హా	-518
▁ರ	-519
▁Abr	-520
▁land	-521
ob	-522
ನೆ	-523
▁ತಿ	-524
ब्रा	-525
ते	-526
िन	-527
బు	-528
▁రా	-529
▁ಹೊ	-530
▁అబ్రా	-531
▁ಯಾಕೋಬ	-532
ूस	-533
▁ಭ	-534
▁सब	-535
ಕೆಯ	-536
▁तेरे	-537
కో	-538
▁fr	-539
▁पिता	-540
సిక	-541
▁పె	-542
▁ಹೋ	-543
▁श	-544
▁Jac	-545
▁याक	-546
▁దేశ	-547
▁Jacob	-548
▁याकूब	-549
▁తండ్ర	-550
ಾಗಿದ್ದ	-551
▁there	-552
నకు	-553
ತಿಯ	-554
ುಗಳ	-555
ಗಡ	-556
▁बे	-557
▁ही	-558
▁కా	-559
▁ಬಳ	-560
चा	-561
ुफ	-562
▁యాకో	-563
▁k	-564
▁ಲ	-565
ुझे	-566
▁कु	-567
▁लिये	-568
▁నేను	-569
ಿಸಿ	-570
▁ಮಗ	-571
న్ను	-572
▁యాకోబు	-573
ೋಸೇ	-574
ರಿಂದ	-575
ోస	-576
▁ಹೇಳ	-577
ce	-578
▁घ	-579
▁we	-580
▁చూ	-581
et	-582
▁ఉ	-583
▁ఒ	-584
ಮಾರ	-585
▁ನೋ	-586
ೋಸೇಫ	-587
వి	-588
ोवा	-589
▁यहोवा	-590
st	-591
▁ಸಂಗಡ	-592
▁जब	-593
▁తె	-594
▁వి	-595
▁ಯೋಸೇಫ	-596
▁ಅವನಿಗೆ	-597
ನೂ	-598
మీద	-599
▁were	-600
▁ಕುಮಾರ	-601
▁Is	-602
▁जि	-603
▁వెళ్	-604
▁ಅವರು	-605
▁ಕರ್ತ	-606
OR	-607
ORD	-608
▁an	-609
▁li	-610
▁LORD	-611
al	-612
దా	-613
ోయ	-614
▁ಹು	-615
హోవా	-616
▁हुआ	-617
▁వా	-618
ಡಿ	-619
ರೂ	-620
ess	-621
ేపు	-622
ేలు	-623
▁తీ	-624
ನನ್ನು	-625
ain	-626
త్త	-627
fore	-628
ूसुफ	-629
oseph	-630
▁यूसुफ	-631
▁Joseph	-632
▁H	-633
▁శ	-634
▁ಈ	-635
ren	-636
▁किया	-637
▁P	-638
old	-639
▁तु	-640
▁वे	-641
ವಾಗಿ	-642
▁from	-643
▁వారి	-644
▁యెహోవా	-645
▁रा	-646
ರಿಗೆ	-647
pt	-648
▁क्या	-649
▁their	-650
ించి	-651
▁ದೇಶ	-652
▁ನೀನು	-653
▁ಸಹೋದ	-654
▁ದೇವರು	-655
▁వారు	-656
▁ತಂದೆಯ	-657
ती	-658
▁r	-659
ೆನು	-660
▁as	-661
▁on	-662
▁యోస	-663
il	-664
ಮಾಡ	-665
▁అప్పుడు	-666
▁ಶ	-667
నుక	-668
ಗಳು	-669
ನೆಯ	-670
fe	-671
▁ಭೂ	-672
▁యోసేపు	-673
ಗು	-674
▁go	-675
▁ear	-676
▁हैं	-677
▁sons	-678
చే	-679
వల	-680
క్ష	-681
నుండి	-682
ಕೊಂಡು	-683
▁నీవు	-684
ake	-685
ast	-686
నని	-687
నము	-688
▁తండ్రి	-689
ేరు	-690
▁हा	-691
▁प्र	-692
▁ము	-693
ట్టు	-694
ली	-695
్స	-696
ant	-697
ಳ್ಳ	-698
▁had	-699
▁ಭೂಮ	-700
ಮಾ	-701
▁छ	-702
न्न	-703
▁नाम	-704
▁upon	-705
श्	-706
▁ख	-707
ೆಗೆ	-708
▁ಇಸ	-709
ట్టి	-710
ించు	-711
▁उसको	-712
▁ಹೆಂಡ	-713
లము	-714
▁उत्	-715
other	-716
మా	-717
▁day	-718
ಬ್	-719
ವರ	-720
చిన	-721
▁ఆమె	-722
▁ಅಬ್ರಹ	-723
aham	-724
మ్	-725
ತು	-726
▁man	-727
▁ಅವರ	-728
▁ಸಹೋದರ	-729
▁Abraham	-730
▁చెప్పెను	-731
ನಾ	-732
స్త	-733
▁మరి	-734
ಗೋ	-735
ವದ	-736
▁have	-737
▁इब्रा	-738
గి	-739
▁ಐ	-740
हीम	-741
ಂದರೆ	-742
▁इब्राहीम	-743
ok	-744
ड़ा	-745
▁com	-746
▁ఈ	-747
ace	-748
▁af	-749
ದಲ್ಲ	-750
▁సహో	-751
▁దేవుడు	-752
್ಚ	-753
▁ಫ	-754
డైన	-755
ie	-756
ಬ್ಬ	-757
hold	-758
▁वर्	-759
red	-760
▁सु	-761
▁లే	-762
ight	-763
▁बेट	-764
సికొని	-765
ls	-766
ಂಬ	-767
▁హ	-768
हां	-769
▁ಸ್	-770
కును	-771
▁ವರು	-772
▁क्यों	-773
▁ಅಬ್ರಹಾಮ	-774
▁కొ	-775
ಕೊಂಡ	-776
▁ಭೂಮಿಯ	-777
ంట	-778
ord	-779
ల్ల	-780
ారము	-781
▁this	-782
▁year	-783
▁సహోద	-784
▁అబ్రాహా	-785
ly	-786
ौन	-787
ನಿ	-788
est	-789
ಷ್ಯ	-790
▁अपनी	-791
क्	-792
ers	-793
हीं	-794
▁भे	-795
▁భూ	-796
▁ಬೆ	-797
చెను	-798
▁ವರುಷ	-799
नु	-800
▁ఫ	-801
వాత	-802
▁ಮನು	-803
▁earth	-804
యైన	-805
▁are	-806
▁bre	-807
▁hand	-808
▁वर्ष	-809
▁ಬಳಿಗೆ	-810
।।	-811
ರೋ	-812
ive	-813
▁ch	-814
▁कह	-815
▁मा	-816
క్కడ	-817
▁ಬಂದ	-818
▁ಆಕೆಯ	-819
▁ಹೆಂಡತಿಯ	-820
▁स्	-821
▁when	-822
▁ನನಗೆ	-823
వే	-824
ಲ್ಪ	-825
▁ಹೆಸ	-826
రువాత	-827
▁ನಮ್ಮ	-828
ढ़	-829
▁N	-830
▁re	-831
▁sp	-832
▁పొ	-833
aught	-834
శా	-835
ine	-836
▁पह	-837
▁ఒక	-838
ొద్దకు	-839
ಗಳನ್ನು	-840
ra	-841
दा	-842
ూడ	-843
▁M	-844
▁ಚ	-845
ండు	-846
లలో	-847
▁रह	-848
▁పి	-849
నున్న	-850
▁years	-851
▁फिरौन	-852
▁ಮನುಷ್ಯ	-853
▁C	-854
▁R	-855
▁हुए	-856
▁after	-857
▁మరియు	-858
▁ಹುಟ್ಟ	-859
▁daught	-860
कि	-861
ष्	-862
ara	-863
ట్లు	-864
ార్య	-865
▁went	-866
▁గనుక	-867
स्	-868
ूम	-869
కొ	-870
ెద	-871
erv	-872
▁Ph	-873
▁दिन	-874
▁स्व	-875
▁उत्प	-876
నా	-877
ರಿಯ	-878
ೇನೆ	-879
▁पा	-880
▁యు	-881
very	-882
కొని	-883
ీయు	-884
▁थे	-885
▁जिस	-886
▁పేరు	-887
ंश	-888
లా	-889
▁ध	-890
▁ದಿನ	-891
▁उत्पन्न	-892
▁అబ్రాహాము	-893
था	-894
కా	-895
డల	-896
నగా	-897
▁Be	-898
▁సం	-899
▁out	-900
▁निक	-901
▁call	-902
▁उसका	-903
▁ಮಕ್ಕ	-904
ಬೇ	-905
्वी	-906
ಚ್ಚ	-907
▁पत्	-908
ండెను	-909
▁ನಿಮ್ಮ	-910
▁bl	-911
▁सम	-912
▁wife	-913
▁సహోదరు	-914
ion	-915
▁अब	-916
యి	-917
ard	-918
ండ్	-919
ಪ್ತ	-920
▁ಬೇ	-921
ಟ್ಟು	-922
▁say	-923
▁देख	-924
ೆಲ್ಲಾ	-925
धि	-926
ृथ	-927
రో	-928
▁उन्	-929
▁पृथ	-930
▁साथ	-931
▁हुई	-932
▁name	-933
▁नहीं	-934
▁దాని	-935
▁पृथ्वी	-936
▁తరువాత	-937
▁क्योंकि	-938
ck	-939
oh	-940
▁ऐ	-941
ಾನ್	-942
ಿಯೂ	-943
▁యే	-944
ములో	-945
▁ಹೊರ	-946
ಗುಪ್ತ	-947
▁उसकी	-948
▁ಇದ್ದ	-949
▁ಯಾಕೋಬನು	-950
నే	-951
▁ఐ	-952
ಕ್ಷ	-953
▁pr	-954
च्	-955
సు	-956
ass	-957
ved	-958
▁दो	-959
▁लो	-960
▁భార్య	-961
▁called	-962
▁ಐಗುಪ್ತ	-963
gy	-964
gypt	-965
ूंगा	-966
గుప్	-967
▁Egypt	-968
ರಿಸ	-969
ಷ್ಟ	-970
▁तक	-971
ార్త	-972
▁भाई	-973
▁हूं	-974
ಟ್ಟನು	-975
ervant	-976
▁తీసికొని	-977
దే	-978
ouse	-979
▁చేస	-980
▁मुझे	-981
హు	-982
ವನ	-983
▁W	-984
రము	-985
▁us	-986
▁ಸೇ	-987
▁ಮಾತ	-988
araoh	-989
ించెను	-990
▁house	-991
▁ఐగుప్	-992
▁అతనికి	-993
▁Pharaoh	-994
ಣ್	-995
್ಪ	-996
▁ಉ	-997
స్స	-998
ಣ್ಣ	-999
ಾನೆ	-1000
▁खा	-1001
▁ಆಶ	-1002
▁ವಿ	-1003
▁ಹಾ	-1004
▁हमा	-1005
▁ಆದರೆ	-1006
▁brother	-1007
▁కుమార్త	-1008
▁ಅವನನ್ನು	-1009
ab	-1010
ಕೊ	-1011
ತಿ	-1012
▁ష	-1013
టకు	-1014
▁fl	-1015
▁ये	-1016
▁పు	-1017
మందు	-1018
ild	-1019
one	-1020
ವಾದ	-1021
ಿತು	-1022
ಿಸುವ	-1023
▁वंश	-1024
▁ಫರೋ	-1025
▁ತಕ್ಕ	-1026
▁before	-1027
ऊं	-1028
యా	-1029
ಾಲ	-1030
orn	-1031
▁ला	-1032
▁हाथ	-1033
▁దిన	-1034
▁ತಮ್ಮ	-1035
▁కుమార్తె	-1036
शी	-1037
లే	-1038
ಪ್ಪ	-1039
న్ని	-1040
▁pass	-1041
▁देखा	-1042
▁అందు	-1043
गे	-1044
▁తమ	-1045
▁कुछ	-1046
▁लिया	-1047
▁భూమి	-1048
▁every	-1049
▁ಎಲ್ಲಾ	-1050
▁ಯೋಸೇಫನು	-1051
▁?	-1052
न्त	-1053
▁बह	-1054
ಿದರು	-1055
▁दास	-1056
▁అను	-1057
▁ఫరో	-1058
▁ದಾಸ	-1059
ದರಿಂದ	-1060
▁मेरी	-1061
ೆಲ	-1062
▁ड	-1063
త్ర	-1064
ువు	-1065
▁थी	-1066
ముగా	-1067
లును	-1068
▁into	-1069
▁your	-1070
▁ಫರೋಹ	-1071
బడ	-1072
lso	-1073
ूमि	-1074
రకు	-1075
▁करे	-1076
▁जाए	-1077
▁అని	-1078
ತ್	-1079
మని	-1080
▁Sh	-1081
▁घर	-1082
▁ಕೈ	-1083
▁ರಾ	-1084
▁beg	-1085
▁संग	-1086
▁ತರುವ	-1087
▁bless	-1088
ep	-1089
యె	-1090
ಾಣ	-1091
हों	-1092
▁pl	-1093
▁अधि	-1094
▁మాట	-1095
▁also	-1096
▁ಇಸಾಕ	-1097
▁servant	-1098
एल	-1099
ೀರ್	-1100
▁గొ	-1101
▁तुम्	-1102
▁पत्नी	-1103
▁ಆಶೀರ್	-1104
मा	-1105
रू	-1106
ವೆ	-1107
aac	-1108
ిరి	-1109
▁ar	-1110
▁కన	-1111
▁గా	-1112
స్సా	-1113
ೊಂಡು	-1114
▁took	-1115
▁child	-1116
▁these	-1117
▁ఇస్సా	-1118
్థ	-1119
ade	-1120
▁Es	-1121
▁by	-1122
▁जी	-1123
▁ಏಸ	-1124
▁अर्	-1125
▁रहे	-1126
▁ಇಗೋ	-1127
thren	-1128
▁hath	-1129
ದಲ್ಲದೆ	-1130
▁Isaac	-1131
▁brethren	-1132
ಕರ	-1133
eth	-1134
ಂದೆ	-1135
▁st	-1136
ound	-1137
▁उनक	-1138
▁मुझ	-1139
▁तुझे	-1140
▁నాకు	-1141
▁saying	-1142
▁ಕರ್ತನು	-1143
▁ತರುವಾಯ	-1144
em	-1145
दी	-1146
ంప	-1147
▁ओ	-1148
ंगे	-1149
रों	-1150
हाक	-1151
▁ag	-1152
▁hu	-1153
▁వే	-1154
▁ಹೀ	-1155
▁सात	-1156
▁అది	-1157
▁ತಿಳ	-1158
▁भूमि	-1159
▁ಏಸಾವ	-1160
▁ಮನೆಯ	-1161
▁इसहाक	-1162
▁వచ్చి	-1163
ओं	-1164
ल्	-1165
alt	-1166
tle	-1167
వార	-1168
▁but	-1169
▁ఏశా	-1170
ought	-1171
▁ಹಾಗೆ	-1172
▁అక్కడ	-1173
▁కనెను	-1174
▁तुम्हा	-1175
ठा	-1176
వత	-1177
ೊಳ	-1178
are	-1179
ied	-1180
ind	-1181
our	-1182
क्ष	-1183
ింప	-1184
ూర్	-1185
▁गई	-1186
▁पी	-1187
ష్యు	-1188
▁बकर	-1189
▁लोग	-1190
▁ಸ್ಥ	-1191
▁Esau	-1192
▁उनके	-1193
▁ఏశావు	-1194
eb	-1195
रण	-1196
न्ध	-1197
▁గు	-1198
చ్చి	-1199
▁bec	-1200
▁ಹೋದ	-1201
ించిన	-1202
▁अपना	-1203
▁ಅಲ್ಲಿ	-1204
▁ఐగుప్తు	-1205
जा	-1206
ave	-1207
▁do	-1208
▁tw	-1209
▁पू	-1210
▁वि	-1211
▁हे	-1212
యేలు	-1213
ಿಸಿದ	-1214
▁మను	-1215
ದಕ್ಕೆ	-1216
▁made	-1217
▁నీకు	-1218
▁పెట్ట	-1219
▁ಇದಲ್ಲದೆ	-1220
गी	-1221
ದೇ	-1222
పోయ	-1223
▁गए	-1224
▁ऐसा	-1225
▁बना	-1226
ಿಸಿದನು	-1227
▁shalt	-1228
टी	-1229
प्	-1230
నీ	-1231
ನೀ	-1232
ಾಪ	-1233
own	-1234
▁दी	-1235
▁रख	-1236
▁మన	-1237
▁ಬಿ	-1238
▁ಹೇ	-1239
ियां	-1240
నికి	-1241
▁आशी	-1242
▁సంత	-1243
▁చూచి	-1244
▁తెలి	-1245
सी	-1246
ಾಬ	-1247
ell	-1248
sel	-1249
्वा	-1250
▁పో	-1251
▁ಕೂ	-1252
▁men	-1253
▁one	-1254
▁जन्	-1255
▁वहां	-1256
▁ತೆಗೆ	-1257
▁నన్ను	-1258
▁మనుష్యు	-1259
द्	-1260
ित	-1261
रूष	-1262
ಂತೆ	-1263
▁మే	-1264
▁ಅರ	-1265
▁దినము	-1266
ुं	-1267
▁Wh	-1268
▁बी	-1269
▁सौ	-1270
ದಿಂದ	-1271
▁लगा	-1272
▁బ్ర	-1273
▁ಕೇಳ	-1274
ಲಿಲ್ಲ	-1275
▁ಹೋಗಿ	-1276
▁ఇస్సాకు	-1277
్వ	-1278
ನೇ	-1279
ಹೋ	-1280
ach	-1281
▁गा	-1282
▁పా	-1283
▁ಸು	-1284
reat	-1285
▁wat	-1286
▁रखा	-1287
▁ವಾಸ	-1288
▁come	-1289
ಗಳಲ್ಲಿ	-1290
▁again	-1291
▁ప్రతి	-1292
▁उन्हों	-1293
▁వెళ్లి	-1294
ft	-1295
▁సమ	-1296
ause	-1297
थात्	-1298
▁our	-1299
▁रहा	-1300
ರನ್ನು	-1301
▁भेड़	-1302
▁దాసు	-1303
▁begat	-1304
▁पुरूष	-1305
▁ನಿನಗೆ	-1306
▁వారిని	-1307
▁ಅದಕ್ಕೆ	-1308
▁अर्थात्	-1309
ಂಗ	-1310
మైన	-1311
టిని	-1312
▁अनु	-1313
▁ಆಕೆಯು	-1314
ul	-1315
छा	-1316
ీవ	-1317
్గ	-1318
ಂಟ	-1319
ಕು	-1320
ड़ी	-1321
ड़े	-1322
बान	-1323
▁am	-1324
▁did	-1325
▁जीव	-1326
▁కని	-1327
ation	-1328
▁कारण	-1329
▁behold	-1330
▁ಅವರಿಗೆ	-1331
ज्	-1332
గల	-1333
ధి	-1334
్న	-1335
▁छो	-1336
▁ను	-1337
▁ಹಿ	-1338
చ్చు	-1339
▁let	-1340
▁तुम	-1341
ndred	-1342
చున్న	-1343
▁over	-1344
▁तेरा	-1345
▁చేయు	-1346
ಿಯಲ್ಲಿ	-1347
▁लाबान	-1348
▁ತೆಗೆದು	-1349
▁hundred	-1350
▁ಆಶೀರ್ವದ	-1351
ak	-1352
ాబ	-1353
साव	-1354
ಿರಿ	-1355
▁so	-1356
▁बु	-1357
चात्	-1358
ದ್ದು	-1359
▁सुन	-1360
▁days	-1361
▁एसाव	-1362
▁seven	-1363
▁ಮಗನಾದ	-1364
ಿದ್ದಾನೆ	-1365
▁ಅಬ್ರಾಮ	-1366
ినప్పుడు	-1367
▁children	-1368
▁కుమారులు	-1369
▁daughters	-1370
nt	-1371
రా	-1372
ೂರ	-1373
ill	-1374
ित्	-1375
ణము	-1376
ಕಾರ	-1377
▁जल	-1378
▁भो	-1379
▁లో	-1380
ನನ್ನ	-1381
್ರಾಯ	-1382
▁उसे	-1383
▁నాయ	-1384
▁ಸಂತ	-1385
▁ಹೋಗ	-1386
▁hast	-1387
▁ಸ್ಥಳ	-1388
ುಗಳನ್ನು	-1389
▁అతనితో	-1390
▁ಕುಮಾರ್ತ	-1391
ge	-1392
दि	-1393
ीन	-1394
ಳುಹ	-1395
▁चा	-1396
డును	-1397
▁చేయ	-1398
ಳನ್ನು	-1399
▁जन्म	-1400
श्चात्	-1401
ಾಗಿರುವ	-1402
▁हमारे	-1403
शु	-1404
గో	-1405
పె	-1406
ೆರ	-1407
ೋಟ	-1408
▁ठ	-1409
oth	-1410
नान	-1411
▁gr	-1412
▁नग	-1413
యెడల	-1414
ిన్న	-1415
▁आया	-1416
▁పోయ	-1417
▁ಸಾರ	-1418
ब्राम	-1419
▁give	-1420
▁प्रा	-1421
▁సంతా	-1422
▁अब्राम	-1423
▁brought	-1424
▁ನನ್ನನ್ನು	-1425
ఱ్	-1426
ಕೆ	-1427
డగు	-1428
ఱ్ఱ	-1429
లకు	-1430
▁kn	-1431
▁ना	-1432
▁ಯೆ	-1433
▁dre	-1434
▁eat	-1435
▁లాబ	-1436
▁down	-1437
▁seed	-1438
▁Abram	-1439
ంధ	-1440
▁v	-1441
aan	-1442
ure	-1443
कार	-1444
ष्ट	-1445
ತನು	-1446
▁de	-1447
▁dw	-1448
▁मर	-1449
▁Can	-1450
▁saw	-1451
▁యిం	-1452
▁రాజ	-1453
బట్టి	-1454
▁लेकर	-1455
▁होगा	-1456
▁ನೀವು	-1457
▁thing	-1458
▁ಅಬ್ರಹಾಮನು	-1459
ನಸ	-1460
ಲು	-1461
ಲೂ	-1462
ಳಿ	-1463
ಳ್ಳು	-1464
▁The	-1465
▁now	-1466
▁पहि	-1467
▁बहु	-1468
▁మంద	-1469
▁ಲಾಬ	-1470
ండ్లు	-1471
▁करने	-1472
▁మీరు	-1473
▁ಕಳುಹ	-1474
▁ನಾವು	-1475
▁Canaan	-1476
▁లాబాను	-1477
ನ್ನೆಲ್ಲಾ	-1478
ूत	-1479
ವೇ	-1480
దుట	-1481
లతో	-1482
▁ಕೆ	-1483
ನಿಂದ	-1484
▁ಕಾನ	-1485
▁bare	-1486
▁good	-1487
▁వెళ్ల	-1488
▁ಹೆಸರಿ	-1489
ट्	-1490
ವೂ	-1491
ೇಯ	-1492
प्न	-1493
య్య	-1494
ಮಗೆ	-1495
▁lo	-1496
▁ಒಡ	-1497
ield	-1498
దిగో	-1499
మ్ము	-1500
ಾನನು	-1501
▁ವರೆ	-1502
▁ಬಂದು	-1503
▁ಹೀಗೆ	-1504
▁स्वप्न	-1505
▁నిన్ను	-1506
▁ಯಾಕಂದರೆ	-1507
्ड	-1508
ೊಂಡ	-1509
▁at	-1510
▁ओर	-1511
▁डा	-1512
aban	-1513
టికి	-1514
సికొ	-1515
ತ್ತಿ	-1516
▁శార	-1517
▁ನೋಡ	-1518
attle	-1519
▁स्त्	-1520
▁Laban	-1521
▁పిల్ల	-1522
ಿದ್ದೇನೆ	-1523
▁because	-1524
sh	-1525
तर	-1526
తే	-1527
ెన	-1528
ವಿ	-1529
ear	-1530
ves	-1531
काल	-1532
▁वा	-1533
▁రె	-1534
▁ಗು	-1535
ould	-1536
▁con	-1537
▁पशु	-1538
▁लड़	-1539
▁ಅದು	-1540
▁करके	-1541
▁तेरी	-1542
▁Behold	-1543
▁cattle	-1544
▁ಅದನ್ನು	-1545
యే	-1546
ೊದ	-1547
ree	-1548
ढ़ा	-1549
सार	-1550
हने	-1551
వలన	-1552
ీరు	-1553
▁బె	-1554
▁యి	-1555
▁ರೆ	-1556
తిని	-1557
▁two	-1558
▁अच्	-1559
▁ಮಂದ	-1560
▁చేసి	-1561
▁బ్రద	-1562
▁ಒಬ್ಬ	-1563
▁ಪಟ್ಟ	-1564
▁ಮುಂದೆ	-1565
ud	-1566
లె	-1567
ity	-1568
ood	-1569
थान	-1570
ంచి	-1571
తడు	-1572
▁మి	-1573
▁ಮೂ	-1574
▁ಸಿ	-1575
ount	-1576
इयों	-1577
ಮಾಡಿ	-1578
▁नगर	-1579
▁बात	-1580
▁అయి	-1581
▁ಮುಖ	-1582
నట్లు	-1583
▁then	-1584
▁well	-1585
▁जाति	-1586
▁ಒಂದು	-1587
▁ಆದದರಿಂದ	-1588
▁ದೇಶದಲ್ಲಿ	-1589
▁ಕುಮಾರ್ತೆಯ	-1590
ोल	-1591
ಷ್	-1592
▁ఓ	-1593
ned	-1594
हेल	-1595
ర్వ	-1596
ಿದು	-1597
್ಕರ	-1598
▁co	-1599
▁लौ	-1600
▁సా	-1601
▁उसी	-1602
▁कोई	-1603
▁ಎಂಬ	-1604
ಲ್ಪಟ್ಟ	-1605
ಿಯನ್ನು	-1606
▁प्राण	-1607
▁ಮಾಡುವ	-1608
▁पश्चात्	-1609
▁భూమిమీద	-1610
▁ಅವರನ್ನು	-1611
▁ನಿನ್ನನ್ನು	-1612
जन	-1613
ೊಡ	-1614
ण्ड	-1615
లైన	-1616
ಗಳೂ	-1617
ೊಂದ	-1618
▁ಜೀ	-1619
▁ಯಜ	-1620
वाले	-1621
చేసి	-1622
ಿದಾಗ	-1623
▁sto	-1624
▁चला	-1625
▁ಏಳು	-1626
కారము	-1627
▁face	-1628
▁pray	-1629
▁मेरा	-1630
▁నీళ్	-1631
ಗಳನ್ನೂ	-1632
▁राहेल	-1633
▁स्थान	-1634
▁చిన్న	-1635
▁ಪಟ್ಟಣ	-1636
▁ಕಾನಾನ್	-1637
▁ಪ್ರಕಾರ	-1638
▁daughter	-1639
if	-1640
ty	-1641
ोन	-1642
డా	-1643
పర	-1644
ತನ	-1645
್ಧ	-1646
न्द	-1647
డని	-1648
ವನು	-1649
▁ab	-1650
▁du	-1651
▁ठह	-1652
▁बि	-1653
న్నా	-1654
ನೀನು	-1655
▁may	-1656
म्हने	-1657
మునకు	-1658
ೋಸ್ಕರ	-1659
▁gave	-1660
▁उनको	-1661
▁ಕುರಿ	-1662
▁dream	-1663
▁place	-1664
▁अनुसार	-1665
▁కుమారుని	-1666
छे	-1667
ాప	-1668
ోవ	-1669
ದಿ	-1670
ಭಿ	-1671
▁D	-1672
▁Z	-1673
नों	-1674
కూడ	-1675
▁ఇశ	-1676
▁బా	-1677
▁ಆಕ	-1678
▁ಬರ	-1679
ered	-1680
लिये	-1681
వాడు	-1682
ಮಾಡುವ	-1683
ಕೊಂಡನು	-1684
ಿನಲ್ಲಿ	-1685
▁ಹೆತ್ತ	-1686
▁भाइयों	-1687
▁साम्हने	-1688
▁యొద్దకు	-1689
▁तुम्हारे	-1690
▁పెట్టెను	-1691
ro	-1692
बा	-1693
ಾಶ	-1694
್ಡ	-1695
▁ఊ	-1696
ech	-1697
ంతు	-1698
ధ్య	-1699
ోను	-1700
ನ್ಯ	-1701
ಾನನ	-1702
▁pe	-1703
▁ಜನ	-1704
नुष्	-1705
మెను	-1706
యెను	-1707
వత్స	-1708
ెనని	-1709
ದಕ್ಕ	-1710
▁bur	-1711
▁old	-1712
▁यदि	-1713
▁నివ	-1714
▁స్త	-1715
▁ಯಾರ	-1716
▁ಸೇವ	-1717
లన్ని	-1718
▁take	-1719
▁कनान	-1720
▁भोजन	-1721
▁తిరి	-1722
▁field	-1723
▁मनुष्	-1724
▁అప్పు	-1725
▁సమస్త	-1726
▁इसलिये	-1727
▁సంవత్స	-1728
▁ಇಸ್ರಾಯ	-1729
డై	-1730
ొద	-1731
ಾಧ	-1732
ath	-1733
దని	-1734
▁आए	-1735
▁గో	-1736
▁బయ	-1737
್ತ್ರ	-1738
▁जान	-1739
▁కలి	-1740
▁ರಾಹ	-1741
▁make	-1742
▁बेटी	-1743
▁होकर	-1744
▁great	-1745
▁जीवित	-1746
▁ಕೊಟ್ಟ	-1747
▁తిరిగి	-1748
▁ಮಕ್ಕಳು	-1749
▁blessed	-1750
ry	-1751
दे	-1752
भु	-1753
ें	-1754
ెబ	-1755
ಟು	-1756
್ಗ	-1757
ತ್ಯ	-1758
ದುಕ	-1759
▁aw	-1760
▁फल	-1761
▁बै	-1762
▁తో	-1763
శువు	-1764
ಗಳಾದ	-1765
ರಿಗಿ	-1766
▁fir	-1767
▁वही	-1768
▁ಯಜಮ	-1769
achel	-1770
ರನ್ನೂ	-1771
▁sent	-1772
▁ಆತನು	-1773
▁ಮಾಡಿ	-1774
▁प्रभु	-1775
▁వచ్చు	-1776
▁Rachel	-1777
ng	-1778
ूह	-1779
ेर	-1780
ಳೆ	-1781
पति	-1782
ನಗೂ	-1783
▁le	-1784
▁रू	-1785
▁लि	-1786
▁ಈಗ	-1787
rael	-1788
లేదు	-1789
హేలు	-1790
ಬೇಕು	-1791
▁off	-1792
▁pre	-1793
▁ನೋಹ	-1794
ನಿನ್ನ	-1795
▁बहुत	-1796
▁सारा	-1797
▁లేచి	-1798
▁ದೇವರ	-1799
చ్చెను	-1800
ೆಯನ್ನು	-1801
▁forth	-1802
▁ఇశ్రా	-1803
▁పశువు	-1804
▁అందుకు	-1805
▁రాహేలు	-1806
▁बकरियों	-1807
op	-1808
యన	-1809
శీ	-1810
▁ऊ	-1811
▁ಓ	-1812
aid	-1813
ock	-1814
ంటె	-1815
ందల	-1816
గిన	-1817
▁హా	-1818
▁ಬಹ	-1819
ందరి	-1820
▁काम	-1821
▁जित	-1822
▁तुझ	-1823
▁बीच	-1824
▁ಸಾಯ	-1825
బడెను	-1826
▁king	-1827
▁lord	-1828
▁जाकर	-1829
▁राजा	-1830
▁నాయకు	-1831
▁ರಾಹೇಲ	-1832
▁Israel	-1833
▁చెప్పి	-1834
▁అబ్రాము	-1835
▁ಕುಮಾರರು	-1836
एं	-1837
్ఞ	-1838
ನೋ	-1839
oah	-1840
చెద	-1841
బది	-1842
ಇಗೋ	-1843
ರಲಿ	-1844
ವಾಗ	-1845
▁Le	-1846
▁मन	-1847
▁మూ	-1848
ward	-1849
ष्टि	-1850
ುತ್ತ	-1851
▁put	-1852
▁కలు	-1853
▁కూడ	-1854
▁ಅರಸ	-1855
ृष्टि	-1856
▁Noah	-1857
▁city	-1858
▁सारे	-1859
▁నివస	-1860
▁ಇರುವ	-1861
▁కనాను	-1862
▁గొఱ్ఱ	-1863
▁ಹೊರಗೆ	-1864
▁ಹುಟ್ಟಿದ	-1865
दो	-1866
पे	-1867
ಬೆ	-1868
▁F	-1869
▁O	-1870
een	-1871
ంది	-1872
ಾನು	-1873
ೆಯೂ	-1874
▁ey	-1875
▁दि	-1876
▁भर	-1877
▁యీ	-1878
ऊंगा	-1879
न्तु	-1880
త్తి	-1881
ోవహు	-1882
ನಾನು	-1883
ಿಯಾದ	-1884
▁ఆశీ	-1885
▁దీవ	-1886
▁ಕೈಯ	-1887
ವನ್ನೂ	-1888
▁తాను	-1889
▁ಒಳ್ಳ	-1890
▁ಹೇಳಿ	-1891
ations	-1892
▁where	-1893
▁इस्रा	-1894
▁स्वाम	-1895
▁నోవహు	-1896
▁ಮಕ್ಕಳ	-1897
▁ಮತ್ತು	-1898
▁ವರೆಗೆ	-1899
▁अधिपति	-1900
▁ತಂದೆಯಾದ	-1901
▁servants	-1902
ag	-1903
os	-1904
ub	-1905
चे	-1906
డ్	-1907
్మ	-1908
ಂಭ	-1909
ಣಿ	-1910
ೋರ	-1911
ite	-1912
्या	-1913
గ్గ	-1914
ర్భ	-1915
ష్ట	-1916
ದನು	-1917
ಾರಿ	-1918
▁इन	-1919
▁hea	-1920
▁नूह	-1921
▁ಅದರ	-1922
ಡುತ್ತ	-1923
ದನ್ನು	-1924
▁away	-1925
▁eyes	-1926
▁kind	-1927
▁पहुं	-1928
▁सारी	-1929
▁మధ్య	-1930
▁వాటి	-1931
▁ತಂದೆ	-1932
▁ಬರುವ	-1933
▁bring	-1934
▁spake	-1935
▁అయితే	-1936
▁చేసిన	-1937
▁యెదుట	-1938
▁ಎದ್ದು	-1939
▁ಕೊಂಡು	-1940
▁ವರುಷದ	-1941
▁ಹೇಳಿದ	-1942
▁వచ్చిన	-1943
▁ಇಸಾಕನು	-1944
▁సంవత్సరము	-1945
▁ತೆಗೆದುಕೊಂಡು	-1946
cc	-1947
ञा	-1948
पा	-1949
शे	-1950
మే	-1951
ావ	-1952
▁ಊ	-1953
esh	-1954
वस्	-1955
ಿಗೂ	-1956
▁शे	-1957
▁తొ	-1958
arah	-1959
ज्ञा	-1960
త్తు	-1961
వారు	-1962
▁समय	-1963
▁ಹೊಲ	-1964
▁Then	-1965
▁even	-1966
▁గర్భ	-1967
ಕೊಳ್ಳು	-1968
ಗೋಸ್ಕರ	-1969
▁flock	-1970
▁found	-1971
▁lived	-1972
▁आज्ञा	-1973
▁ತಿರಿಗಿ	-1974
▁కాబట్టి	-1975
▁ఇశ్రాయేలు	-1976
▁తండ్రియైన	-1977
ek	-1978
िब	-1979
ोर	-1980
ేమ	-1981
ale	-1982
ime	-1983
ted	-1984
ృద్	-1985
ವಾಸ	-1986
▁चल	-1987
▁वृ	-1988
▁మృ	-1989
ness	-1990
ందున	-1991
రును	-1992
ಗಾಗಿ	-1993
▁But	-1994
▁bet	-1995
▁way	-1996
▁वस्	-1997
▁పంప	-1998
యొద్ద	-1999
ವತ್ತು	-2000
▁आशीष	-2001
▁निकल	-2002
▁అనగా	-2003
▁Sarah	-2004
▁young	-2005
▁ಅಂದರು	-2006
▁ಅಂದಳು	-2007
▁ಹೆಚ್ಚ	-2008
▁स्त्री	-2009
▁स्वामी	-2010
▁ಅವನಿಂದ	-2011
▁इस्राएल	-2012
▁బ్రదికి	-2013
▁ತಕ್ಕೊಂಡು	-2014
um	-2015
तु	-2016
మై	-2017
ೀಮ	-2018
ies	-2019
ish	-2020
धान	-2021
యము	-2022
యిన	-2023
ಕನು	-2024
ದ್ಧ	-2025
▁रो	-2026
▁షే	-2027
ople	-2028
సెను	-2029
ನಿಗೂ	-2030
▁wom	-2031
▁उठा	-2032
▁लिआ	-2033
▁done	-2034
▁ప్రా	-2035
▁ಇಲ್ಲ	-2036
▁ಕತ್ತ	-2037
▁दूंगा	-2038
▁నున్న	-2039
▁రాత్ర	-2040
▁ಕೊಡುವ	-2041
▁ಹೋಗುವ	-2042
యొద్దకు	-2043
▁people	-2044
▁ఆశీర్వ	-2045
ట్టుకొని	-2046
▁ಮಗನನ್ನು	-2047
▁ಮಾಡಿದ್ದ	-2048
▁ప్రకారము	-2049
నె	-2050
పా	-2051
షు	-2052
म्ब	-2053
हें	-2054
ूदा	-2055
కాశ	-2056
ಹಾರ	-2057
▁కల	-2058
▁దయ	-2059
▁మర	-2060
▁యజ	-2061
▁సు	-2062
र्वा	-2063
ొక్క	-2064
ಟ್ಟಿ	-2065
ನಾಂಗ	-2066
▁yet	-2067
▁गाय	-2068
▁మీద	-2069
▁ಮಾರ	-2070
▁ಲೋಟ	-2071
र्वाद	-2072
చ్చిన	-2073
ರೆಲ್ಲ	-2074
▁betw	-2075
▁कहने	-2076
▁पीछे	-2077
▁కనిన	-2078
▁ಆಕಾಶ	-2079
▁ದೇಶದ	-2080
ೊಂದಿಗೆ	-2081
▁first	-2082
▁दोनों	-2083
▁మాటలా	-2084
▁ಕರ್ತನ	-2085
▁నీళ్లు	-2086
▁వాటిని	-2087
▁ಯಾಕೋಬನ	-2088
▁దేశములో	-2089
▁आशीर्वाद	-2090
▁ಇಸ್ರಾಯೇಲ	-2091
▁therefore	-2092
డవ	-2093
ಬಿ	-2094
ಹೂ	-2095
್ಞ	-2096
್ಥ	-2097
▁ధ	-2098
ian	-2099
काश	-2100
प्र	-2101
ैसा	-2102
ಹೋದ	-2103
ೆಲೆ	-2104
▁dr	-2105
▁if	-2106
▁अल	-2107
▁యూ	-2108
▁రూ	-2109
▁ಅಡ	-2110
▁ಎರ	-2111
▁ಕೇ	-2112
self	-2113
కొను	-2114
ಲಾಗಿ	-2115
▁Lot	-2116
▁fam	-2117
▁भाग	-2118
▁सम्	-2119
▁ఆయన	-2120
▁ಕನಸ	-2121
▁comm	-2122
▁told	-2123
▁खड़ा	-2124
▁यहां	-2125
▁మంచి	-2126
▁ಆಹಾರ	-2127
▁ಕಣ್ಣ	-2128
▁ನೀರು	-2129
▁ಸತ್ತ	-2130
▁ಹುಡು	-2131
▁ಹೇಳು	-2132
▁करेगा	-2133
▁ಜನಾಂಗ	-2134
▁ಬಂದನು	-2135
▁ಹೊರಟು	-2136
ವಾಗಿದ್ದ	-2137
▁చెప్పగా	-2138
पर	-2139
हर	-2140
ంచ	-2141
పో	-2142
బ్	-2143
ong	-2144
र्ग	-2145
సిన	-2146
ದೇಶ	-2147
ೊಳಗ	-2148
▁Ad	-2149
▁al	-2150
▁ఆహ	-2151
▁కో	-2152
▁సే	-2153
▁ದು	-2154
oney	-2155
ರಿಗೂ	-2156
ಿರುವ	-2157
▁art	-2158
▁अलग	-2159
▁रात	-2160
▁ಕರೆ	-2161
▁ಗರ್	-2162
▁ಲೇಯ	-2163
▁ಹಾಕ	-2164
ಬೆಕ್ಕ	-2165
▁Leah	-2166
▁died	-2167
▁పట్ట	-2168
▁ನೋಡಿ	-2169
▁ఆమెను	-2170
▁ಫರೋಹನ	-2171
▁ಹೆಸರು	-2172
▁मनुष्य	-2173
▁వెళ్లు	-2174
▁ಏಸಾವನು	-2175
▁కుమారులను	-2176
▁ಹುಟ್ಟಿದರು	-2177
us	-2178
की	-2179
मु	-2180
నో	-2181
▁(	-2182
▁झ	-2183
दोम	-2184
పడి	-2185
ಂಡು	-2186
ಧ್ಯ	-2187
▁उठ	-2188
▁चु	-2189
▁दु	-2190
▁ಮರ	-2191
▁ಹೂ	-2192
िबका	-2193
వరకు	-2194
్ఞాప	-2195
ಕ್ಷಿ	-2196
▁acc	-2197
▁see	-2198
▁लगी	-2199
▁लगे	-2200
▁समे	-2201
▁ಅರ್	-2202
▁ಕಾಣ	-2203
▁ಯಾವ	-2204
యున్న	-2205
ಬ್ಬರು	-2206
ಾಯಿತು	-2207
▁hear	-2208
▁life	-2209
▁आकाश	-2210
▁द्वा	-2211
▁మృతి	-2212
▁ಬದುಕ	-2213
▁ಯೆಹೂ	-2214
▁ರಾತ್	-2215
ording	-2216
▁dwell	-2217
▁money	-2218
▁रिबका	-2219
▁ఇదిగో	-2220
▁heaven	-2221
▁waters	-2222
▁दृष्टि	-2223
▁చెప్పు	-2224
▁చేసెను	-2225
▁దేశమందు	-2226
▁నాయకుడు	-2227
▁సంతానము	-2228
▁ರೆಬೆಕ್ಕ	-2229
▁according	-2230
▁కుమారుడైన	-2231
pp	-2232
ंख	-2233
ंट	-2234
्य	-2235
ೇಮ	-2236
▁j	-2237
▁ट	-2238
ice	-2239
చేత	-2240
ట్ల	-2241
మంద	-2242
్రీ	-2243
▁di	-2244
▁fe	-2245
▁ऊं	-2246
▁దూ	-2247
▁సి	-2248
▁ಕ್	-2249
▁ಸಮ	-2250
ites	-2251
మాను	-2252
ములు	-2253
ಳಿಗೆ	-2254
ೊಂದು	-2255
▁For	-2256
▁Now	-2257
▁bow	-2258
▁set	-2259
▁spe	-2260
▁गर्	-2261
▁అంత	-2262
▁ఆదా	-2263
▁స్థ	-2264
▁ಗುಡ	-2265
ಿದ್ದೇ	-2266
▁उनकी	-2267
▁बेटे	-2268
▁ఆకాశ	-2269
▁మేము	-2270
▁పొలము	-2271
ಲ್ಲಿದ್ದ	-2272
▁should	-2273
▁అప్పుడ	-2274
▁దేవుని	-2275
▁వారికి	-2276
ವನಾಗಿದ್ದ	-2277
▁చెప్పిన	-2278
▁ಕರಕೊಂಡು	-2279
▁ಯಾಕೋಬನಿಗೆ	-2280
ne	-2281
दम	-2282
ంగ	-2283
టు	-2284
శ్	-2285
ెర	-2286
ೀಯ	-2287
लों	-2288
ిక్	-2289
ಿದೆ	-2290
▁no	-2291
▁కర	-2292
▁జా	-2293
▁రి	-2294
▁ಮೇ	-2295
▁ಶೆ	-2296
ebek	-2297
ट्टी	-2298
గును	-2299
▁Jud	-2300
▁Let	-2301
▁mas	-2302
▁आंख	-2303
▁आदम	-2304
▁ऊपर	-2305
▁दूस	-2306
▁बता	-2307
▁ಕುಡ	-2308
▁ಜೀವ	-2309
▁ಬಾವ	-2310
▁ಮೊದ	-2311
ಕೊಳ್ಳ	-2312
ನಂದರೆ	-2313
ಿಯಾಗಿ	-2314
▁born	-2315
▁गर्भ	-2316
▁निकट	-2317
▁पिला	-2318
▁पुत्	-2319
▁समेत	-2320
▁ప్రభ	-2321
▁లోతు	-2322
▁ಮಧ್ಯ	-2323
▁ಹಿಂದ	-2324
ebekah	-2325
ೆಯಲ್ಲಿ	-2326
▁heard	-2327
▁night	-2328
▁three	-2329
▁water	-2330
▁जितने	-2331
▁यहूदा	-2332
▁वृक्ष	-2333
▁తెలియ	-2334
▁ಗುಡಾರ	-2335
▁master	-2336
▁రాత్రి	-2337
▁వారితో	-2338
▁Rebekah	-2339
▁ఆశీర్వద	-2340
छी	-2341
टा	-2342
ूल	-2343
కె	-2344
ొక	-2345
ಂಚ	-2346
ೋನ	-2347
ink	-2348
ome	-2349
ond	-2350
ous	-2351
राई	-2352
ुंह	-2353
ధిప	-2354
మున	-2355
స్థ	-2356
ಕ್ತ	-2357
ಬಾರ	-2358
▁ne	-2359
▁ఎవ	-2360
▁చు	-2361
▁ಹಣ	-2362
iver	-2363
ल्ला	-2364
టిలో	-2365
బడిన	-2366
వందల	-2367
ಷ್ಟು	-2368
ೆಂದು	-2369
▁Eph	-2370
▁sou	-2371
▁तीन	-2372
▁हों	-2373
▁ಕೂಡ	-2374
▁ಕೊಡ	-2375
▁ನಾನ	-2376
ికిని	-2377
ూర్చి	-2378
ಿನಿಂದ	-2379
▁both	-2380
▁know	-2381
▁pres	-2382
▁thir	-2383
▁करता	-2384
▁पूछा	-2385
▁मुंह	-2386
▁రిబ్	-2387
▁లేయా	-2388
▁శారా	-2389
▁ತಾನು	-2390
▁ಹೂಣಿ	-2391
▁కన్ను	-2392
▁తమ్ము	-2393
▁పుట్ట	-2394
▁యొద్ద	-2395
▁ಇನ್ನೂ	-2396
▁ಮಾಡಿದ	-2397
▁मिट्टी	-2398
▁ಫರೋಹನು	-2399
▁ಯೋಸೇಫನ	-2400
▁ಲಾಬಾನನು	-2401
▁ಬಳಿಯಲ್ಲಿ	-2402
ंच	-2403
नो	-2404
रो	-2405
దో	-2406
మో	-2407
ಷೆ	-2408
ೀಲ	-2409
दान	-2410
र्म	-2411
దేశ	-2412
బంధ	-2413
ನಾಡ	-2414
ಿಯು	-2415
ೆಯು	-2416
▁Re	-2417
▁bu	-2418
▁ఓడ	-2419
▁గల	-2420
▁తి	-2421
▁దొ	-2422
ived	-2423
नेहा	-2424
తివి	-2425
నీవు	-2426
ಕ್ಕೂ	-2427
ೃಷ್ಟ	-2428
ೊಡ್ಡ	-2429
▁mul	-2430
▁who	-2431
▁लूत	-2432
▁గుడ	-2433
▁నరు	-2434
ither	-2435
रियों	-2436
ద్దరు	-2437
ములను	-2438
వలెను	-2439
ಿಯಿಂದ	-2440
▁अकाल	-2441
▁पड़ा	-2442
▁కొని	-2443
▁పాతి	-2444
▁యేడు	-2445
ಿದ್ದನು	-2446
ೊಳಗಿಂದ	-2447
▁Judah	-2448
▁flesh	-2449
▁ಹುಡುಗ	-2450
లన్నియు	-2451
▁mother	-2452
▁प्रधान	-2453
▁యజమాను	-2454
▁స్త్రీ	-2455
▁ಮಾತನಾಡ	-2456
ಗಳಾಗಿದ್ದ	-2457
▁पुत्रों	-2458
▁ಮಾಡಿದನು	-2459
▁ಅಬ್ರಹಾಮನ	-2460
▁ಮನುಷ್ಯನು	-2461
▁అప్పుడతడు	-2462
▁ಐಗುಪ್ತದೇಶ	-2463
▁కుమార్తెలను	-2464
బె	-2465
బొ	-2466
ెల	-2467
ಗ್	-2468
ಿತ	-2469
▁ಧ	-2470
elt	-2471
led	-2472
uch	-2473
तान	-2474
लें	-2475
हाज	-2476
గగా	-2477
లిప	-2478
శ్చ	-2479
್ರಾ	-2480
▁ఏల	-2481
▁ಊಟ	-2482
▁ಎಫ	-2483
ండగా	-2484
ండిన	-2485
ీయుల	-2486
ైనను	-2487
ಾಗುವ	-2488
ಿಕ್ಕ	-2489
▁die	-2490
▁अबी	-2491
▁ಒಂದ	-2492
▁ಕಾಯ	-2493
▁ತಾಯ	-2494
तियों	-2495
▁What	-2496
▁duke	-2497
▁mult	-2498
▁tent	-2499
▁whom	-2500
▁जहाज	-2501
▁तम्ब	-2502
▁కరవు	-2503
▁జనము	-2504
▁యూదా	-2505
▁విని	-2506
▁ಹೋಗು	-2507
▁bread	-2508
▁conce	-2509
▁count	-2510
▁मार्ग	-2511
▁लोगों	-2512
▁చూచిన	-2513
▁ದೊಡ್ಡ	-2514
▁ಪ್ರಾಣ	-2515
▁उन्हें	-2516
▁प्रकार	-2517
▁ಹೆತ್ತಳು	-2518
▁ಹೇಳಿದನು	-2519
ix	-2520
भी	-2521
ಧಿ	-2522
ged	-2523
ked	-2524
तें	-2525
लेक	-2526
లుప	-2527
ారి	-2528
ಮಾಣ	-2529
ೆವು	-2530
▁मु	-2531
▁దు	-2532
▁లె	-2533
▁ಬಲ	-2534
nder	-2535
vent	-2536
దాని	-2537
లమీద	-2538
ಂಬಡಿ	-2539
ಹೋಗಿ	-2540
ುಗಳು	-2541
್ಞಾಪ	-2542
▁ark	-2543
▁पहा	-2544
▁बच्	-2545
▁అడి	-2546
▁అబీ	-2547
▁యావ	-2548
▁ಒಂಟ	-2549
▁ಓಡಿ	-2550
▁ಸಂಪ	-2551
▁ಸ್ವ	-2552
ित्ती	-2553
ಾಗಿಯೂ	-2554
▁left	-2555
▁मिला	-2556
▁वाचा	-2557
▁రెండ	-2558
▁వీరు	-2559
▁ಒಡೆಯ	-2560
venant	-2561
ీయులను	-2562
▁beast	-2563
▁dwelt	-2564
▁जाएगा	-2565
▁पशुओं	-2566
▁पहिले	-2567
▁बातें	-2568
▁అనెను	-2569
▁విస్త	-2570
▁ಏಸಾವನ	-2571
▁ಮಾರ್ಗ	-2572
▁ಹೋದನು	-2573
▁మృతిబొ	-2574
▁ಒಡಂಬಡಿ	-2575
▁बेटियां	-2576
▁దేవుడైన	-2577
▁covenant	-2578
▁ಅಬ್ರಾಮನು	-2579
▁ದಿನದಲ್ಲಿ	-2580
▁కుమారుడగు	-2581
▁ಹುಟ್ಟಿದನು	-2582
▁ಹೆಂಡತಿಯಾದ	-2583
▁ಹೆಸರಿಟ್ಟನು	-2584
బా	-2585
యై	-2586
ಂಧ	-2587
ಣೆ	-2588
ದರ	-2589
▁K	-2590
ise	-2591
द्ध	-2592
वती	-2593
ంపు	-2594
మంత	-2595
ಂದೂ	-2596
ಕಾಲ	-2597
▁gi	-2598
▁tr	-2599
▁उप	-2600
▁ती	-2601
▁मत	-2602
▁ఇం	-2603
▁ఎఫ	-2604
▁నూ	-2605
▁ಕಿ	-2606
▁ಕೋ	-2607
▁ಗೋ	-2608
▁ಭಯ	-2609
▁ಮಲ	-2610
▁ರೊ	-2611
oice	-2612
వారి	-2613
ృక్ష	-2614
ವುಗಳ	-2615
ಾನ್ಯ	-2616
▁pit	-2617
▁str	-2618
▁आगे	-2619
▁మరల	-2620
▁మార	-2621
▁ನಾವ	-2622
▁ಸಮಾ	-2623
ండును	-2624
త్తము	-2625
ప్పున	-2626
ಗಿದ್ದ	-2627
ನನ್ನೂ	-2628
▁Abim	-2629
▁time	-2630
▁word	-2631
▁ఉన్న	-2632
▁ಅಬೀಮ	-2633
▁ಕೇಳಿ	-2634
▁ಮಂದಿ	-2635
ొప్పున	-2636
▁నిబంధ	-2637
▁ಅಂದಾಗ	-2638
లోనుండి	-2639
▁ಪ್ರಮಾಣ	-2640
▁between	-2641
▁ಯಾರಂದರೆ	-2642
▁ಅಬ್ರಹಾಮನಿಗೆ	-2643
ip	-2644
बल	-2645
रह	-2646
से	-2647
టా	-2648
ోజ	-2649
ದೋ	-2650
ಷಯ	-2651
್ವ	-2652
್ಸ	-2653
out	-2654
sed	-2655
tur	-2656
uit	-2657
कट्	-2658
त्य	-2659
క్త	-2660
తని	-2661
ీను	-2662
ేను	-2663
ತ್ರ	-2664
ಿಸು	-2665
ೂರ್	-2666
ೇಲ್	-2667
▁Ar	-2668
▁Go	-2669
▁or	-2670
▁sw	-2671
▁आज	-2672
▁कै	-2673
▁चि	-2674
▁दा	-2675
▁मो	-2676
▁భయ	-2677
▁వం	-2678
▁ಇಳ	-2679
▁ಕಡ	-2680
▁ಪಶ	-2681
▁ವಸ	-2682
డిచి	-2683
ద్దు	-2684
నేను	-2685
పోయి	-2686
ప్పగ	-2687
మెలె	-2688
రుగు	-2689
లికి	-2690
ల్లి	-2691
ెదను	-2692
ರಿಸಿ	-2693
▁any	-2694
▁lad	-2695
▁sis	-2696
▁ऊंट	-2697
▁दिए	-2698
▁ಇಷ್	-2699
▁ನಾಶ	-2700
▁ಬಹಳ	-2701
ather	-2702
elech	-2703
मेलेक	-2704
वस्था	-2705
మ్మని	-2706
ಟ್ಟರು	-2707
ದಿಲ್ಲ	-2708
ನೆಂದು	-2709
ೆಯಿಂದ	-2710
▁lift	-2711
▁look	-2712
▁more	-2713
▁near	-2714
▁what	-2715
▁इकट्	-2716
▁दण्ड	-2717
▁पड़े	-2718
▁रहता	-2719
▁रहने	-2720
▁ఒంటె	-2721
▁గాని	-2722
▁తనకు	-2723
▁నాతో	-2724
▁ಅವಳು	-2725
▁ನಿಂತ	-2726
▁ಬೇರೆ	-2727
▁ವಿಷಯ	-2728
ವದಕ್ಕೆ	-2729
▁fruit	-2730
▁retur	-2731
▁बान्ध	-2732
▁लड़के	-2733
▁ಆಕಾಶದ	-2734
▁ಸ್ತ್ರ	-2735
erefore	-2736
▁famine	-2737
▁flocks	-2738
▁ground	-2739
▁sister	-2740
▁करूंगा	-2741
▁परन्तु	-2742
▁అతనిని	-2743
▁కలిగిన	-2744
▁పోయెను	-2745
▁ಇಬ್ಬರು	-2746
▁command	-2747
▁गर्भवती	-2748
▁అబీమెలె	-2749
▁గుడారము	-2750
▁ಅಬೀಮೆಲೆ	-2751
▁ತಕ್ಕೊಂಡ	-2752
▁अबीमेलेक	-2753
▁పిల్లలను	-2754
▁భార్యయైన	-2755
▁వెళ్లెను	-2756
▁ಆಕೆಯನ್ನು	-2757
▁ಸಹೋದರನಾದ	-2758
▁Abimelech	-2759
▁ಅವುಗಳನ್ನು	-2760
▁ವರುಷದವನಾಗಿದ್ದ	-2761
ंड	-2762
జు	-2763
ಲೆ	-2764
तना	-2765
लवा	-2766
्रह	-2767
బడి	-2768
లువ	-2769
వతి	-2770
్రవ	-2771
▁ex	-2772
▁कब	-2773
▁बो	-2774
▁शा	-2775
▁కి	-2776
▁ది	-2777
▁వీ	-2778
▁హే	-2779
▁ತು	-2780
▁ತೋ	-2781
्याह	-2782
గెను	-2783
మి్మ	-2784
▁Ham	-2785
▁Ish	-2786
▁ang	-2787
▁ass	-2788
▁kne	-2789
▁आने	-2790
▁बढ़	-2791
▁ఇష్	-2792
▁గాక	-2793
▁జీవ	-2794
▁పని	-2795
▁భోజ	-2796
▁ముఖ	-2797
▁ಇವರ	-2798
▁ಮನೆ	-2799
ఇదిగో	-2800
మాణము	-2801
యముగా	-2802
యొక్క	-2803
▁Beth	-2804
▁बड़ी	-2805
▁बाहर	-2806
▁పోవు	-2807
▁వస్త	-2808
▁ಒಂಟೆ	-2809
▁ಕೊಂಡ	-2810
▁ನಮಗೆ	-2811
▁ಮಂದೆ	-2812
▁ಶೆಕೆ	-2813
ಿದ್ದರು	-2814
▁drink	-2815
▁right	-2816
▁voice	-2817
▁wives	-2818
▁अच्छी	-2819
▁तम्बू	-2820
▁ब्याह	-2821
▁అట్లు	-2822
▁తల్లి	-2823
▁నిశ్చ	-2824
▁యింటి	-2825
▁ಅವುಗಳ	-2826
▁ಕರೆದು	-2827
▁ಗರ್ಭಿ	-2828
▁ಸಿಕ್ಕ	-2829
▁camels	-2830
▁ತಂದೆಗೆ	-2831
▁ದಿನಗಳು	-2832
▁against	-2833
▁యావత్తు	-2834
▁ಯೋಸೇಫನಿಗೆ	-2835
ठे	-2836
पथ	-2837
षय	-2838
▁ई	-2839
ael	-2840
vil	-2841
राम	-2842
డిద	-2843
ద్ర	-2844
బడు	-2845
మ్మ	-2846
ిల్	-2847
ಮ್ಯ	-2848
ೆರೆ	-2849
ೋನ್	-2850
▁So	-2851
▁ke	-2852
▁सक	-2853
▁सि	-2854
▁చో	-2855
▁ధా	-2856
▁ದನ	-2857
▁ರೂ	-2858
aken	-2859
ened	-2860
ving	-2861
माएल	-2862
ಡಿರಿ	-2863
▁ten	-2864
▁भेज	-2865
▁मोल	-2866
▁लौट	-2867
▁ఊరి	-2868
▁చని	-2869
▁బంధ	-2870
▁మొద	-2871
▁ಎದು	-2872
చ్చెద	-2873
జ్ఞాప	-2874
ననెను	-2875
ಗಳಿಗೆ	-2876
ಟ್ಟಳು	-2877
ರಿಸುವ	-2878
ರುತ್ತ	-2879
▁This	-2880
▁five	-2881
▁same	-2882
▁sure	-2883
▁tree	-2884
▁छोड़	-2885
▁पक्ष	-2886
▁बहिन	-2887
▁भेंट	-2888
▁मरने	-2889
▁लौंड	-2890
▁विषय	-2891
▁తీసి	-2892
▁దగ్గ	-2893
▁పక్ష	-2894
▁పొంద	-2895
▁రాజు	-2896
▁వాని	-2897
▁ಅಪ್ಪ	-2898
▁ಸಮಾಧ	-2899
selves	-2900
నుకొని	-2901
▁among	-2902
▁taken	-2903
▁thine	-2904
▁दण्डव	-2905
▁నుండి	-2906
▁పెద్ద	-2907
▁మార్గ	-2908
▁ಒಳ್ಳೇ	-2909
▁ನಿಮಗೆ	-2910
▁ಮಗಳಾದ	-2911
చుండెను	-2912
ದ್ದರಿಂದ	-2913
▁अवस्था	-2914
▁द्वारा	-2915
▁ఉండెను	-2916
▁దయచేసి	-2917
▁రిబ్కా	-2918
▁ತಂದೆಯು	-2919
▁ಮೇಲೆಯೂ	-2920
ಿದ್ದರಿಂದ	-2921
▁himself	-2922
▁बेटियों	-2923
▁కుమారుల	-2924
▁దినములు	-2925
▁దేశమునకు	-2926
▁ప్రమాణము	-2927
▁మృతిబొంద	-2928
ಗಳಾಗಿದ್ದವು	-2929
▁conceived	-2930
▁మనుష్యులు	-2931
▁ಮಧ್ಯದಲ್ಲಿ	-2932
ib	-2933
ic	-2934
ol	-2935
टे	-2936
డే	-2937
ివ	-2938
ొమ	-2939
ರೀ	-2940
ವೋ	-2941
ese	-2942
ove	-2943
ron	-2944
केम	-2945
ంచు	-2946
గిల	-2947
తుల	-2948
పము	-2949
రువ	-2950
వని	-2951
వలె	-2952
్రమ	-2953
ಂಟು	-2954
ಮಾಯ	-2955
ರಾದ	-2956
ರಿನ	-2957
ಾರೆ	-2958
ೆದು	-2959
ೊದೋ	-2960
▁Se	-2961
▁आप	-2962
▁ಚೊ	-2963
▁ಫಲ	-2964
▁ಮೆ	-2965
ence	-2966
ener	-2967
iled	-2968
ison	-2969
ning	-2970
odom	-2971
न्या	-2972
దును	-2973
వాని	-2974
ొదొమ	-2975
ಯಿತು	-2976
ೃದ್ಧ	-2977
ೊಳಗೆ	-2978
▁fow	-2979
▁इश्	-2980
▁डाल	-2981
▁नाश	-2982
▁शपथ	-2983
▁सन्	-2984
▁అడు	-2985
▁అవి	-2986
▁జ్య	-2987
▁నాశ	-2988
▁ಎರಡ	-2989
▁ಕಂಡ	-2990
▁ದೇವ	-2991
కొరకు	-2992
ప్పది	-2993
ృద్ధి	-2994
ಗಿರುವ	-2995
ರಲ್ಲಿ	-2996
▁Cain	-2997
▁Ishm	-2998
▁bury	-2999
▁dest	-3000
▁food	-3001
▁rose	-3002
▁sack	-3003
▁एप्र	-3004
▁ठहरा	-3005
▁देकर	-3006
▁शकेम	-3007
▁గోనె	-3008
▁దాసి	-3009
▁ధాన్	-3010
▁బయలు	-3011
పోయెను	-3012
ಲ್ಲಿಯೂ	-3013
▁Sodom	-3014
▁These	-3015
▁gener	-3016
▁given	-3017
▁ప్రయా	-3018
▁ಚೊಚ್ಚ	-3019
▁ನಿನಗೂ	-3020
▁ಪಕ್ಷಿ	-3021
ಕೆಯನ್ನು	-3022
ನಾಗಿದ್ದ	-3023
ಿಸುವೆನು	-3024
▁ವಸ್ತ್ರ	-3025
▁ಸಂತತಿಯ	-3026
▁इश्माएल	-3027
▁చొప్పున	-3028
▁వచ్చెను	-3029
▁ಕರ್ತನಾದ	-3030
▁ದೇಶಕ್ಕೆ	-3031
sw	-3032
ूर	-3033
ृह	-3034
తూ	-3035
యమ	-3036
రే	-3037
ವಸ	-3038
▁ढ	-3039
ide	-3040
roy	-3041
కము	-3042
త్య	-3043
నైన	-3044
వాహ	-3045
ష్ఠ	-3046
్వర	-3047
ರಿದ	-3048
ಹನು	-3049
▁Ed	-3050
▁sm	-3051
▁छू	-3052
▁जे	-3053
▁धा	-3054
▁पो	-3055
▁बल	-3056
▁शि	-3057
▁ಉಳ	-3058
▁ಬದ	-3059
▁ಲೆ	-3060
born	-3061
ised	-3062
ough	-3063
न्दर	-3064
కుండ	-3065
దురు	-3066
మంది	-3067
మారు	-3068
ార్థ	-3069
ೊಬ್ಬ	-3070
▁lit	-3071
▁तीस	-3072
▁रूप	-3073
▁समा	-3074
▁सिर	-3075
▁కను	-3076
▁చంప	-3077
▁పది	-3078
▁బహు	-3079
▁ಕಾಲ	-3080
ంతువు	-3081
బడును	-3082
రువది	-3083
▁answ	-3084
▁exce	-3085
▁four	-3086
▁morn	-3087
▁जहां	-3088
▁बन्ध	-3089
▁सदोम	-3090
▁होने	-3091
▁కట్ట	-3092
▁కలుగ	-3093
▁తప్ప	-3094
▁త్రా	-3095
▁మును	-3096
▁యెడల	-3097
▁వేరు	-3098
▁ನಾಲ್	-3099
▁ಯಾಕೆ	-3100
▁ಸೇವಕ	-3101
▁ಸೊದೋ	-3102
▁mount	-3103
▁woman	-3104
▁अच्छा	-3105
▁दासों	-3106
▁ఇష్మా	-3107
▁దేశము	-3108
▁ತಕ್ಕೊ	-3109
▁ಧಾನ್ಯ	-3110
▁ನೋಡುವ	-3111
▁ಬಂದಾಗ	-3112
మిత్తము	-3113
▁gather	-3114
▁little	-3115
▁multip	-3116
▁पहुंचा	-3117
▁నిబంధన	-3118
▁నీకును	-3119
▁పెట్టు	-3120
▁ಇಷ್ಮಾಯ	-3121
▁ಚೊಚ್ಚಲ	-3122
▁ಹೆಂಡತಿ	-3123
ಿಸಲ್ಪಟ್ಟ	-3124
▁destroy	-3125
▁morning	-3126
▁గర్భవతి	-3127
▁నప్పుడు	-3128
▁యేండ్లు	-3129
▁ಕೊಟ್ಟನು	-3130
▁Egyptian	-3131
▁तुम्हारा	-3132
▁ಮನುಷ್ಯರು	-3133
▁firstborn	-3134
▁అబీమెలెకు	-3135
▁నిశ్చయముగా	-3136
▁ಹೆಸರಿಟ್ಟಳು	-3137
▁సంవత్సరములు	-3138
ंस	-3139
रन	-3140
జే	-3141
ಕೋ	-3142
▁U	-3143
ate	-3144
orr	-3145
oss	-3146
til	-3147
uel	-3148
चार	-3149
द्र	-3150
मुख	-3151
रवा	-3152
श्च	-3153
కను	-3154
ద్ధ	-3155
ద్య	-3156
రని	-3157
ಗನು	-3158
ಮೋರ	-3159
ಲೆಯ	-3160
ವಂತ	-3161
ಸ್ಥ	-3162
ಾನದ	-3163
ಾವಿ	-3164
▁El	-3165
▁Ja	-3166
▁गद	-3167
▁बन	-3168
▁దీ	-3169
▁మొ	-3170
▁ದಿ	-3171
▁ಮೈ	-3172
राने	-3173
పరచు	-3174
మీరు	-3175
య్యి	-3176
▁Ben	-3177
▁can	-3178
▁rem	-3179
▁दाख	-3180
▁मार	-3181
▁విష	-3182
▁ಚೀಲ	-3183
oured	-3184
▁head	-3185
▁डाला	-3186
▁बकरी	-3187
▁बढ़ा	-3188
▁मिद्	-3189
▁అన్న	-3190
▁ద్రా	-3191
▁మూడు	-3192
▁ಎಲ್ಲ	-3193
▁ದ್ರಾ	-3194
▁ನಿಗೆ	-3195
gether	-3196
ಿಸಿದಾಗ	-3197
▁creat	-3198
▁hands	-3199
▁might	-3200
▁under	-3201
▁जानता	-3202
▁मैदान	-3203
▁సంతాన	-3204
▁సొదొమ	-3205
▁ಇನ್ನು	-3206
▁ಮೊದಲು	-3207
▁ಶೆಕೆಮ	-3208
▁thence	-3209
▁toward	-3210
▁सम्मुख	-3211
▁ఐగుప్త	-3212
▁నాశనము	-3213
▁nations	-3214
▁दण्डवत्	-3215
▁ద్రాక్ష	-3216
▁ಕುಮಾರರೂ	-3217
▁ದ್ರಾಕ್ಷ	-3218
▁ಯೆಹೂದನು	-3219
▁multiply	-3220
▁ಮನೆಯಲ್ಲಿ	-3221
▁ಐಗುಪ್ತಕ್ಕೆ	-3222
lt	-3223
of	-3224
रै	-3225
ంభ	-3226
టక	-3227
త్	-3228
పడ	-3229
ಮಿ	-3230
ಲೇ	-3231
ೋಣ	-3232
cum	-3233
eba	-3234
kes	-3235
ost	-3236
ज्य	-3237
हान	-3238
ामा	-3239
గాక	-3240
గ్ర	-3241
ింద	-3242
ెకె	-3243
ದ್ರ	-3244
ನೂರ	-3245
ಹಾಕ	-3246
ಾರು	-3247
ಿಂತ	-3248
ೇವೆ	-3249
▁If	-3250
▁My	-3251
▁गो	-3252
▁చా	-3253
▁పర	-3254
▁బే	-3255
▁భా	-3256
▁మె	-3257
▁స్	-3258
▁ಆಜ	-3259
amin	-3260
ance	-3261
cumc	-3262
erah	-3263
श्चय	-3264
తోను	-3265
పోవు	-3266
యీను	-3267
వేసి	-3268
ನಸ್ಸ	-3269
ುವದು	-3270
▁Nah	-3271
▁app	-3272
▁करो	-3273
▁चले	-3274
▁जिन	-3275
▁చేత	-3276
▁విన	-3277
▁ಅವಳ	-3278
▁ಕೆಲ	-3279
▁ಗಂಡ	-3280
▁ನೂರ	-3281
▁ಬೆಳ	-3282
▁ಸ್ತ	-3283
▁ಹಾಗ	-3284
యినను	-3285
▁Adam	-3286
▁bear	-3287
▁evil	-3288
▁herd	-3289
▁keep	-3290
▁maid	-3291
▁poss	-3292
▁very	-3293
▁उनका	-3294
▁किसी	-3295
▁कुएं	-3296
▁माता	-3297
▁मोटी	-3298
▁ఒక్క	-3299
▁చేతి	-3300
▁నియమ	-3301
▁ಇವರು	-3302
▁ಒಪ್ಪ	-3303
▁ಕಟ್ಟ	-3304
▁ನನಗೂ	-3305
▁ಮೂರು	-3306
ircumc	-3307
ನ್ಯಾವಿ	-3308
▁pitch	-3309
▁sheep	-3310
▁words	-3311
▁निकली	-3312
▁लौंडी	-3313
▁वस्तु	-3314
▁हमारा	-3315
▁होंगे	-3316
▁గాడిద	-3317
▁గొప్ప	-3318
▁ಇಸಾಕನ	-3319
▁ಕತ್ತೆ	-3320
▁ದೃಷ್ಟ	-3321
▁ಮನಸ್ಸ	-3322
▁ಮಾತ್ರ	-3323
▁ಯಜಮಾನ	-3324
▁ಸಂತಾನ	-3325
▁ಸುನ್ನ	-3326
▁ಹಿಂದೆ	-3327
▁ಹೋದರು	-3328
ಮಾಡಿದನು	-3329
ಲ್ಲಿರುವ	-3330
▁निश्चय	-3331
▁ఆహారము	-3332
▁పెట్టి	-3333
▁బయటికి	-3334
▁ಅರಸನಾದ	-3335
▁ಎಂಬವರು	-3336
▁ಒಳ್ಳೆಯ	-3337
ಡುತ್ತೇನೆ	-3338
▁possess	-3339
▁वस्त्रा	-3340
▁ప్రభువు	-3341
▁ముప్పది	-3342
▁ಮನುಷ್ಯನ	-3343
▁ರಾತ್ರಿಯ	-3344
▁ರಾಹೇಲಳು	-3345
▁blessing	-3346
▁returned	-3347
▁together	-3348
▁ಬೆನ್ಯಾವಿ	-3349
▁commanded	-3350
▁నిమిత్తము	-3351
▁మనుష్యుని	-3352
▁ಇಸ್ರಾಯೇಲನು	-3353
▁generations	-3354
qu	-3355
को	-3356
గ్	-3357
పి	-3358
రె	-3359
లీ	-3360
ళి	-3361
ుల	-3362
్ష	-3363
ಃಖ	-3364
ಗಲ	-3365
ಹನ	-3366
ಿರ	-3367
ೃಗ	-3368
ber	-3369
ief	-3370
ire	-3371
कों	-3372
र्व	-3373
होर	-3374
చ్చ	-3375
టను	-3376
ముల	-3377
ర్త	-3378
ర్ప	-3379
ర్ష	-3380
వకు	-3381
్రే	-3382
ರಾಧ	-3383
▁We	-3384
▁sl	-3385
▁जन	-3386
▁फा	-3387
▁फु	-3388
▁री	-3389
▁रे	-3390
▁सी	-3391
▁శయ	-3392
▁ಗಳ	-3393
▁ಮಿ	-3394
arai	-3395
reep	-3396
कारी	-3397
ండ్ల	-3398
న్యా	-3399
మీను	-3400
లాగు	-3401
లుగు	-3402
ನಾಗಿ	-3403
ನೀವು	-3404
ರುಗಿ	-3405
ಾಡುವ	-3406
▁div	-3407
▁ऐसी	-3408
▁कुल	-3409
▁कैन	-3410
▁नदी	-3411
▁बार	-3412
▁बाल	-3413
▁भला	-3414
▁मिल	-3415
▁క్ష	-3416
▁గదా	-3417
▁నూట	-3418
▁రూక	-3419
▁ಅಭಿ	-3420
▁ಅವು	-3421
▁ಏನು	-3422
▁ಬಲಿ	-3423
▁ಬಹು	-3424
▁ಯಾದ	-3425
▁ವ್ಯ	-3426
echem	-3427
jamin	-3428
ండ్లి	-3429
కమును	-3430
ధిపతి	-3431
న్నతి	-3432
యమును	-3433
లమందు	-3434
ిక్కి	-3435
ీయులు	-3436
ూర్పు	-3437
్రోను	-3438
ತ್ತಿರ	-3439
ಬಾರದು	-3440
ಹೋದನು	-3441
▁corn	-3442
▁east	-3443
▁knew	-3444
▁tell	-3445
▁कहला	-3446
▁खतना	-3447
▁सारै	-3448
▁తోడై	-3449
▁పారి	-3450
▁యింట	-3451
▁విషయ	-3452
▁షెకె	-3453
▁ಅಂದು	-3454
▁ಅಡ್ಡ	-3455
▁ದುಃಖ	-3456
▁ಪೂರ್	-3457
▁ಪ್ರಯ	-3458
▁ಸಾರಯ	-3459
नेवाले	-3460
న్నాడు	-3461
మ్మును	-3462
ించిరి	-3463
ಕೊಂಡರು	-3464
ಸವನ್ನು	-3465
ಿಯನ್ನೂ	-3466
▁Sarai	-3467
▁creep	-3468
▁light	-3469
▁other	-3470
▁sight	-3471
▁stood	-3472
▁until	-3473
▁ईश्वर	-3474
▁गायें	-3475
▁नाहोर	-3476
▁राज्य	-3477
▁రాజైన	-3478
▁సేవకు	-3479
▁ಅದಕ್ಕ	-3480
▁ಇಳಿದು	-3481
▁thirty	-3482
▁అయినను	-3483
▁తూర్పు	-3484
▁దానిని	-3485
▁పాతిపె	-3486
▁బెన్యా	-3487
▁సహోదరి	-3488
▁ಆಜ್ಞಾಪ	-3489
▁ಗರ್ಭಿಣ	-3490
▁ಪ್ರತ್ಯ	-3491
ించుకొని	-3492
▁Ishmael	-3493
▁Shechem	-3494
▁another	-3495
▁अधिकारी	-3496
▁పుట్టిన	-3497
▁భార్యను	-3498
▁యుండెను	-3499
▁సున్నతి	-3500
▁ಕಳುಹಿಸಿ	-3501
▁Benjamin	-3502
▁answered	-3503
▁తండ్రిని	-3504
▁ಸ್ಥಳಕ್ಕೆ	-3505
▁ಹೇಳಿದ್ದೇ	-3506
ircumcised	-3507
▁యాకోబునకు	-3508
▁ಅಬ್ರಾಮನಿಗೆ	-3509
▁ವಾಸವಾಗಿದ್ದ	-3510
▁ಕುಮಾರ್ತೆಯರೂ	-3511
ig	-3512
un	-3513
थर	-3514
గె	-3515
బో	-3516
సా	-3517
ಂಪ	-3518
ಂಶ	-3519
ಮೆ	-3520
ಹು	-3521
ang	-3522
igh	-3523
ort	-3524
pre	-3525
चकर	-3526
मीन	-3527
रान	-3528
िला	-3529
ुओं	-3530
ूर्	-3531
ोरा	-3532
्री	-3533
తిన	-3534
ప్ర	-3535
ష్ష	-3536
ಮ್ರ	-3537
ವಳು	-3538
ಹೋರ	-3539
▁En	-3540
▁कू	-3541
▁खे	-3542
▁डर	-3543
▁दस	-3544
▁धन	-3545
▁नी	-3546
▁यु	-3547
▁పై	-3548
▁రు	-3549
▁ದೀ	-3550
▁ನಡ	-3551
▁ನನ	-3552
▁ಬಡ	-3553
▁ಬಾ	-3554
▁ಹಸ	-3555
erad	-3556
ment	-3557
ग्रह	-3558
न्दी	-3559
ండని	-3560
ంతయు	-3561
గాను	-3562
డుచు	-3563
యనగా	-3564
యును	-3565
లిచి	-3566
ಗ್ಗೆ	-3567
▁dep	-3568
▁sec	-3569
▁six	-3570
▁आकर	-3571
▁उपज	-3572
▁जाओ	-3573
▁दूत	-3574
▁मान	-3575
▁वरन	-3576
▁समझ	-3577
▁కటా	-3578
▁చెర	-3579
▁దూత	-3580
▁ದನು	-3581
▁ಮಾಂ	-3582
ంచెను	-3583
ారాను	-3584
ಳನ್ನೂ	-3585
ವೃದ್ಧ	-3586
ಿದ್ದೀ	-3587
ಿದ್ದು	-3588
ಿಸಲ್ಪ	-3589
▁fowl	-3590
▁pill	-3591
▁अन्न	-3592
▁करें	-3593
▁खाया	-3594
▁जैसा	-3595
▁ठहरे	-3596
▁देने	-3597
▁पांच	-3598
▁वहीं	-3599
▁वैसा	-3600
▁చేతు	-3601
▁జ్యే	-3602
▁నీతో	-3603
▁పంపి	-3604
▁బావి	-3605
▁ಆದಾಮ	-3606
▁ಇವರೇ	-3607
▁ಕಂಡು	-3608
▁ಕರೆಯ	-3609
▁ಪ್ರೀ	-3610
▁ಮತ್ತ	-3611
▁ಮಾಡು	-3612
▁ಮುಂಚ	-3613
voured	-3614
ందరిని	-3615
మాయెను	-3616
ವರೆಲ್ಲ	-3617
▁Nahor	-3618
▁bowed	-3619
▁speak	-3620
▁whose	-3621
▁पहाड़	-3622
▁बन्दी	-3623
▁रहेगा	-3624
▁ఆదాము	-3625
▁తెల్ల	-3626
▁ముఖము	-3627
▁ಅಡ್ಡಬ	-3628
▁ಒಟ್ಟು	-3629
▁ನಾವೆಯ	-3630
▁ನೋಹನು	-3631
▁ಮುಖ್ಯ	-3632
▁ಸಾರಳು	-3633
▁ಹತ್ತು	-3634
▁ಹಾಗೆಯ	-3635
venture	-3636
▁lifted	-3637
▁living	-3638
▁things	-3639
▁प्राणी	-3640
▁सुन्दर	-3641
▁ఏలయనగా	-3642
▁చేసికొ	-3643
▁తీసికొ	-3644
▁ಪ್ರತಿಯ	-3645
▁ಪ್ರವಾಸ	-3646
▁ಬದಲಾಗಿ	-3647
▁ಬರುತ್ತ	-3648
▁ಸತ್ತನು	-3649
▁ಸಹೋದರರ	-3650
▁ಹತ್ತಿರ	-3651
▁country	-3652
▁अनुग्रह	-3653
▁పెండ్లి	-3654
▁ಸ್ತ್ರೀಯ	-3655
▁ಇಷ್ಮಾಯೇಲ	-3656
▁ಕೊಡುವೆನು	-3657
▁పట్టుకొని	-3658
▁ಭೂಮಿಯಲ್ಲಿ	-3659
eradventure	-3660
▁themselves	-3661
▁బెన్యామీను	-3662
▁కుమార్తెయైన	-3663
▁ಹೆಂಡತಿಯನ್ನು	-3664
az	-3665
ंझ	-3666
णा	-3667
तू	-3668
धा	-3669
वे	-3670
ैम	-3671
వై	-3672
ದಯ	-3673
ಾಳ	-3674
ೃಪ	-3675
ೊರ	-3676
▁.	-3677
ful	-3678
ist	-3679
ney	-3680
oll	-3681
rew	-3682
ंगी	-3683
म्भ	-3684
र्थ	-3685
र्श	-3686
िरा	-3687
ంటి	-3688
డను	-3689
మ్య	-3690
వేళ	-3691
సము	-3692
ీవు	-3693
ెనో	-3694
ಗುವ	-3695
ಗ್ಗ	-3696
ನಿನ	-3697
ಬೇಡ	-3698
ಲಾರ	-3699
ವೇಲ	-3700
ಶ್ಚ	-3701
ೆಯೇ	-3702
▁op	-3703
▁आओ	-3704
▁घा	-3705
▁ली	-3706
▁తా	-3707
▁ನದ	-3708
▁ಬೀ	-3709
▁ಮಹ	-3710
▁ಹದ	-3711
aran	-3712
enty	-3713
eous	-3714
outh	-3715
ried	-3716
నిమి	-3717
్యము	-3718
ಕೆಯು	-3719
ಶ್ಚಯ	-3720
ಿಗೆಯ	-3721
ೆರಡು	-3722
▁ser	-3723
▁ste	-3724
▁इसी	-3725
▁बैल	-3726
▁शेम	-3727
▁ఇది	-3728
▁చూడ	-3729
▁దాస	-3730
▁ಎದೋ	-3731
▁ಕೃಪ	-3732
▁ಕೋಪ	-3733
▁ಕ್ಷ	-3734
▁ಜನರ	-3735
▁ಬಂಧ	-3736
▁ಬಾಧ	-3737
▁ಮುಗ	-3738
▁ವಂಶ	-3739
క్షము	-3740
తివిు	-3741
లకును	-3742
లమును	-3743
వచ్చి	-3744
ెదనని	-3745
్రింద	-3746
ದೇವರು	-3747
ಮಾಡಿದ	-3748
ಲ್ಲದೆ	-3749
ೆತ್ತಿ	-3750
▁Shem	-3751
▁find	-3752
▁jour	-3753
▁mine	-3754
▁than	-3755
▁अत्य	-3756
▁कहकर	-3757
▁छोटे	-3758
▁जाने	-3759
▁परदे	-3760
▁पूरा	-3761
▁बड़ा	-3762
▁रीति	-3763
▁विदा	-3764
▁सेवा	-3765
▁होता	-3766
▁ఆస్త	-3767
▁ఆహార	-3768
▁కాపు	-3769
▁జలము	-3770
▁తిని	-3771
▁నాహో	-3772
▁పురు	-3773
▁మీకు	-3774
▁వాడు	-3775
▁వెను	-3776
▁ಇರಲಿ	-3777
▁ಒಂದೇ	-3778
▁ತಪ್ಪ	-3779
▁ತುಂಬ	-3780
▁ಮಗನು	-3781
terpre	-3782
గూర్చి	-3783
ట్టెను	-3784
తరువాత	-3785
నియెడల	-3786
ನ್ನಾಗಿ	-3787
ವಾಗಿಯೂ	-3788
ಿದ್ದರೆ	-3789
ಿಸುತ್ತ	-3790
▁Ephra	-3791
▁asses	-3792
▁depar	-3793
▁forty	-3794
▁mouth	-3795
▁river	-3796
▁उठाकर	-3797
▁उत्तर	-3798
▁घराने	-3799
▁निकाल	-3800
▁पत्थर	-3801
▁ఆమెతో	-3802
▁కయీను	-3803
▁దాసుల	-3804
▁పక్షు	-3805
▁బ్రదు	-3806
▁ముందు	-3807
▁రెండవ	-3808
▁రెండు	-3809
▁వృక్ష	-3810
▁సాగిల	-3811
▁సిద్ధ	-3812
▁ಇಟ್ಟು	-3813
▁ಕಾಯಿನ	-3814
▁ಚಿಕ್ಕ	-3815
▁ಬಾವಿಯ	-3816
▁ಬೆಟ್ಟ	-3817
▁ವರೆಗೂ	-3818
▁ಹೇಳುವ	-3819
न्यामीन	-3820
యుండెను	-3821
ದಲ್ಲಿಯೂ	-3822
▁looked	-3823
▁surely	-3824
▁इकट्ठा	-3825
▁जाएंगे	-3826
▁కలుగజే	-3827
▁గొఱ్ఱల	-3828
▁చెయ్యి	-3829
▁దానికి	-3830
▁దినమున	-3831
▁దేశమంద	-3832
▁బయలుదే	-3833
▁బ్రదిక	-3834
▁వస్త్ర	-3835
▁విడిచి	-3836
▁ಪ್ರೀತಿ	-3837
▁ಭೂಮಿಯು	-3838
▁ಯಜಮಾನನ	-3839
▁ಸಹೋದರನ	-3840
▁journey	-3841
▁अत्यन्त	-3842
▁జ్యేష్ఠ	-3843
▁దగ్గరకు	-3844
▁ప్రాణము	-3845
▁ಅಲ್ಲಿಂದ	-3846
▁ಕಣ್ಣುಗಳ	-3847
▁ಕೈಯಲ್ಲಿ	-3848
▁ಜನಾಂಗಗಳ	-3849
▁ಸಹೋದರರು	-3850
▁gathered	-3851
▁interpre	-3852
▁కటాక్షము	-3853
▁ಅಭಿವೃದ್ಧ	-3854
▁ಆಶೀರ್ವಾದ	-3855
▁ಐಗುಪ್ತ್ಯ	-3856
▁ನಮ್ಮನ್ನು	-3857
▁ಫರೋಹನಿಗೆ	-3858
▁ಮಾಡುವೆನು	-3859
▁प्राणियों	-3860
▁बिन्यामीन	-3861
▁మనుష్యుడు	-3862
▁ಸ್ಥಳದಲ್ಲಿ	-3863
▁ಆಶೀರ್ವದಿಸಿ	-3864
▁circumcised	-3865
▁చూచినప్పుడు	-3866
▁ದೃಷ್ಟಿಯಲ್ಲಿ	-3867
▁ಒಡಂಬಡಿಕೆಯನ್ನು	-3868
aw	-3869
ठी	-3870
ये	-3871
लह	-3872
शल	-3873
నై	-3874
ెవ	-3875
ಕಲ	-3876
ಗೊ	-3877
ಲೀ	-3878
ಲೋ	-3879
ೆಬ	-3880
ೋಗ	-3881
▁Y	-3882
▁డ	-3883
▁ಖ	-3884
age	-3885
ift	-3886
ken	-3887
ull	-3888
गृह	-3889
तेल	-3890
न्य	-3891
लीस	-3892
తరు	-3893
దము	-3894
రహు	-3895
ార్	-3896
ಧಿಕ	-3897
ಾಳೆ	-3898
ೇಳೆ	-3899
▁Am	-3900
▁cl	-3901
▁आई	-3902
▁पल	-3903
▁पे	-3904
▁भय	-3905
▁सच	-3906
▁అర	-3907
▁కే	-3908
▁సృ	-3909
▁ಅಗ	-3910
▁ದಾ	-3911
▁ದೂ	-3912
ared	-3913
arry	-3914
కంటె	-3915
కిని	-3916
త్తర	-3917
ఫలము	-3918
లువు	-3919
విని	-3920
ವನಾದ	-3921
ಾಗಲಿ	-3922
ಾರಿನ	-3923
ುದ್ಧ	-3924
▁end	-3925
▁sle	-3926
▁घात	-3927
▁चढ़	-3928
▁बाट	-3929
▁हाज	-3930
▁ఏడు	-3931
▁నలు	-3932
▁పడి	-3933
▁భావ	-3934
▁మూడ	-3935
▁వ్య	-3936
▁ಅದೇ	-3937
▁ಕೆಳ	-3938
▁ತೆರ	-3939
▁ತೊಡ	-3940
▁ತೋಟ	-3941
▁ನಾದ	-3942
▁ನಿನ	-3943
▁ವಿಶ	-3944
▁ಸಿದ	-3945
▁ಹಾರ	-3946
arden	-3947
वस्तु	-3948
ంటిని	-3949
ండిరి	-3950
నకును	-3951
వాడైన	-3952
్రాయి	-3953
ಲ್ಲಿಸ	-3954
▁ears	-3955
▁lest	-3956
▁wept	-3957
▁कहीं	-3958
▁धर्म	-3959
▁रेंग	-3960
▁सकता	-3961
▁समान	-3962
▁ఎవరి	-3963
▁కొను	-3964
▁త్వర	-3965
▁ప్రజ	-3966
▁శయని	-3967
▁ಅರಾಮ	-3968
▁ಅರ್ಥ	-3969
▁ಉತ್ತ	-3970
▁ಕಾಣಿ	-3971
▁ಕೂಡಿ	-3972
▁ನಿಂದ	-3973
▁ಮಗನೇ	-3974
▁ವೇಳೆ	-3975
▁ಸಾರಿ	-3976
▁ಹೆಸರ	-3977
ట్టును	-3978
వలెనని	-3979
ರೆಲ್ಲಾ	-3980
▁angel	-3981
▁chief	-3982
▁eight	-3983
▁दिनों	-3984
▁అందుక	-3985
▁నేలను	-3986
▁పట్టణ	-3987
▁యుండు	-3988
▁వెనుక	-3989
▁వెలుప	-3990
▁శారయి	-3991
▁ಇತ್ತು	-3992
▁ಕೆಟ್ಟ	-3993
▁ನಾಹೋರ	-3994
▁ಮುಂಚೆ	-3995
▁ಲೋಟನು	-3996
▁ಸತ್ತು	-3997
▁ಹೆಣ್ಣ	-3998
▁ಹೆರುವ	-3999
కొనుటకు	-4000
ట్లనెను	-4001
నప్పుడు	-4002
మునుండి	-4003
లోనున్న	-4004
ಪ್ಪತ್ತು	-4005
ರಿಸಿದನು	-4006
ುವದಕ್ಕೆ	-4007
▁garden	-4008
▁second	-4009
▁चित्ती	-4010
▁मिद्दी	-4011
▁అడుగగా	-4012
▁తెచ్చి	-4013
▁విస్తర	-4014
▁ಕುಮಾರರ	-4015
▁ಪಟ್ಟಣದ	-4016
▁ಪ್ರಯಾಣ	-4017
▁ರಾತ್ರಿ	-4018
▁ಸ್ವಲ್ಪ	-4019
▁ಹೆತ್ತು	-4020
▁dreamed	-4021
▁thereof	-4022
▁younger	-4023
▁నుండెను	-4024
▁ప్రతిగా	-4025
▁ಕಾನಾನ್ಯ	-4026
▁ನಿಲ್ಲಿಸ	-4027
▁ಮೂವತ್ತು	-4028
▁fruitful	-4029
▁बन्दीगृह	-4030
▁చేసికొని	-4031
▁బయలుదేరి	-4032
▁యాకోబును	-4033
▁సహోదరులు	-4034
▁भोजनवस्तु	-4035
▁కుమారులైన	-4036
▁గర్భవతియై	-4037
▁యావత్తును	-4038
▁ಹೆಸರಾಯಿತು	-4039
▁possession	-4040
▁ఐగుప్తునకు	-4041
▁ವರುಷಗಳಾಗಿದ್ದವು	-4042
▁ವರುಷದವನಾಗಿದ್ದಾಗ	-4043
तम	-4044
लय	-4045
లవ	-4046
స్	-4047
ీఠ	-4048
ತೂ	-4049
ಪಡ	-4050
ಳಯ	-4051
ೆದ	-4052
ith	-4053
och	-4054
tar	-4055
मुच	-4056
िका	-4057
ంచె	-4058
కొన	-4059
డ్డ	-4060
భివ	-4061
యకు	-4062
ెబా	-4063
ಚಾರ	-4064
ಮೆಯ	-4065
ಸಾರ	-4066
ಾಮ್	-4067
▁--	-4068
▁en	-4069
▁खो	-4070
▁झु	-4071
▁ता	-4072
▁थो	-4073
▁सभ	-4074
▁తు	-4075
▁పగ	-4076
▁పడ	-4077
▁శర	-4078
▁షి	-4079
▁ಜಾ	-4080
▁ತನ	-4081
▁ಪರ	-4082
▁ಮೊ	-4083
ased	-4084
asse	-4085
ated	-4086
onth	-4087
ring	-4088
uben	-4089
क्ति	-4090
र्बल	-4091
र्शन	-4092
క్కు	-4093
తును	-4094
నుకొ	-4095
యందు	-4096
ళ్లు	-4097
వాడై	-4098
ృద్ధ	-4099
ಂಕಾಲ	-4100
ಗಿಂತ	-4101
ಬೇಕೆ	-4102
ಲ್ಲು	-4103
ವಿಾಪ	-4104
ೆಲ್ಲ	-4105
▁Hag	-4106
▁Man	-4107
▁nam	-4108
▁उतर	-4109
▁दूं	-4110
▁नाई	-4111
▁निय	-4112
▁पका	-4113
▁पाए	-4114
▁भोर	-4115
▁यही	-4116
▁ఎదో	-4117
▁కనా	-4118
▁చావ	-4119
▁రూబ	-4120
▁లను	-4121
▁విం	-4122
▁సంగ	-4123
▁సము	-4124
▁ಏರಿ	-4125
▁ಕಾರ	-4126
▁ಬಾಗ	-4127
▁ಬೇತ	-4128
▁ಮೃಗ	-4129
ering	-4130
ందుకు	-4131
క్ష్య	-4132
పోయిన	-4133
వచ్చు	-4134
ದಕ್ಕೂ	-4135
ನಿಮ್ಮ	-4136
▁Beer	-4137
▁Edom	-4138
▁Heth	-4139
▁fell	-4140
▁here	-4141
▁laid	-4142
▁live	-4143
▁meet	-4144
▁only	-4145
▁shew	-4146
▁soul	-4147
▁wilt	-4148
▁अधिक	-4149
▁आंखे	-4150
▁उठकर	-4151
▁करते	-4152
▁करना	-4153
▁कुशल	-4154
▁क्रो	-4155
▁चढ़ा	-4156
▁जीवन	-4157
▁तराई	-4158
▁देगा	-4159
▁धन्य	-4160
▁पानी	-4161
▁मांस	-4162
▁वेदी	-4163
▁ఒకడు	-4164
▁జాతి	-4165
▁నీతి	-4166
▁బెయే	-4167
▁మాకు	-4168
▁వేసి	-4169
▁ಅತ್ತ	-4170
▁ಅರ್ಪ	-4171
▁ಎರಡು	-4172
▁ದಿವಸ	-4173
▁ನಾನೇ	-4174
▁ನೋಹನ	-4175
▁ಬೆಳಿ	-4176
▁ಯಾಗಿ	-4177
▁ರೂಬೇ	-4178
▁ಹಾಕಿ	-4179
▁ಹೇತನ	-4180
కొనెను	-4181
చున్నా	-4182
చేసెను	-4183
మి్మది	-4184
ించును	-4185
ించుము	-4186
ನ್ನಿರಿ	-4187
ಿತವಾಗಿ	-4188
ಿದ್ದವು	-4189
ೆಯನ್ನೂ	-4190
▁Haran	-4191
▁altar	-4192
▁month	-4193
▁plain	-4194
▁उत्तम	-4195
▁जन्तु	-4196
▁दर्शन	-4197
▁दूसरे	-4198
▁पक्षी	-4199
▁बुलवा	-4200
▁बेतेल	-4201
▁सचमुच	-4202
▁हमारी	-4203
▁हारान	-4204
▁కొంచె	-4205
▁దీవెన	-4206
▁ಅಂದರೆ	-4207
▁ಕೊಲ್ಲ	-4208
▁ತಾಯಿಯ	-4209
▁ಬಂದರು	-4210
▁ಮನೆಗೆ	-4211
▁ಮುಖಂಡ	-4212
▁ಮುಚ್ಚ	-4213
▁ರೊಟ್ಟ	-4214
▁ಲಾಬಾನ	-4215
▁ಲೇಯಳು	-4216
▁ಸವಿಾಪ	-4217
▁ಸಾಯುವ	-4218
▁ಸುತ್ತ	-4219
▁ಸ್ತಂಭ	-4220
ervants	-4221
नेहारों	-4222
ವಾಗಿರುವ	-4223
ಿಸಿಕೊಂಡ	-4224
▁Reuben	-4225
▁buried	-4226
▁चिल्ला	-4227
▁परदेशी	-4228
▁बाटिका	-4229
▁జంతువు	-4230
▁దేశమంత	-4231
▁నాకును	-4232
▁భోజనము	-4233
▁మాటలాడ	-4234
▁హారాను	-4235
▁ಎರಡನೆಯ	-4236
▁ಬಿಟ್ಟು	-4237
▁ಮಗನಿಗೆ	-4238
▁ವರುಷಗಳ	-4239
▁ಹಾಗೆಯೇ	-4240
servants	-4241
ನ್ನೆತ್ತಿ	-4242
▁అప్పుడా	-4243
▁కాపురము	-4244
▁ముందుగా	-4245
▁యిద్దరు	-4246
▁వచ్చిరి	-4247
▁ಐಗುಪ್ತದ	-4248
▁ಬಳಿಯಿಂದ	-4249
▁ಬಹಳವಾಗಿ	-4250
▁ಸಾಯಂಕಾಲ	-4251
▁ಸುನ್ನತಿ	-4252
ಿಸಿದ್ದಾನೆ	-4253
▁मनुष्यों	-4254
▁కుమారుడా	-4255
▁పశువులను	-4256
▁సహోదరుని	-4257
▁ಬೆಳಿಗ್ಗೆ	-4258
▁ಹೆಸರನ್ನು	-4259
▁Egyptians	-4260
▁ఇష్మాయేలు	-4261
▁ಮಕ್ಕಳನ್ನು	-4262
▁ರೆಬೆಕ್ಕಳು	-4263
▁అక్కడనుండి	-4264
▁ಐಗುಪ್ತದಲ್ಲಿ	-4265
▁ಹೇಳಿದ್ದೇನಂದರೆ	-4266
fl	-4267
up	-4268
va	-4269
चन	-4270
धु	-4271
बे	-4272
हि	-4273
ाव	-4274
కే	-4275
గొ	-4276
చూ	-4277
చె	-4278
తమ	-4279
తా	-4280
ಂಜ	-4281
ಕದ	-4282
ಶ್	-4283
▁;	-4284
aim	-4285
apt	-4286
ash	-4287
ats	-4288
nah	-4289
ner	-4290
oin	-4291
ott	-4292
दों	-4293
वता	-4294
ुफा	-4295
డవు	-4296
దిన	-4297
యగు	-4298
రను	-4299
ర్మ	-4300
లిక	-4301
వేశ	-4302
ಗಾರ	-4303
ದಾದ	-4304
ರೋಧ	-4305
ರ್ವ	-4306
ಲ್ಯ	-4307
ಿಯೇ	-4308
ೃದಯ	-4309
ೋನನ	-4310
▁As	-4311
▁Ch	-4312
▁In	-4313
▁On	-4314
▁em	-4315
▁अद	-4316
▁अध	-4317
▁कट	-4318
▁चो	-4319
▁चौ	-4320
▁बू	-4321
▁కూ	-4322
▁జీ	-4323
▁ಅಮ	-4324
▁ಗವ	-4325
▁ಗಿ	-4326
▁ದಯ	-4327
▁ಪಾ	-4328
▁ಪು	-4329
elah	-4330
oken	-4331
त्ति	-4332
ందరు	-4333
క్షి	-4334
గుదు	-4335
గురు	-4336
నాను	-4337
స్థు	-4338
స్సు	-4339
ನಾವು	-4340
ನ್ನಿ	-4341
ಾವಳಿ	-4342
▁Heb	-4343
▁buy	-4344
▁cle	-4345
▁cur	-4346
▁dig	-4347
▁gar	-4348
▁har	-4349
▁law	-4350
▁lay	-4351
▁sin	-4352
▁tru	-4353
▁wor	-4354
▁अना	-4355
▁कूच	-4356
▁चाह	-4357
▁तथा	-4358
▁बेच	-4359
▁मूल	-4360
▁युग	-4361
▁वचन	-4362
▁समु	-4363
▁ఆవు	-4364
▁కొన	-4365
▁జను	-4366
▁జరి	-4367
▁నడి	-4368
▁నేల	-4369
▁మేక	-4370
▁సంప	-4371
▁సమా	-4372
▁స్వ	-4373
▁ಅಂಗ	-4374
▁ಖಂಡ	-4375
▁ತ್ತ	-4376
▁ಬೇಟ	-4377
▁ಮೇಯ	-4378
▁ಮೈದ	-4379
▁ವಿಧ	-4380
eding	-4381
erved	-4382
illed	-4383
టకును	-4384
లతోను	-4385
లైనను	-4386
వలసిన	-4387
వాహము	-4388
ించెద	-4389
ದೆಂದು	-4390
ರವಾಗಿ	-4391
ವುಳ್ಳ	-4392
▁Thou	-4393
▁Thus	-4394
▁capt	-4395
▁dead	-4396
▁door	-4397
▁ever	-4398
▁fled	-4399
▁kine	-4400
▁nine	-4401
▁send	-4402
▁slay	-4403
▁wine	-4404
▁अन्त	-4405
▁इसका	-4406
▁एदोम	-4407
▁खाने	-4408
▁गुफा	-4409
▁चरवा	-4410
▁देता	-4411
▁निवा	-4412
▁बन्द	-4413
▁रहते	-4414
▁रहें	-4415
▁रोटी	-4416
▁सभों	-4417
▁सांझ	-4418
▁सुना	-4419
▁ఇయ్య	-4420
▁కనాన	-4421
▁కాను	-4422
▁కూర్	-4423
▁గురు	-4424
▁చూచు	-4425
▁ద్రవ	-4426
▁పోయి	-4427
▁మనము	-4428
▁మీతో	-4429
▁వందల	-4430
▁వెంట	-4431
▁సంపా	-4432
▁సర్వ	-4433
▁ಇನ್ನ	-4434
▁ಎದುರ	-4435
▁ಎಫ್ರ	-4436
▁ಕೊಡು	-4437
▁ತಗ್ಗ	-4438
▁ತಿಂದ	-4439
▁ನೀತಿ	-4440
▁ಬೇಡಿ	-4441
▁ಮಮ್ರ	-4442
▁ರಕ್ತ	-4443
▁ವಾಗಿ	-4444
▁ಸೇವೆ	-4445
▁ಹಾಗರ	-4446
▁ಹಿಂತ	-4447
▁ಹೃದಯ	-4448
▁ಹೊಲದ	-4449
ట్టిరి	-4450
లెత్తి	-4451
వేసెను	-4452
ಬೇಡಿರಿ	-4453
ರಲಿಲ್ಲ	-4454
ಲ್ಲಿಗೆ	-4455
ಿಕೊಂಡು	-4456
▁Hagar	-4457
▁alive	-4458
▁flood	-4459
▁heart	-4460
▁stone	-4461
▁चालीस	-4462
▁बच्चे	-4463
▁बालें	-4464
▁रूपया	-4465
▁सुनकर	-4466
▁ఆస్తి	-4467
▁క్షేమ	-4468
▁జాతుల	-4469
▁పుత్ర	-4470
▁ప్రభు	-4471
▁ప్రేమ	-4472
▁వృద్ధ	-4473
▁ಕಡೆಗೆ	-4474
▁ಕೊಳ್ಳ	-4475
▁ತಿಳಿದ	-4476
▁ತಿಳಿಯ	-4477
▁ದಾಸಿಯ	-4478
▁ಪಶುಗಳ	-4479
▁ಪಾತ್ರ	-4480
▁ಮುಟ್ಟ	-4481
▁ಮುದುಕ	-4482
▁ಯೆಹೂದ	-4483
▁ವನ್ನು	-4484
▁ವಿರೋಧ	-4485
▁ಹೋದರೆ	-4486
ిక్కిలి	-4487
ದಕ್ಕಿಂತ	-4488
▁Bethel	-4489
▁Ephron	-4490
▁became	-4491
▁bought	-4492
▁opened	-4493
▁pillar	-4494
▁prison	-4495
▁अधिकार	-4496
▁निकलकर	-4497
▁हाजिरा	-4498
▁हित्ती	-4499
▁గూర్చి	-4500
▁చేసిరి	-4501
▁దాసులు	-4502
▁నలుబది	-4503
▁పుచ్చు	-4504
▁ప్రాకు	-4505
▁బంధువు	-4506
▁రూబేను	-4507
▁ಕೈಯಿಂದ	-4508
▁ತಿಳಿದು	-4509
▁ರೊಟ್ಟಿ	-4510
▁ಲಾಬಾನನ	-4511
చున్నాను	-4512
ದಲ್ಲಿದ್ದ	-4513
ಶ್ಚಯವಾಗಿ	-4514
▁garment	-4515
▁neither	-4516
▁ఇచ్చెను	-4517
▁ధాన్యము	-4518
▁పట్టణము	-4519
▁బ్రదుకు	-4520
▁సహోదరుల	-4521
▁ಕನಸನ್ನು	-4522
▁ನೋಡಿದನು	-4523
▁ಫಲವನ್ನು	-4524
▁ಮಾತನಾಡಿ	-4525
▁ಹೋಗುತ್ತ	-4526
ವನ್ನೆಲ್ಲಾ	-4527
▁departed	-4528
▁మిక్కిలి	-4529
▁యజమానుని	-4530
▁ಕರ್ತನಿಗೆ	-4531
▁ಮೇಲೆಲ್ಲಾ	-4532
▁Therefore	-4533
▁Wherefore	-4534
▁righteous	-4535
▁ఐగుప్తులో	-4536
▁వెలుపలికి	-4537
▁సహోదరులను	-4538
▁ಭೂಮಿಯನ್ನು	-4539
▁ಸಹೋದರರಿಗೆ	-4540
▁కుమారునికి	-4541
▁ಅಬೀಮೆಲೆಕನು	-4542
▁ಪ್ರತಿಯೊಂದು	-4543
▁ಮನುಷ್ಯನನ್ನು	-4544
▁ಆಶೀರ್ವದಿಸಿದನು	-4545
ff	-4546
iz	-4547
यत	-4548
लू	-4549
लौ	-4550
वी	-4551
शा	-4552
ेन	-4553
ంబ	-4554
ఃఖ	-4555
తీ	-4556
వ్	-4557
ిర	-4558
ಕನ	-4559
ಚಾ	-4560
ದ್	-4561
ಫೆ	-4562
ಹೊ	-4563
ೇಕ	-4564
ೋಷ	-4565
▁ఖ	-4566
esc	-4567
iph	-4568
not	-4569
ods	-4570
त्प	-4571
दाच	-4572
नोक	-4573
मधु	-4574
मान	-4575
वें	-4576
हेर	-4577
ूरी	-4578
టకై	-4579
డలే	-4580
పరు	-4581
శావ	-4582
ృష్	-4583
ಂಗಿ	-4584
ಬ್ರ	-4585
ಭಾಗ	-4586
ರನು	-4587
ರೀರ	-4588
ವನೇ	-4589
ಷೆಬ	-4590
ಸ್ತ	-4591
ೇನು	-4592
ೈದು	-4593
ೊಂಭ	-4594
್ರಮ	-4595
▁Ye	-4596
▁im	-4597
▁ob	-4598
▁तौ	-4599
▁दौ	-4600
▁फै	-4601
▁बद	-4602
▁बर	-4603
▁यो	-4604
▁చీ	-4605
▁మహ	-4606
▁శే	-4607
▁ಆಳ	-4608
▁ಇವ	-4609
▁ಗೆ	-4610
▁ತೀ	-4611
adan	-4612
lder	-4613
tain	-4614
vour	-4615
र्ती	-4616
र्शे	-4617
ल्हा	-4618
वाला	-4619
वाली	-4620
श्शे	-4621
ूबेन	-4622
గ్గర	-4623
ద్దన	-4624
నియు	-4625
బోవు	-4626
ిత్త	-4627
ಂದಿನ	-4628
ಕಲಾದ	-4629
ದ್ದಿ	-4630
ದ್ದೇ	-4631
ಮಾಡು	-4632
▁Bec	-4633
▁Gom	-4634
▁Thy	-4635
▁beh	-4636
▁bir	-4637
▁del	-4638
▁pro	-4639
▁ran	-4640
▁res	-4641
▁sil	-4642
▁sub	-4643
▁tur	-4644
▁कभी	-4645
▁कहे	-4646
▁गड़	-4647
▁गिर	-4648
▁चूम	-4649
▁ज्य	-4650
▁दूर	-4651
▁पाल	-4652
▁रही	-4653
▁ఇంక	-4654
▁ఇంట	-4655
▁ఉండ	-4656
▁ఎదు	-4657
▁గుహ	-4658
▁తిన	-4659
▁తోట	-4660
▁భాగ	-4661
▁భూమ	-4662
▁సృజ	-4663
▁హనో	-4664
▁హమో	-4665
▁హాగ	-4666
▁హెబ	-4667
▁ಅನಾ	-4668
▁ಇದೆ	-4669
▁ಇದೇ	-4670
▁ಇವೇ	-4671
▁ಐದು	-4672
▁ದೂರ	-4673
▁ನಿಜ	-4674
▁ನೇಮ	-4675
▁ಮಗನ	-4676
▁ಮರದ	-4677
▁ಸೆರ	-4678
▁ಹನೋ	-4679
asseh	-4680
igned	-4681
ollow	-4682
sheba	-4683
వాస్థ	-4684
ದ್ದನ್	-4685
ನ್ಯಾಯ	-4686
ಪಟ್ಟು	-4687
ರ್ಷೆಬ	-4688
ಲನ್ನು	-4689
▁That	-4690
▁appe	-4691
▁been	-4692
▁cave	-4693
▁fear	-4694
▁fift	-4695
▁male	-4696
▁meat	-4697
▁sake	-4698
▁seen	-4699
▁sore	-4700
▁such	-4701
▁अहेर	-4702
▁कदाच	-4703
▁कहना	-4704
▁कहां	-4705
▁खम्भ	-4706
▁जिसे	-4707
▁तत्प	-4708
▁धारी	-4709
▁नराम	-4710
▁बड़े	-4711
▁हनोक	-4712
▁కాదు	-4713
▁తనతో	-4714
▁తిను	-4715
▁తీర్	-4716
▁దుఃఖ	-4717
▁నేనే	-4718
▁మనవి	-4719
▁మేలు	-4720
▁యేమి	-4721
▁రక్త	-4722
▁షేము	-4723
▁హాము	-4724
▁హేతు	-4725
▁ಅಣ್ಣ	-4726
▁ಕೇಳು	-4727
▁ಗುರು	-4728
▁ತನಗೆ	-4729
▁ತಿಳು	-4730
▁ಮುಂದ	-4731
▁ಮೊದಲ	-4732
▁ಶರೀರ	-4733
▁ಸಾರಳ	-4734
▁ಸ್ವರ	-4735
▁ಹದಿನ	-4736
▁ಹೊಂದ	-4737
र्शेबा	-4738
ందరును	-4739
టికిని	-4740
న్నియు	-4741
ಕ್ಕಾಗಿ	-4742
▁Hamor	-4743
▁Padan	-4744
▁about	-4745
▁above	-4746
▁blood	-4747
▁could	-4748
▁dukes	-4749
▁grace	-4750
▁herds	-4751
▁देखकर	-4752
▁निकले	-4753
▁रूबेन	-4754
▁वंशाव	-4755
▁ఒకవేళ	-4756
▁కప్పగ	-4757
▁చెరసా	-4758
▁పద్దన	-4759
▁పితరు	-4760
▁మనష్ష	-4761
▁యుందు	-4762
▁యున్న	-4763
▁రెండే	-4764
▁వెండి	-4765
▁సన్ని	-4766
▁ಇಂದಿನ	-4767
▁ತಿಂದು	-4768
▁ತೊಡೆಯ	-4769
▁ದಿನಗಳ	-4770
▁ನನ್ನು	-4771
▁ನಿಂತು	-4772
▁ಮಾತನಾ	-4773
▁ಸಿದ್ಧ	-4774
క్కడికి	-4775
ಾಗಿತ್ತು	-4776
್ಯವನ್ನು	-4777
▁cannot	-4778
▁digged	-4779
▁silver	-4780
▁twenty	-4781
▁एप्रैम	-4782
▁दाखमधु	-4783
▁फुर्ती	-4784
▁मनश्शे	-4785
▁सन्तान	-4786
▁समाचार	-4787
▁ఆజ్ఞాప	-4788
▁కొలువు	-4789
▁గురుతు	-4790
▁ప్రయాణ	-4791
▁ప్రవేశ	-4792
▁స్థలము	-4793
▁ಎಫ್ರಾಯ	-4794
▁ಪದ್ದನ್	-4795
▁ಬಡಕಲಾದ	-4796
▁ಸಂಪತ್ತ	-4797
▁ಸೇವಕನು	-4798
ಿಯಾಗಿದ್ದ	-4799
▁Because	-4800
▁Ephraim	-4801
▁created	-4802
▁present	-4803
▁कदाचित्	-4804
▁बकरियां	-4805
▁అడిగెను	-4806
▁ఎఫ్రోను	-4807
▁కాజ్ఞాప	-4808
▁కొంచెము	-4809
▁నొద్దకు	-4810
▁పొలములో	-4811
▁బెయేర్ష	-4812
▁ತನಗಿದ್ದ	-4813
▁ದಾಸಿಯಾದ	-4814
▁ನೋಡಿದಾಗ	-4815
▁ಬೇರ್ಷೆಬ	-4816
▁ಮುಖಂಡರು	-4817
▁ಯಜಮಾನನು	-4818
▁ವಂಶಾವಳಿ	-4819
▁ವರುಷಗಳು	-4820
▁ಹೀಗಿರುವ	-4821
▁Manasseh	-4822
▁favoured	-4823
▁offering	-4824
▁youngest	-4825
▁बेर्शेबा	-4826
▁చెప్పిరి	-4827
▁తెలిసికొ	-4828
▁తెల్లవార	-4829
▁తొమి్మది	-4830
▁మిమ్మును	-4831
▁యోసేపుతో	-4832
▁యోసేపును	-4833
▁రాహేలును	-4834
▁సహోదరుడు	-4835
▁ಏಸಾವನಿಗೆ	-4836
▁ಕುಮಾರ್ತೆ	-4837
▁ನಾಶಮಾಡುವ	-4838
▁ಬದುಕಿದನು	-4839
ಗಳನ್ನೆಲ್ಲಾ	-4840
▁exceeding	-4841
▁ವಿಷಯದಲ್ಲಿ	-4842
▁तत्पश्चात्	-4843
▁रेंगनेवाले	-4844
▁యొద్దనుండి	-4845
▁ಐಗುಪ್ತದೇಶದ	-4846
▁ಧಾನ್ಯವನ್ನು	-4847
▁ಯೋಸೇಫನನ್ನು	-4848
▁ಹೆಂಡತಿಯಾಗಿ	-4849
▁అబ్రాహాముతో	-4850
▁ఆశీర్వదించి	-4851
▁కన్నులెత్తి	-4852
▁మృతిబొందెను	-4853
▁ಗರ್ಭಿಣಿಯಾಗಿ	-4854
▁చెప్పినప్పుడు	-4855
▁ಕುಮಾರ್ತೆಯರನ್ನು	-4856
ap	-4857
ax	-4858
जद	-4859
हु	-4860
हू	-4861
हो	-4862
మొ	-4863
రవ	-4864
వర	-4865
వీ	-4866
ీన	-4867
ಜ್	-4868
ಸ್	-4869
ಹಾ	-4870
ೀಠ	-4871
ುಖ	-4872
▁ಘ	-4873
ack	-4874
ces	-4875
hah	-4876
itt	-4877
ixt	-4878
len	-4879
men	-4880
res	-4881
ush	-4882
क्त	-4883
चों	-4884
नार	-4885
मेक	-4886
मोन	-4887
राध	-4888
लाप	-4889
लूम	-4890
शेन	-4891
िश्	-4892
ैले	-4893
గదా	-4894
చేయ	-4895
పడు	-4896
మను	-4897
లిన	-4898
వాస	-4899
వైన	-4900
ెరు	-4901
్యా	-4902
ಕಾಯ	-4903
ಗಳಿ	-4904
ಗಾವ	-4905
ಣೆಯ	-4906
ನನು	-4907
ಬಹು	-4908
ಲ್ಕ	-4909
ಲ್ಹ	-4910
ವಿಯ	-4911
ಷ್ಠ	-4912
ೆನೆ	-4913
್ಯೂ	-4914
▁अम	-4915
▁आठ	-4916
▁पक	-4917
▁पच	-4918
▁ఉద	-4919
▁కీ	-4920
▁జల	-4921
▁శప	-4922
▁ಅಪ	-4923
▁ಏಲ	-4924
▁ಗೊ	-4925
▁ನೂ	-4926
▁ಪಡ	-4927
aked	-4928
amah	-4929
amre	-4930
aram	-4931
ided	-4932
jour	-4933
maid	-4934
shen	-4935
ड़के	-4936
तायत	-4937
त्तर	-4938
म्रे	-4939
लाकर	-4940
िनती	-4941
ुक्त	-4942
గ్రహ	-4943
తేలు	-4944
దియు	-4945
దేవు	-4946
లుగల	-4947
లుపు	-4948
ల్లు	-4949
వంతు	-4950
షెను	-4951
ಕರ್ತ	-4952
ಚ್ಚೆ	-4953
ಣವಾದ	-4954
ತಕ್ಕ	-4955
ತಿಗೆ	-4956
ಿಲ್ಲ	-4957
ುದ್ರ	-4958
▁Bil	-4959
▁age	-4960
▁cup	-4961
▁dam	-4962
▁kis	-4963
▁ple	-4964
▁thr	-4965
▁पड़	-4966
▁रखी	-4967
▁रखे	-4968
▁शाप	-4969
▁सके	-4970
▁हाम	-4971
▁అనా	-4972
▁నడు	-4973
▁పాన	-4974
▁వంశ	-4975
▁సెల	-4976
▁ಇವು	-4977
▁ಉಂಟ	-4978
▁ಗಳು	-4979
▁ಪಾಲ	-4980
▁ಬೀಜ	-4981
▁ಮೊಳ	-4982
▁ರುವ	-4983
▁ಶೇಮ	-4984
amech	-4985
ament	-4986
imeon	-4987
तियां	-4988
पत्ति	-4989
తట్టు	-4990
లలోను	-4991
లించి	-4992
శావళి	-4993
ಗಳಿಂದ	-4994
ಾನದಾಯ	-4995
ಿರುಗಿ	-4996
ೆಯಾಗಿ	-4997
▁butl	-4998
▁conc	-4999
▁grie	-5000
▁mour	-5001
▁rest	-5002
▁sold	-5003
▁छोटा	-5004
▁जाऊं	-5005
▁जाएं	-5006
▁जाता	-5007
▁जाना	-5008
▁जेठा	-5009
▁दिखा	-5010
▁निका	-5011
▁पाकर	-5012
▁बनाई	-5013
▁बुरा	-5014
▁स्वर	-5015
▁हमोर	-5016
▁हित्	-5017
▁होगी	-5018
▁అభివ	-5019
▁ఉండు	-5020
▁ఎందు	-5021
▁ఎట్ల	-5022
▁ఒకని	-5023
▁కొండ	-5024
▁చూపు	-5025
▁త్రవ	-5026
▁నీకి	-5027
▁నేడు	-5028
▁బిల్	-5029
▁భయపడ	-5030
▁రప్ప	-5031
▁లెమె	-5032
▁విను	-5033
▁విశా	-5034
▁ಅರಿಯ	-5035
▁ಅವರಿ	-5036
▁ಇವನು	-5037
▁ಕೃಪೆ	-5038
▁ಗಂಡಸ	-5039
▁ಗಂಡು	-5040
▁ಗರ್ಭ	-5041
▁ಗೋಷೆ	-5042
▁ಜನರು	-5043
▁ತಲೆಯ	-5044
▁ತೆನೆ	-5045
▁ಪ್ರಭ	-5046
▁ಮಾತು	-5047
▁ಯಾರು	-5048
▁ಯೆಫೆ	-5049
▁ರೆಗೂ	-5050
▁ಲೇಯಳ	-5051
▁ಸೆರೆ	-5052
▁ಹನ್ನ	-5053
▁ಹಮೋರ	-5054
▁ಹರಿದ	-5055
vailed	-5056
నిమిది	-5057
లుకొని	-5058
లోనికి	-5059
ార్యము	-5060
ವಾಯಿತು	-5061
ಿಸಿದರು	-5062
▁Mamre	-5063
▁goats	-5064
▁names	-5065
▁peace	-5066
▁third	-5067
▁whole	-5068
▁would	-5069
▁गोशेन	-5070
▁द्वार	-5071
▁पूर्व	-5072
▁बनैले	-5073
▁बालों	-5074
▁बुराई	-5075
▁मम्रे	-5076
▁मालूम	-5077
▁लड़का	-5078
▁लेमेक	-5079
▁सन्ती	-5080
▁ఆలాగు	-5081
▁కాలము	-5082
▁జ్ఞాప	-5083
▁తెలుప	-5084
▁నరుని	-5085
▁నీళ్ల	-5086
▁పిలిప	-5087
▁పిలువ	-5088
▁ఫరోకు	-5089
▁మందలు	-5090
▁మాటలు	-5091
▁రండని	-5092
▁శరీరు	-5093
▁షిమ్య	-5094
▁స్తంభ	-5095
▁ಆಕೆಗೆ	-5096
▁ಕಟ್ಟಿ	-5097
▁ಕುಡಿಯ	-5098
▁ಕೊಂದು	-5099
▁ತಿನ್ನ	-5100
▁ದಲ್ಲಿ	-5101
▁ಬಿಲ್ಹ	-5102
▁ಸಿಮೆಯ	-5103
▁ಸೃಷ್ಟ	-5104
▁ಹಿತ್ತ	-5105
కమునుపు	-5106
చున్నది	-5107
నొద్దకు	-5108
వచ్చెను	-5109
వాస్థ్య	-5110
్రాయిము	-5111
ದ್ದನ್ನು	-5112
ರಿಯನ್ನು	-5113
▁Goshen	-5114
▁Lamech	-5115
▁Simeon	-5116
▁एप्रोन	-5117
▁ठहराया	-5118
▁दुर्बल	-5119
▁निकलीं	-5120
▁पहाड़ी	-5121
▁बान्धी	-5122
▁रहूंगा	-5123
▁समुद्र	-5124
▁అధిపతి	-5125
▁ఉన్నది	-5126
▁కొనెను	-5127
▁క్రింద	-5128
▁గోషెను	-5129
▁నాలుగు	-5130
▁నాహోరు	-5131
▁పురుషు	-5132
▁ప్రదేశ	-5133
▁బేతేలు	-5134
▁మనష్షే	-5135
▁ముద్దు	-5136
▁వచ్చెద	-5137
▁వారిలో	-5138
▁సముద్ర	-5139
▁ಅತ್ತನು	-5140
▁ಅಪ್ಪಣೆ	-5141
▁ಇಟ್ಟನು	-5142
▁ಇದನ್ನು	-5143
▁ಇದ್ದರು	-5144
▁ಕೊಂಡನು	-5145
▁ಕೊಟ್ಟು	-5146
▁ತಿನ್ನು	-5147
▁ಮುದ್ದಿ	-5148
▁ರಾಹೇಲಳ	-5149
▁ಸಮುದ್ರ	-5150
యున్నాను	-5151
ದಲ್ಲಿರುವ	-5152
ಿಸಿಕೊಂಡು	-5153
▁betwixt	-5154
▁deliver	-5155
▁divided	-5156
▁evening	-5157
▁fathers	-5158
▁kindred	-5159
▁reigned	-5160
▁therein	-5161
▁नियुक्त	-5162
▁वंशावली	-5163
▁తమ్ముడు	-5164
▁తెచ్చిన	-5165
▁దాసియైన	-5166
▁దీవించు	-5167
▁మాటలాడి	-5168
▁వెళ్లిన	-5169
▁ಅಬ್ರಾಮನ	-5170
▁ಅವಳನ್ನು	-5171
▁ನೀತಿವಂತ	-5172
▁ನೀರನ್ನು	-5173
▁ಬನ್ನಿರಿ	-5174
▁ಮಾತನ್ನು	-5175
▁appeared	-5176
▁handmaid	-5177
▁presence	-5178
▁तुम्हारी	-5179
▁धारीवाले	-5180
▁కుమారుడు	-5181
▁జ్ఞాపకము	-5182
▁తండ్రికి	-5183
▁యాకోబుతో	-5184
▁యెహోవాకు	-5185
▁వారివారి	-5186
▁సాగిలపడి	-5187
▁ತಕ್ಕೊಳ್ಳ	-5188
▁ದೇಶವನ್ನು	-5189
▁interpret	-5190
▁ఇస్సాకును	-5191
▁ఐగుప్తీయు	-5192
▁ద్రాక్షార	-5193
▁సంతానమును	-5194
▁ತಕ್ಕೊಳ್ಳು	-5195
▁ದ್ರಾಕ್ಷಾರ	-5196
▁ನಾಲ್ವತ್ತು	-5197
▁ಮಂದೆಯನ್ನು	-5198
▁चित्तीवाले	-5199
▁బెయేర్షెబా	-5200
▁మృతిబొందిన	-5201
▁ಪ್ರತ್ಯುತ್ತ	-5202
▁ಸಂತತಿಯನ್ನು	-5203
▁ಸುನ್ನತಿಮಾಡ	-5204
▁ವರುಷದವನಾಗಿದ್ದನು	-5205
ey	-5206
oe	-5207
sb	-5208
wn	-5209
टक	-5210
डौ	-5211
ब्	-5212
यो	-5213
रि	-5214
िल	-5215
ुक	-5216
చో	-5217
దీ	-5218
పొ	-5219
లన	-5220
ಚಿ	-5221
ಯಿ	-5222
ಾತ	-5223
aph	-5224
eed	-5225
eld	-5226
els	-5227
ich	-5228
thr	-5229
ust	-5230
ंगा	-5231
डौल	-5232
तने	-5233
दास	-5234
धित	-5235
पेत	-5236
बेर	-5237
मरण	-5238
ంగీ	-5239
ందర	-5240
చార	-5241
డవి	-5242
మీప	-5243
రిక	-5244
ష్త	-5245
ారా	-5246
ెబ్	-5247
ొర్	-5248
ಂತರ	-5249
ಗ್ರ	-5250
ರ್ಯ	-5251
ಾಡಿ	-5252
ಿಲಿ	-5253
▁Al	-5254
▁He	-5255
▁It	-5256
▁Un	-5257
▁gu	-5258
▁दू	-5259
▁नर	-5260
▁फू	-5261
▁लू	-5262
▁वश	-5263
▁सू	-5264
▁అన	-5265
▁ఏద	-5266
▁జన	-5267
▁తే	-5268
▁నె	-5269
▁మగ	-5270
▁మమ	-5271
▁మో	-5272
▁వై	-5273
▁ಆರ	-5274
▁ಏಳ	-5275
▁ಒಳ	-5276
▁ಗೂ	-5277
▁ಚಿ	-5278
▁ಜಲ	-5279
▁ಜಿ	-5280
▁ತೂ	-5281
▁ಶಪ	-5282
▁ಸಾ	-5283
▁ಸೂ	-5284
ages	-5285
ched	-5286
erar	-5287
raid	-5288
rove	-5289
गन्ध	-5290
तूएल	-5291
त्ता	-5292
द्रव	-5293
रेलू	-5294
కాను	-5295
కుము	-5296
కేమి	-5297
టవలన	-5298
దువు	-5299
యీరు	-5300
రిని	-5301
రుగె	-5302
ర్వత	-5303
ఱ్ఱా	-5304
లముల	-5305
లేమి	-5306
ల్లా	-5307
ಗಾವಲ	-5308
ಾದರೂ	-5309
ಾದರೆ	-5310
▁Din	-5311
▁She	-5312
▁cer	-5313
▁cit	-5314
▁fat	-5315
▁gra	-5316
▁inh	-5317
▁mer	-5318
▁nor	-5319
▁rep	-5320
▁sat	-5321
▁ven	-5322
▁wal	-5323
▁whe	-5324
▁एली	-5325
▁किए	-5326
▁कौन	-5327
▁खाई	-5328
▁चार	-5329
▁पति	-5330
▁परा	-5331
▁मजद	-5332
▁यों	-5333
▁हां	-5334
▁ఏమి	-5335
▁ఏలు	-5336
▁కడవ	-5337
▁కడు	-5338
▁త్ర	-5339
▁పంట	-5340
▁పదు	-5341
▁బంగ	-5342
▁మాం	-5343
▁మెడ	-5344
▁లేక	-5345
▁ಒಂಭ	-5346
▁ತಿಂ	-5347
▁ದ್ದ	-5348
▁ಪಾಪ	-5349
▁ಬನು	-5350
▁ಮೂರ	-5351
▁ವಾದ	-5352
▁ಸಮಯ	-5353
▁ಸೇಯ	-5354
ained	-5355
ckled	-5356
ilies	-5357
oever	-5358
orrah	-5359
pheth	-5360
sband	-5361
ढ़ापे	-5362
नियों	-5363
प्रलय	-5364
वताओं	-5365
ండ్రు	-5366
గించి	-5367
దంతయు	-5368
పిల్ల	-5369
యునైన	-5370
యెదుట	-5371
లిపీఠ	-5372
ಂತೆಯೇ	-5373
ಕಮಾಡಿ	-5374
ಗಳಿಗೂ	-5375
ವನಾಗಿ	-5376
ಷ್ಟಿಯ	-5377
▁Abel	-5378
▁Anah	-5379
▁Hitt	-5380
▁Lord	-5381
▁Seir	-5382
▁char	-5383
▁comp	-5384
▁firm	-5385
▁gate	-5386
▁gold	-5387
▁neck	-5388
▁thre	-5389
▁till	-5390
▁wind	-5391
▁इसके	-5392
▁कब्र	-5393
▁गदहे	-5394
▁जनने	-5395
▁ज्यो	-5396
▁तेरह	-5397
▁तौभी	-5398
▁दीना	-5399
▁नीचे	-5400
▁न्या	-5401
▁पाया	-5402
▁रखता	-5403
▁लड़क	-5404
▁అంతట	-5405
▁గొమొ	-5406
▁దీని	-5407
▁నాకి	-5408
▁నేటి	-5409
▁బెతూ	-5410
▁మూడవ	-5411
▁యాపె	-5412
▁యేడ్	-5413
▁సమీప	-5414
▁సేనా	-5415
▁ಎಂಟು	-5416
▁ಕೆಲಸ	-5417
▁ಕೇಡು	-5418
▁ಕ್ರಿ	-5419
▁ಜೀವದ	-5420
▁ನದಿಯ	-5421
▁ನೋಡು	-5422
▁ಫಿಲಿ	-5423
▁ಮಲಗಿ	-5424
▁ಮುದು	-5425
▁ಲೆಮೆ	-5426
▁ಸತ್ಯ	-5427
ड़ियों	-5428
కూడదని	-5429
చుండగా	-5430
డాయెను	-5431
త్తనము	-5432
పెట్టు	-5433
వచ్చిన	-5434
ಕೊಂಡಳು	-5435
ಿಸಿದ್ದ	-5436
▁Enoch	-5437
▁Terah	-5438
▁asked	-5439
▁bound	-5440
▁build	-5441
▁carry	-5442
▁eaten	-5443
▁fifty	-5444
▁loved	-5445
▁naked	-5446
▁sacks	-5447
▁serve	-5448
▁souls	-5449
▁stead	-5450
▁sware	-5451
▁अच्छे	-5452
▁अपराध	-5453
▁ऊंटों	-5454
▁घरेलू	-5455
▁चारों	-5456
▁जन्मा	-5457
▁दूसरी	-5458
▁देखता	-5459
▁नगरों	-5460
▁निकला	-5461
▁बताया	-5462
▁बतूएल	-5463
▁बनाया	-5464
▁बिनती	-5465
▁येपेत	-5466
▁स्मरण	-5467
▁అనుకొ	-5468
▁ఎదుర్	-5469
▁కాపరు	-5470
▁తలమీద	-5471
▁తెరహు	-5472
▁దొరిక	-5473
▁నామీద	-5474
▁పరదేశ	-5475
▁పరుగె	-5476
▁పర్వత	-5477
▁ఫరోతో	-5478
▁మమ్రే	-5479
▁మాత్ర	-5480
▁లెక్క	-5481
▁వ్యాప	-5482
▁సంపాద	-5483
▁స్థిర	-5484
▁ಆಯಿತು	-5485
▁ಊಟಮಾಡ	-5486
▁ಗೊಮೋರ	-5487
▁ಜ್ಞಾಪ	-5488
▁ನ್ಯಾಯ	-5489
▁ಬಾಧ್ಯ	-5490
▁ಬೆತ್ತ	-5491
▁ಬೆಳ್ಳ	-5492
▁ಬೇತೇಲ	-5493
▁ವಿಶಾಲ	-5494
▁ಸಂತತಿ	-5495
▁ಸೊದೋಮ	-5496
▁ಹಾರಾನ	-5497
దేండ్లు	-5498
ింపబడిన	-5499
ಿಸಲಿಲ್ಲ	-5500
▁Bilhah	-5501
▁afraid	-5502
▁become	-5503
▁cities	-5504
▁damsel	-5505
▁manner	-5506
▁nation	-5507
▁served	-5508
▁sevent	-5509
▁sojour	-5510
▁spoken	-5511
▁strang	-5512
▁within	-5513
▁इकट्ठे	-5514
▁कहलाता	-5515
▁छोड़कर	-5516
▁बिल्हा	-5517
▁मजदूरी	-5518
▁वर्षों	-5519
▁सुगन्ध	-5520
▁सृष्टि	-5521
▁ఇంటికి	-5522
▁ఇరువది	-5523
▁ఉండును	-5524
▁తోడైయు	-5525
▁త్రవ్వ	-5526
▁దాసుని	-5527
▁నీవును	-5528
▁బలిపీఠ	-5529
▁భూమిని	-5530
▁వానికి	-5531
▁విషయమై	-5532
▁శేయీరు	-5533
▁షెకెము	-5534
▁ಅಬ್ರಹಾ	-5535
▁ಆದದ್ದೇ	-5536
▁ದಾಸನಾದ	-5537
▁ಪಾನದಾಯ	-5538
▁Bethuel	-5539
▁Japheth	-5540
▁captain	-5541
▁certain	-5542
▁husband	-5543
▁pitcher	-5544
▁through	-5545
▁without	-5546
▁क्रोधित	-5547
▁जलप्रलय	-5548
▁बन्धुओं	-5549
▁అనుకొని	-5550
▁అనువారు	-5551
▁ఎట్లనగా	-5552
▁ఎనిమిది	-5553
▁కార్యము	-5554
▁చేయుటకు	-5555
▁పద్దనరా	-5556
▁మాటలాడు	-5557
▁వంశావళి	-5558
▁ಅಲ್ಲಿಗೆ	-5559
▁ಇದ್ದಾನೆ	-5560
▁ಕರೆಯಲ್ಪ	-5561
▁ಕೇಳಿದನು	-5562
▁ಕೇಳಿದಾಗ	-5563
▁ದೇವರಿಗೆ	-5564
▁ಮೇಲಿರುವ	-5565
▁ಮೊದಲನೆಯ	-5566
▁ಹಣವನ್ನು	-5567
▁ಹೇಳಿದ್ದ	-5568
ಿಸುವದಕ್ಕೆ	-5569
▁Gomorrah	-5570
▁creeping	-5571
▁families	-5572
▁mountain	-5573
▁speckled	-5574
▁पक्षियों	-5575
▁అందుకతడు	-5576
▁అక్కడికి	-5577
▁గొమొఱ్ఱా	-5578
▁గొఱ్ఱలను	-5579
▁తమ్ముడైన	-5580
▁దినములలో	-5581
▁దేవునికి	-5582
▁బ్రదికిన	-5583
▁విత్తనము	-5584
▁షిమ్యోను	-5585
▁ಇಪ್ಪತ್ತು	-5586
▁ಇಸಾಕನಿಗೆ	-5587
▁ಮುಖವನ್ನು	-5588
▁ಹರಿದಾಡುವ	-5589
▁ಹಿಂದಕ್ಕೆ	-5590
▁firmament	-5591
▁स्त्रियों	-5592
▁हित्तियों	-5593
▁నాయొద్దకు	-5594
▁సహోదరుడైన	-5595
▁ಆಹಾರವನ್ನು	-5596
▁ಇಸ್ರಾಯೇಲನ	-5597
▁ಇಸ್ರಾಯೇಲ್	-5598
▁ಕೊಂಡುಕೊಂಡ	-5599
▁ತಂದೆಯನ್ನು	-5600
▁ಫಿಲಿಷ್ಟಿಯ	-5601
▁ಮಾಂಸವನ್ನು	-5602
▁ವಿರೋಧವಾಗಿ	-5603
▁ಹಿಂತಿರುಗಿ	-5604
ದ್ದನ್ನೆಲ್ಲಾ	-5605
▁కనినతరువాత	-5606
▁పెట్టబడెను	-5607
▁ಬೆನ್ಯಾವಿಾನ	-5608
ಕೊಳ್ಳುವದಕ್ಕೆ	-5609
▁అబ్రాహామును	-5610
▁ರಾತ್ರಿಯಲ್ಲಿ	-5611
▁Peradventure	-5612
▁దినములన్నియు	-5613
▁ಪ್ರತ್ಯುತ್ತರವಾಗಿ	-5614
eg	-5615
ंव	-5616
ईर	-5617
कब	-5618
डे	-5619
णन	-5620
पट	-5621
मी	-5622
हल	-5623
ूप	-5624
కర	-5625
గూ	-5626
రీ	-5627
లక	-5628
లూ	-5629
వె	-5630
హన	-5631
ుజ	-5632
ెమ	-5633
ಂಥ	-5634
ಚ್	-5635
ಠಿ	-5636
ವಾ	-5637
ಸಿ	-5638
ೀಫ	-5639
ೆಸ	-5640
▁ಟ	-5641
abl	-5642
cah	-5643
cre	-5644
for	-5645
ick	-5646
ilt	-5647
ons	-5648
pah	-5649
per	-5650
raw	-5651
ंति	-5652
एगा	-5653
क्ख	-5654
ढ़ी	-5655
तली	-5656
बलि	-5657
बिल	-5658
वान	-5659
ैसी	-5660
కార	-5661
గుల	-5662
టిక	-5663
తూష	-5664
ధిక	-5665
పరచ	-5666
యేల	-5667
లహు	-5668
వ్వ	-5669
ిలి	-5670
ీము	-5671
ూరు	-5672
ెలు	-5673
ోతు	-5674
ಗಾಲ	-5675
ಜಂತ	-5676
ಡಲಿ	-5677
ಣ್ಯ	-5678
ದ್ಯ	-5679
ಪೀಠ	-5680
ಬಂದ	-5681
ಬೆಲ	-5682
ಯಾಕ	-5683
ಯ್ಯ	-5684
ಾತ್	-5685
ಾರ್	-5686
ೇಮ್	-5687
ೇಳು	-5688
ೊರಕ	-5689
ೊರೆ	-5690
▁Ah	-5691
▁wr	-5692
▁उज	-5693
▁घट	-5694
▁छु	-5695
▁ज्	-5696
▁झग	-5697
▁ति	-5698
▁नौ	-5699
▁यि	-5700
▁शु	-5701
▁ఉప	-5702
▁పే	-5703
▁బడ	-5704
▁బల	-5705
▁ಆಯ	-5706
▁ಚು	-5707
▁ತಲ	-5708
▁ನಮ	-5709
▁ರೇ	-5710
▁ಶವ	-5711
▁ಶೂ	-5712
alah	-5713
cked	-5714
elve	-5715
ines	-5716
last	-5717
oved	-5718
pped	-5719
नानी	-5720
र्दे	-5721
लौठे	-5722
ल्का	-5723
ल्पा	-5724
ంటిన	-5725
కారు	-5726
గాని	-5727
చేయు	-5728
టుంబ	-5729
దాను	-5730
రక్ష	-5731
వేయు	-5732
ಟುಂಬ	-5733
ಡಿದು	-5734
ನನಗೆ	-5735
ನಮ್ಮ	-5736
ನೂರು	-5737
ಳಿಗೂ	-5738
ಹಾಗೆ	-5739
ಾರ್ಥ	-5740
ೂರ್ಯ	-5741
ೈನೂರ	-5742
ೋರಿಯ	-5743
▁air	-5744
▁des	-5745
▁est	-5746
▁fem	-5747
▁fet	-5748
▁get	-5749
▁how	-5750
▁ind	-5751
▁jud	-5752
▁mid	-5753
▁num	-5754
▁own	-5755
▁pie	-5756
▁pur	-5757
▁sea	-5758
▁sep	-5759
▁wit	-5760
▁अंग	-5761
▁आदा	-5762
▁आदि	-5763
▁आपस	-5764
▁ऐसे	-5765
▁करा	-5766
▁किस	-5767
▁गरा	-5768
▁गले	-5769
▁चरा	-5770
▁चर्	-5771
▁टुक	-5772
▁ढेर	-5773
▁दान	-5774
▁दें	-5775
▁धनु	-5776
▁निज	-5777
▁फेर	-5778
▁बचा	-5779
▁बीज	-5780
▁मही	-5781
▁साम	-5782
▁అతడ	-5783
▁ఆడు	-5784
▁ఇదే	-5785
▁ఎలీ	-5786
▁కోస	-5787
▁గెర	-5788
▁తిం	-5789
▁దొం	-5790
▁నది	-5791
▁పలు	-5792
▁బలి	-5793
▁యాజ	-5794
▁యెవ	-5795
▁యొక	-5796
▁విక	-5797
▁విధ	-5798
▁సిం	-5799
▁ಗೆರ	-5800
▁ದಾಗ	-5801
▁ದಾಟ	-5802
▁ನನು	-5803
▁ನೆಲ	-5804
▁ಸಂಬ	-5805
▁ಸಾಮ	-5806
▁ಸೀಮ	-5807
▁ಹಾಮ	-5808
ilist	-5809
otten	-5810
र्थना	-5811
र्मचा	-5812
्रीति	-5813
ండ్రె	-5814
కూడదు	-5815
డగును	-5816
తినని	-5817
దగ్గర	-5818
దాయకు	-5819
దునని	-5820
నమందు	-5821
పట్టి	-5822
ింపగా	-5823
ಕಾಯುವ	-5824
ನ್ನಿಧ	-5825
ವರಿಗೆ	-5826
ಿಂದಲೂ	-5827
ಿಯನಾದ	-5828
ೆಲಹನು	-5829
▁Adah	-5830
▁Come	-5831
▁Give	-5832
▁Here	-5833
▁Unto	-5834
▁When	-5835
▁back	-5836
▁cast	-5837
▁coat	-5838
▁cons	-5839
▁dust	-5840
▁full	-5841
▁much	-5842
▁none	-5843
▁ring	-5844
▁womb	-5845
▁चुरा	-5846
▁चोरी	-5847
▁छोटी	-5848
▁तलवा	-5849
▁दोनो	-5850
▁पतली	-5851
▁पालन	-5852
▁पोते	-5853
▁फाटक	-5854
▁बैठा	-5855
▁भागा	-5856
▁भारी	-5857
▁भीतर	-5858
▁भेजा	-5859
▁महान	-5860
▁लगीं	-5861
▁लेना	-5862
▁लोहू	-5863
▁सेईर	-5864
▁सोते	-5865
▁सोने	-5866
▁स्वा	-5867
▁అర్ప	-5868
▁ఏబది	-5869
▁కీడు	-5870
▁గుంట	-5871
▁డెబ్	-5872
▁తమతమ	-5873
▁దాసీ	-5874
▁ఫిలి	-5875
▁మచ్చ	-5876
▁మాతో	-5877
▁మేపు	-5878
▁విడి	-5879
▁వేటా	-5880
▁హేబె	-5881
▁ಉಂಟು	-5882
▁ಕಲ್ಲ	-5883
▁ಕೈಗೆ	-5884
▁ಗುಂಪ	-5885
▁ತೋಟದ	-5886
▁ನಾನೂ	-5887
▁ಬಣ್ಣ	-5888
▁ಬರವು	-5889
▁ಬೆಳಕ	-5890
▁ಬೆಳೆ	-5891
▁ಮಣ್ಣ	-5892
▁ಯಾಕೋ	-5893
▁ಹೀಗಿ	-5894
▁ಹೇಗೆ	-5895
ablish	-5896
arried	-5897
soever	-5898
नेवाला	-5899
नेहारा	-5900
కుమారు	-5901
టిలోను	-5902
ారముగా	-5903
ీయుడైన	-5904
ತ್ತೈದು	-5905
▁Bring	-5906
▁Dinah	-5907
▁Gerar	-5908
▁arise	-5909
▁arose	-5910
▁being	-5911
▁burnt	-5912
▁cover	-5913
▁death	-5914
▁goods	-5915
▁kings	-5916
▁remem	-5917
▁resto	-5918
▁thigh	-5919
▁those	-5920
▁women	-5921
▁yield	-5922
▁अन्तर	-5923
▁अमोरा	-5924
▁आऊंगा	-5925
▁कनानी	-5926
▁कुडौल	-5927
▁गड़हे	-5928
▁गायों	-5929
▁चाहता	-5930
▁जल्ला	-5931
▁जिसकी	-5932
▁जिसके	-5933
▁जिसको	-5934
▁दुष्ट	-5935
▁दूसरा	-5936
▁न्याय	-5937
▁पलिश्	-5938
▁पहुंच	-5939
▁बातों	-5940
▁बोरों	-5941
▁वर्णन	-5942
▁विलाप	-5943
▁शिमोन	-5944
▁सोचकर	-5945
▁हाबिल	-5946
▁అమి్మ	-5947
▁ఇచ్చి	-5948
▁ఉత్తర	-5949
▁ఎదోము	-5950
▁కట్టి	-5951
▁కలుగు	-5952
▁చూడగా	-5953
▁చెడ్డ	-5954
▁జలప్ర	-5955
▁దేశపు	-5956
▁నిలువ	-5957
▁పోయిన	-5958
▁రూకలు	-5959
▁హాగరు	-5960
▁హిత్త	-5961
▁ಅಪರಾಧ	-5962
▁ಒಡೆಯನ	-5963
▁ಕುಪ್ಪ	-5964
▁ಕೆಳಗೆ	-5965
▁ತೋರಿಸ	-5966
▁ದುಷ್ಟ	-5967
▁ನಂದರೆ	-5968
▁ನಿವಾಸ	-5969
▁ಬೇಟೆಯ	-5970
▁ಮಚ್ಚೆ	-5971
▁ಮೆಚ್ಚ	-5972
▁ಮೈದಾನ	-5973
▁ಸಂಪಾದ	-5974
▁ಹಿರಿಯ	-5975
▁ಹೇಬೆಲ	-5976
lasting	-5977
చ్చెదను	-5978
ించెదను	-5979
ించెనని	-5980
ృష్టికి	-5981
ಕೊಳ್ಳುವ	-5982
ದಕ್ಕಾಗಿ	-5983
ಧಿಕವಾಗಿ	-5984
ಬಿಟ್ಟನು	-5985
ಬೇಕೆಂದು	-5986
▁butler	-5987
▁female	-5988
▁indeed	-5989
▁kissed	-5990
▁passed	-5991
▁stolen	-5992
▁wicked	-5993
▁करेंगे	-5994
▁कर्मचा	-5995
▁प्रीति	-5996
▁मिल्का	-5997
▁मुर्दे	-5998
▁रहेंगे	-5999
▁అరువది	-6000
▁ఉంచెను	-6001
▁కుటుంబ	-6002
▁కూర్చు	-6003
▁గెరారు	-6004
▁చూచెను	-6005
▁త్వరగా	-6006
▁పండ్రె	-6007
▁ప్రత్య	-6008
▁భక్ష్య	-6009
▁యున్నా	-6010
▁లోతును	-6011
▁వెంటబె	-6012
▁శారాను	-6013
▁ಆಳಿದನು	-6014
▁ಇದ್ದನು	-6015
▁ಎಫ್ರೋನ	-6016
▁ಐವತ್ತು	-6017
▁ಒಬ್ಬನು	-6018
▁ಕುಟುಂಬ	-6019
▁ಕೂಡಿಸಿ	-6020
▁ಕ್ರಿಮಿ	-6021
▁ಗೋಷೆನ್	-6022
▁ಜೀವಜಂತ	-6023
▁ತಮ್ಮನು	-6024
▁ದಾಸರಾದ	-6025
▁ಪೂರ್ವದ	-6026
▁ಬಲಿಪೀಠ	-6027
▁ಮೂರನೆಯ	-6028
▁ವದಕ್ಕೆ	-6029
▁ಸಂಗಡಲೂ	-6030
▁ಸನ್ನಿಧ	-6031
▁ಸಮಾಧಾನ	-6032
▁ಸೊದೋಮ್	-6033
▁ಸ್ತ್ರೀ	-6034
▁ಹಸುಗಳು	-6035
▁ಹೆಣ್ಣು	-6036
▁ಹೋಗಿರಿ	-6037
ింపబడును	-6038
ಕೊಳ್ಳಿರಿ	-6039
ಗಳಲ್ಲಿಯೂ	-6040
ಲ್ಲೆಲ್ಲಾ	-6041
▁Hittite	-6042
▁thither	-6043
▁venison	-6044
▁wherein	-6045
▁whether	-6046
▁जातियों	-6047
▁पहिलौठे	-6048
▁बहुतायत	-6049
▁बुढ़ापे	-6050
▁అందుచేత	-6051
▁ఇప్పుడు	-6052
▁డెబ్బది	-6053
▁దీవించి	-6054
▁నాయకులు	-6055
▁పశువులు	-6056
▁పిల్లలు	-6057
▁ఫిలిష్త	-6058
▁భార్యయు	-6059
▁విస్తార	-6060
▁సమృద్ధి	-6061
▁ಅದರಲ್ಲಿ	-6062
▁ಇರಲಿಲ್ಲ	-6063
▁ಎದುರಾಗಿ	-6064
▁ಒಂಭೈನೂರ	-6065
▁ಕೊಟ್ಟಳು	-6066
▁ತೆನೆಗಳು	-6067
▁ನೋಡಲಾಗಿ	-6068
▁ಪ್ರಾಣವು	-6069
▁ಮೇಲಿದ್ದ	-6070
▁ರೂಬೇನನು	-6071
▁ಸಹೋದರಿಯ	-6072
▁ಸೊದೋಮಿನ	-6073
▁ಹೇಳಿದರು	-6074
గినప్పుడు	-6075
ಕೊಳ್ಳುತ್ತ	-6076
▁creature	-6077
▁creepeth	-6078
▁जल्लादों	-6079
▁सम्पत्ति	-6080
▁చెరసాలలో	-6081
▁తండ్రితో	-6082
▁దేశమందంత	-6083
▁ద్రవ్యము	-6084
▁నిబంధనను	-6085
▁నివసించు	-6086
▁పానదాయకు	-6087
▁బెతూయేలు	-6088
▁మార్గమున	-6089
▁ಅಪ್ಪಣೆಕೊ	-6090
▁ಎಫ್ರಾಯಾಮ	-6091
▁ಹನ್ನೆರಡು	-6092
ಮಾಡುವದಕ್ಕೆ	-6093
▁establish	-6094
▁household	-6095
▁journeyed	-6096
▁prevailed	-6097
▁प्रार्थना	-6098
▁అబ్రాముతో	-6099
▁అబ్రామును	-6100
▁స్వాస్థ్య	-6101
▁ಅಭಿವೃದ್ಧಿ	-6102
▁ಖಂಡಿತವಾಗಿ	-6103
▁ಪಟ್ಟಣಕ್ಕೆ	-6104
▁ಲಾಬಾನನಿಗೆ	-6105
▁ಹೂಣಿಟ್ಟರು	-6106
▁కుమార్తెలు	-6107
▁భక్ష్యకారు	-6108
▁ಕಳುಹಿಸಿದನು	-6109
▁ಕೊಡುತ್ತೇನೆ	-6110
▁ಜ್ಞಾಪಕಮಾಡಿ	-6111
▁ನಿಶ್ಚಯವಾಗಿ	-6112
▁ಮಾತುಗಳನ್ನು	-6113
▁ಯಾಕೋಬನನ್ನು	-6114
▁ವಂಶಾವಳಿಗಳು	-6115
▁everlasting	-6116
▁exceedingly	-6117
▁కుమార్తెయగు	-6118
▁తప్పించుకొని	-6119
▁వచ్చినప్పుడు	-6120
▁ಕೊಟ್ಟಿದ್ದಾನೆ	-6121
▁ಕೊಟ್ಟಿದ್ದೇನೆ	-6122
▁ಕಣ್ಣುಗಳನ್ನೆತ್ತಿ	-6123
ct	-6124
cy	-6125
ug	-6126
uz	-6127
yr	-6128
ंज	-6129
अर	-6130
खे	-6131
झा	-6132
पज	-6133
पि	-6134
वल	-6135
षा	-6136
ीक	-6137
ीम	-6138
ुल	-6139
జ్	-6140
లై	-6141
ృద	-6142
ోగ	-6143
ಈಗ	-6144
ಕಿ	-6145
ಗಾ	-6146
ಗೈ	-6147
ಬಲ	-6148
ವಳ	-6149
ಸನ	-6150
ಸು	-6151
ೀನ	-6152
್ನ	-6153
▁ಳ	-6154
ank	-6155
ark	-6156
ict	-6157
ile	-6158
ins	-6159
med	-6160
oar	-6161
oke	-6162
oub	-6163
ude	-6164
ued	-6165
ंगल	-6166
ंसी	-6167
च्छ	-6168
टोल	-6169
तनी	-6170
तों	-6171
प्त	-6172
भिन	-6173
मेर	-6174
रखा	-6175
रेद	-6176
लाम	-6177
लीब	-6178
लेल	-6179
हार	-6180
ంపి	-6181
త్వ	-6182
నేల	-6183
ఫజు	-6184
మగు	-6185
ముక	-6186
యొక	-6187
రోయ	-6188
ర్య	-6189
లేక	-6190
వాడ	-6191
వున	-6192
సలి	-6193
ైదా	-6194
ಕೋಲ	-6195
ಗಂಧ	-6196
ಠಿಣ	-6197
ತೂಷ	-6198
ದಾಸ	-6199
ನಾನ	-6200
ಮನು	-6201
ಳಿನ	-6202
ವನಾ	-6203
ಾಕ್	-6204
ಾತಃ	-6205
ಿಯೋ	-6206
್ರೇ	-6207
▁Ha	-6208
▁ro	-6209
▁sc	-6210
▁एम	-6211
▁खल	-6212
▁गि	-6213
▁मृ	-6214
▁అం	-6215
▁ఆర	-6216
▁ఇక	-6217
▁ఇత	-6218
▁కె	-6219
▁గి	-6220
▁దో	-6221
▁ద్	-6222
▁బొ	-6223
▁రే	-6224
▁హో	-6225
▁ಎಬ	-6226
▁ನರ	-6227
▁ನು	-6228
▁ನೆ	-6229
▁ಪೆ	-6230
▁ಭಾ	-6231
▁ರು	-6232
▁ಲೂ	-6233
▁ವರ	-6234
▁ಸೈ	-6235
▁ಸೌ	-6236
augh	-6237
iest	-6238
inet	-6239
olib	-6240
over	-6241
road	-6242
stra	-6243
क्षा	-6244
भूमि	-6245
मबलि	-6246
म्ना	-6247
रामी	-6248
सन्न	-6249
स्त्	-6250
िलाद	-6251
క్కి	-6252
క్తి	-6253
గిలి	-6254
తాను	-6255
మనగా	-6256
మీయు	-6257
మ్నా	-6258
రుకు	-6259
లెను	-6260
లోను	-6261
ల్కా	-6262
వును	-6263
స్తమ	-6264
్మశా	-6265
ಗಳಿನ	-6266
ಢಚಾರ	-6267
ನ್ನೇ	-6268
ವೇನು	-6269
ಶಕ್ತ	-6270
ಿದರೆ	-6271
ಿಸಲಿ	-6272
ುವರು	-6273
ೋಟೀಫ	-6274
▁Alm	-6275
▁Ash	-6276
▁Mah	-6277
▁Mil	-6278
▁Zeb	-6279
▁Zil	-6280
▁bak	-6281
▁dis	-6282
▁emb	-6283
▁ent	-6284
▁ill	-6285
▁lam	-6286
▁per	-6287
▁ram	-6288
▁आता	-6289
▁कोख	-6290
▁क्ष	-6291
▁खोल	-6292
▁चली	-6293
▁ठहर	-6294
▁ठीक	-6295
▁दहि	-6296
▁दीश	-6297
▁दूध	-6298
▁निम	-6299
▁परि	-6300
▁पाप	-6301
▁फैल	-6302
▁बसा	-6303
▁बास	-6304
▁मतू	-6305
▁याज	-6306
▁रहो	-6307
▁लाल	-6308
▁व्य	-6309
▁शेत	-6310
▁सहा	-6311
▁सेव	-6312
▁అటు	-6313
▁అన్	-6314
▁అరణ	-6315
▁ఏబె	-6316
▁కోడ	-6317
▁కోప	-6318
▁చార	-6319
▁తొడ	-6320
▁దను	-6321
▁దహన	-6322
▁నకు	-6323
▁నెల	-6324
▁పరి	-6325
▁భాష	-6326
▁భూజ	-6327
▁మోస	-6328
▁లోప	-6329
▁సంచ	-6330
▁సోయ	-6331
▁ಅಧಿ	-6332
▁ಆಗಿ	-6333
▁ಆದಾ	-6334
▁ಇಳು	-6335
▁ಎನೋ	-6336
▁ಎಲೀ	-6337
▁ಏದೆ	-6338
▁ಕಾಪ	-6339
▁ಕೊರ	-6340
▁ಕ್ಕ	-6341
▁ಚೋಗ	-6342
▁ಜಗಳ	-6343
▁ದಹನ	-6344
▁ದೀನ	-6345
▁ದೀಶ	-6346
▁ಬಾಯ	-6347
▁ಮರೆ	-6348
▁ರೂಪ	-6349
▁ಹಗೆ	-6350
bered	-6351
iphaz	-6352
itude	-6353
kened	-6354
quire	-6355
क्खिन	-6356
दिष्ट	-6357
रियां	-6358
होलीब	-6359
టిమీద	-6360
ట్టలు	-6361
డలేదు	-6362
తులను	-6363
ద్యోగ	-6364
మగును	-6365
మనెను	-6366
మైనది	-6367
లిచిన	-6368
ల్లను	-6369
విత్ర	-6370
వేసిన	-6371
ాయెను	-6372
ిన్నె	-6373
ಕ್ಷಿಣ	-6374
ಡುವದು	-6375
ಬಹುದು	-6376
ಮಿತ್ತ	-6377
ರಬೇಕು	-6378
ವರಿಗೂ	-6379
ವಾಗುವ	-6380
ವಾಸ್ಥ	-6381
ವಿದ್ದ	-6382
ವೆಂದು	-6383
▁Dish	-6384
▁Eber	-6385
▁Mach	-6386
▁Meth	-6387
▁Seth	-6388
▁Zoar	-6389
▁bond	-6390
▁each	-6391
▁feet	-6392
▁fore	-6393
▁gone	-6394
▁grew	-6395
▁heap	-6396
▁herb	-6397
▁many	-6398
▁ones	-6399
▁pros	-6400
▁raim	-6401
▁slew	-6402
▁thus	-6403
▁अन्ध	-6404
▁एबेर	-6405
▁कन्ध	-6406
▁केवल	-6407
▁खाकर	-6408
▁गरार	-6409
▁चलकर	-6410
▁चलता	-6411
▁चलते	-6412
▁चाहे	-6413
▁चित्	-6414
▁चिन्	-6415
▁चुका	-6416
▁जंगल	-6417
▁जाते	-6418
▁टटोल	-6419
▁देखो	-6420
▁पचास	-6421
▁पीछा	-6422
▁बोरे	-6423
▁भाषा	-6424
▁मानी	-6425
▁मिले	-6426
▁रूपे	-6427
▁सकते	-6428
▁सुनो	-6429
▁सोअर	-6430
▁होते	-6431
▁అధిప	-6432
▁అయ్య	-6433
▁ఇతని	-6434
▁కలలు	-6435
▁కుడి	-6436
▁కుమా	-6437
▁చంపి	-6438
▁చేర్	-6439
▁జిల్	-6440
▁నుండ	-6441
▁పండు	-6442
▁పైకి	-6443
▁పొడల	-6444
▁ప్రస	-6445
▁మైదా	-6446
▁మొదట	-6447
▁యుండ	-6448
▁రండి	-6449
▁వరకు	-6450
▁హాని	-6451
▁ಅತ್ಯ	-6452
▁ಅನಾಹ	-6453
▁ಅರುವ	-6454
▁ಆರಾಧ	-6455
▁ಇಟ್ಟ	-6456
▁ಇವನೇ	-6457
▁ಕೂತು	-6458
▁ಕ್ರಮ	-6459
▁ತಂದು	-6460
▁ತೆರೆ	-6461
▁ದಾಸರ	-6462
▁ದೊರಕ	-6463
▁ದೊರೆ	-6464
▁ಪಲ್ಯ	-6465
▁ಬಳಿಯ	-6466
▁ಬಾಗಲ	-6467
▁ಬಾಗಿ	-6468
▁ಭೂಮಿ	-6469
▁ಮಗಳು	-6470
▁ಮಾಂಸ	-6471
▁ಮುದಿ	-6472
▁ವಿಚಾ	-6473
▁ಸಂಬಳ	-6474
▁ಹತ್ತ	-6475
stance	-6476
దానిని	-6477
దేవుడు	-6478
న్నులు	-6479
పెట్టి	-6480
పోయిరి	-6481
యున్నా	-6482
ష్టమైన	-6483
ಗಾವಲಿನ	-6484
ರಿಸಲ್ಪ	-6485
ಲ್ಲಿಂದ	-6486
ವರನ್ನು	-6487
ವಿತ್ತು	-6488
ಿದ್ದಾಗ	-6489
ಿಸುವನು	-6490
ೊಂದಿಗೂ	-6491
▁clean	-6492
▁commu	-6493
▁cried	-6494
▁didst	-6495
▁early	-6496
▁hated	-6497
▁laugh	-6498
▁ninet	-6499
▁south	-6500
▁spies	-6501
▁touch	-6502
▁एलीपज	-6503
▁कटोरा	-6504
▁खम्भा	-6505
▁गाभिन	-6506
▁गिलाद	-6507
▁चर्चा	-6508
▁जितना	-6509
▁तड़के	-6510
▁तलवार	-6511
▁देखने	-6512
▁धर्मी	-6513
▁निवास	-6514
▁प्रति	-6515
▁बनाकर	-6516
▁बनाना	-6517
▁बिहान	-6518
▁बूढ़ा	-6519
▁महीने	-6520
▁मिलें	-6521
▁అప్పగ	-6522
▁అస్తమ	-6523
▁ఆవులు	-6524
▁ఉండిన	-6525
▁ఉన్నా	-6526
▁ఎక్కడ	-6527
▁కట్టు	-6528
▁కనబడు	-6529
▁కుప్ప	-6530
▁కోపము	-6531
▁కోసము	-6532
▁గవిని	-6533
▁చెల్ల	-6534
▁త్రాగ	-6535
▁దగ్గర	-6536
▁దుష్ట	-6537
▁దూరము	-6538
▁నట్లు	-6539
▁నిత్య	-6540
▁నుండు	-6541
▁పొంది	-6542
▁పొట్ట	-6543
▁భోజ్య	-6544
▁ముసలి	-6545
▁యాజకు	-6546
▁యొక్క	-6547
▁విచార	-6548
▁శ్మశా	-6549
▁సంగతి	-6550
▁సంతతి	-6551
▁సెలవి	-6552
▁హనోకు	-6553
▁హమోరు	-6554
▁ಉತ್ತರ	-6555
▁ಕಾಯುವ	-6556
▁ಕಿರಿಯ	-6557
▁ಕೊಬ್ಬ	-6558
▁ಗುರುತ	-6559
▁ಜಿಲ್ಪ	-6560
▁ತಂದನು	-6561
▁ದೂತನು	-6562
▁ದೇಶವು	-6563
▁ನನ್ನೂ	-6564
▁ನೀರಿನ	-6565
▁ಪೋಟೀಫ	-6566
▁ಪ್ರಳಯ	-6567
▁ಮತ್ತೆ	-6568
▁ಮಿಲ್ಕ	-6569
▁ಮೆತೂಷ	-6570
▁ಲೆಕ್ಕ	-6571
▁ವಿಭಾಗ	-6572
▁ಸುಗಂಧ	-6573
▁ಸೂರ್ಯ	-6574
▁ಸೈನ್ಯ	-6575
▁ಸ್ಥಳದ	-6576
▁ಸ್ಥಾಪ	-6577
straked	-6578
क्तिमान	-6579
బట్టియు	-6580
యేండ్లు	-6581
వన్నియు	-6582
ದಿದ್ದರೆ	-6583
ನ್ನಾಗಲಿ	-6584
ೊಂಭತ್ತು	-6585
▁Aholib	-6586
▁Milcah	-6587
▁Zilpah	-6588
▁abroad	-6589
▁except	-6590
▁follow	-6591
▁mighty	-6592
▁pieces	-6593
▁priest	-6594
▁savour	-6595
▁seeing	-6596
▁shewed	-6597
▁twelve	-6598
▁wilder	-6599
▁जाऊंगा	-6600
▁जिल्पा	-6601
▁दक्खिन	-6602
▁बुलाकर	-6603
▁होमबलि	-6604
▁అందులో	-6605
▁అతడునా	-6606
▁ఉద్యోగ	-6607
▁ఎలీఫజు	-6608
▁గిన్నె	-6609
▁తండ్రీ	-6610
▁త్రాగు	-6611
▁నిలిచి	-6612
▁పితరుల	-6613
▁బిల్హా	-6614
▁మనస్సు	-6615
▁మరియొక	-6616
▁మెడమీద	-6617
▁లెమెకు	-6618
▁వానిని	-6619
▁వినెను	-6620
▁సన్నిధ	-6621
▁ಅಮೋರಿಯ	-6622
▁ಆದಾಮನು	-6623
▁ಎದೋಮ್ಯ	-6624
▁ಕರ್ತನೇ	-6625
▁ಕುರಿಗಳ	-6626
▁ಗೂಢಚಾರ	-6627
▁ಚುಕ್ಕೆ	-6628
▁ತಂದೆಯೂ	-6629
▁ತಿರುಗಿ	-6630
▁ದಕ್ಷಿಣ	-6631
▁ಪ್ರಾತಃ	-6632
▁ಬಂಧುಗಳ	-6633
▁ಬದುಕುವ	-6634
▁ಸಮಾಧಿಯ	-6635
▁ಸಾರಯಳು	-6636
▁ಹೊತ್ತು	-6637
होलीबामा	-6638
వాడాయెను	-6639
ినందరిని	-6640
ವಾಗಿತ್ತು	-6641
▁Eliphaz	-6642
▁Philist	-6643
▁builded	-6644
▁pitched	-6645
▁raiment	-6646
▁ठहरेंगे	-6647
▁पुरूषों	-6648
▁प्रभुता	-6649
▁बनाऊंगा	-6650
▁बुलवाकर	-6651
▁वृक्षों	-6652
▁కనబడెను	-6653
▁చనిపోవు	-6654
▁దేవుడను	-6655
▁దేశమును	-6656
▁నుండును	-6657
▁నున్నది	-6658
▁నోవహును	-6659
▁ప్రభువా	-6660
▁ప్రార్థ	-6661
▁యుండును	-6662
▁వచ్చును	-6663
▁వస్తువు	-6664
▁ಅರ್ಪಕ್ಷ	-6665
▁ಅವರಿಬ್ಬ	-6666
▁ಇದ್ದೇನೆ	-6667
▁ಕಾಯಿನನು	-6668
▁ಗೆರಾರಿನ	-6669
▁ತಿಂಗಳಿನ	-6670
▁ದಿನಗಳಾದ	-6671
▁ನಿಮಿತ್ತ	-6672
▁ಬಂದಿದ್ದ	-6673
▁ಮನುಷ್ಯರ	-6674
▁ಶವವನ್ನು	-6675
▁ಸಮುದ್ರದ	-6676
▁ಸಹೋದರನು	-6677
▁ಸಿಮೆಯೋನ	-6678
▁ಸ್ವಾಸ್ಥ	-6679
లన్నిటిని	-6680
ಾಗಿದ್ದೇವೆ	-6681
ಿಸುತ್ತೇನೆ	-6682
▁stranger	-6683
▁कनानियों	-6684
▁जन्मभूमि	-6685
▁చనిపోయిన	-6686
▁నివసించి	-6687
▁పొడలైనను	-6688
▁యెహోవాను	-6689
▁రాజాయెను	-6690
▁రిబ్కాను	-6691
▁విషయములో	-6692
▁ಅದಕ್ಕವನು	-6693
▁ಇನ್ನೊಂದು	-6694
▁ಕಳುಹಿಸಿದ	-6695
▁ಕುಮಾರರಾದ	-6696
▁ಕೊಂದುಹಾಕ	-6697
▁ಚೊಚ್ಚಲತನ	-6698
▁ದ್ರಾಕ್ಷೇ	-6699
▁ನಿನ್ನಿಂದ	-6700
▁ಮುಖ್ಯಸ್ಥ	-6701
▁ಮೈಗಾವಲಿನ	-6702
▁ಯಜಮಾನನಾದ	-6703
ಿಸಿದ್ದರಿಂದ	-6704
▁hearkened	-6705
▁multitude	-6706
▁substance	-6707
▁wherefore	-6708
▁स्वादिष्ट	-6709
▁అభివృద్ధి	-6710
▁చిన్నవాని	-6711
▁తెలియచేసి	-6712
▁పండ్రెండు	-6713
▁ప్రత్యక్ష	-6714
▁మచ్చలైనను	-6715
▁మార్గములో	-6716
▁మొదలుకొని	-6717
▁యిట్లనెను	-6718
▁వారిద్దరు	-6719
▁విస్తరింప	-6720
▁సేనాధిపతి	-6721
▁ಅರ್ಥವನ್ನು	-6722
▁ಇಷ್ಮಾಯೇಲನ	-6723
▁ಜನರೊಂದಿಗೆ	-6724
▁ಜೀವಜಂತುಗಳ	-6725
▁ತಿಳಿಸಿದಾಗ	-6726
▁ದಿನವಾಯಿತು	-6727
▁ರೊಟ್ಟಿಗಾರ	-6728
▁ಸಾಯಂಕಾಲವೂ	-6729
▁ಸೀಮೆಯಲ್ಲಿ	-6730
ించినప్పుడు	-6731
▁Aholibamah	-6732
▁Canaanites	-6733
▁wilderness	-6734
▁కుమారులును	-6735
▁జలప్రవాహము	-6736
▁తెలిసికొని	-6737
▁నివసించెను	-6738
▁సహోదరులును	-6739
▁ಗಳಾಗಿದ್ದವು	-6740
▁ತಗ್ಗಿನಲ್ಲಿ	-6741
▁ದಿನಗಳೆಲ್ಲಾ	-6742
▁ಬೇಡಿಕೊಂಡನು	-6743
▁ಸಂಪತ್ತನ್ನೂ	-6744
▁ringstraked	-6745
▁ಆದದ್ದೇನಂದರೆ	-6746
▁ಆಶೀರ್ವದಿಸುವ	-6747
▁ಒಳ್ಳೆಯದೆಂದು	-6748
▁ಕುಮಾರ್ತೆಯರು	-6749
▁ಮಾಡಿದ್ದರಿಂದ	-6750
▁ವಸ್ತ್ರವನ್ನು	-6751
▁peradventure	-6752
▁అబ్రాహామునకు	-6753
▁తొమి్మదివందల	-6754
▁ಆಶೀರ್ವದಿಸಲ್ಪ	-6755
▁ವಾಸವಾಗಿದ್ದನು	-6756
▁ಹೀಗಿರುವದರಿಂದ	-6757
▁ಹೆಚ್ಚಿಸುವೆನು	-6758
pl	-6759
vi	-6760
आं	-6761
धर	-6762
पन	-6763
भा	-6764
मत	-6765
वन	-6766
ीर	-6767
గడ	-6768
దన	-6769
నూ	-6770
పే	-6771
మూ	-6772
యం	-6773
య్	-6774
వో	-6775
హి	-6776
ాన	-6777
ూయ	-6778
ಅವ	-6779
ಜನ	-6780
ದೊ	-6781
ಬೂ	-6782
ಲಾ	-6783
ಸರ	-6784
ಹದ	-6785
ಾಜ	-6786
ೀಕ	-6787
ೆಮ	-6788
ೊತ	-6789
▁ఘ	-6790
▁ಔ	-6791
any	-6792
ape	-6793
eel	-6794
eon	-6795
gth	-6796
ife	-6797
izz	-6798
lot	-6799
mah	-6800
oud	-6801
uff	-6802
ulf	-6803
urn	-6804
ंकर	-6805
ओगे	-6806
कपे	-6807
चान	-6808
झाई	-6809
ञान	-6810
तार	-6811
तीस	-6812
नोश	-6813
बाल	-6814
ब्र	-6815
रीर	-6816
रूप	-6817
ानि	-6818
िरू	-6819
ृपा	-6820
ोकर	-6821
చండ	-6822
చేస	-6823
తము	-6824
దుర	-6825
బ్య	-6826
మోర	-6827
యంద	-6828
ళ్ల	-6829
శెమ	-6830
హము	-6831
ేమో	-6832
ోబా	-6833
్రొ	-6834
ಕ್ಪ	-6835
ಚ್ರ	-6836
ದಾಗ	-6837
ದಾಯ	-6838
ಪ್ರ	-6839
ಫ್ತ	-6840
ಬಾಮ	-6841
ಬೆಯ	-6842
ರನೂ	-6843
ರಿಗ	-6844
ರ್ಪ	-6845
ಳಿಯ	-6846
ವರೂ	-6847
ವಾಳ	-6848
ವೇದ	-6849
ಸೆಯ	-6850
ಹಾಗ	-6851
ಾಗದ	-6852
ಾದ್	-6853
ಾನೋ	-6854
ಾವು	-6855
ೆರನ	-6856
ೆರಹ	-6857
ೌವನ	-6858
▁Er	-6859
▁Of	-6860
▁Oh	-6861
▁कम	-6862
▁गु	-6863
▁छा	-6864
▁छि	-6865
▁दल	-6866
▁पै	-6867
▁बच	-6868
▁भि	-6869
▁लक	-6870
▁అహ	-6871
▁గె	-6872
▁తూ	-6873
▁పద	-6874
▁పీ	-6875
▁బి	-6876
▁యై	-6877
▁ಅಶ	-6878
▁ಉಪ	-6879
▁ಎಡ	-6880
▁ಒಣ	-6881
▁ಕಳ	-6882
▁ಟಗ	-6883
▁ತಡ	-6884
▁ಯಥ	-6885
▁ಲೇ	-6886
▁ವಶ	-6887
▁ಶಿ	-6888
▁ಸೆ	-6889
▁ಹಗ	-6890
▁ಹವ	-6891
aces	-6892
amar	-6893
axad	-6894
cept	-6895
imes	-6896
less	-6897
omin	-6898
pent	-6899
teen	-6900
vous	-6901
ऊंगी	-6902
क्षी	-6903
ड़ों	-6904
त्मा	-6905
पक्ष	-6906
प्ता	-6907
ब्बे	-6908
मांश	-6909
रझाई	-6910
रवाई	-6911
र्वश	-6912
वन्त	-6913
वाया	-6914
वासी	-6915
ृहदे	-6916
ంతలు	-6917
ంబది	-6918
కుడి	-6919
క్పే	-6920
చిగల	-6921
చేతి	-6922
డుము	-6923
నిరి	-6924
మందే	-6925
మియు	-6926
లీబా	-6927
ెరహు	-6928
ಂಗಾರ	-6929
ಒಂದು	-6930
ಕೆಗೆ	-6931
ಗಡೆಯ	-6932
ಪತಿಯ	-6933
ಮ್ನಾ	-6934
ರ್ವತ	-6935
ವಸಾಯ	-6936
ಹೊಲೀ	-6937
ಾದಾಗ	-6938
ಾಸೆಮ	-6939
ಿದ್ಯ	-6940
ಿದ್ರ	-6941
ಿಯನೂ	-6942
ಿಯರೂ	-6943
ೇಲನು	-6944
್ಯರೂ	-6945
▁All	-6946
▁Dan	-6947
▁Hor	-6948
▁Nay	-6949
▁See	-6950
▁Tim	-6951
▁Who	-6952
▁Zib	-6953
▁def	-6954
▁eld	-6955
▁esc	-6956
▁fed	-6957
▁kid	-6958
▁lie	-6959
▁par	-6960
▁rul	-6961
▁sun	-6962
▁tal	-6963
▁अदन	-6964
▁अभी	-6965
▁अश्	-6966
▁घास	-6967
▁जनी	-6968
▁ढूं	-6969
▁तले	-6970
▁निर	-6971
▁पंच	-6972
▁बदल	-6973
▁बरस	-6974
▁बाद	-6975
▁बीस	-6976
▁महल	-6977
▁मुख	-6978
▁लोथ	-6979
▁विश	-6980
▁सदा	-6981
▁सूख	-6982
▁ఈమె	-6983
▁ఎనో	-6984
▁చెద	-6985
▁దూర	-6986
▁నేన	-6987
▁బాధ	-6988
▁భుజ	-6989
▁మహల	-6990
▁లోయ	-6991
▁వేయ	-6992
▁సంభ	-6993
▁సమూ	-6994
▁హృద	-6995
▁ಅಂತ	-6996
▁ಅಶ್	-6997
▁ಆಳು	-6998
▁ಇಬ್	-6999
▁ಇರು	-7000
▁ಎಂಭ	-7001
▁ಎಲು	-7002
▁ಕೊಂ	-7003
▁ಘೋರ	-7004
▁ತಂಗ	-7005
▁ತಾನ	-7006
▁ತಾಮ	-7007
▁ತೊಳ	-7008
▁ದಯೆ	-7009
▁ದೂತ	-7010
▁ದೆಸ	-7011
▁ದ್ವ	-7012
▁ಬಾರ	-7013
▁ಭಾಗ	-7014
▁ಮರಿ	-7015
▁ಮಲಗ	-7016
▁ಮಹಲ	-7017
▁ಮೂಡ	-7018
▁ಯರೂ	-7019
▁ರುಚ	-7020
▁ರೇಖ	-7021
▁ಸಹೋ	-7022
▁ಸಾಕ	-7023
▁ಹೋರ	-7024
ashem	-7025
atter	-7026
flict	-7027
ighty	-7028
ingpl	-7029
orrow	-7030
otted	-7031
pelah	-7032
rakes	-7033
कपेला	-7034
बालों	-7035
स्तान	-7036
కాలము	-7037
క్షిణ	-7038
ట్టిన	-7039
పరచిన	-7040
ముమీద	-7041
మైనవి	-7042
య్యగా	-7043
రకును	-7044
వద్దు	-7045
వనెను	-7046
సమును	-7047
ిక్కు	-7048
ులును	-7049
ేలును	-7050
ಆಕೆಯು	-7051
ಕಾಲವೂ	-7052
ಕ್ಪೇಲ	-7053
ದ್ಯೋಗ	-7054
ಪ್ರಳಯ	-7055
ಬಿಟ್ಟ	-7056
ಬಿಡುವ	-7057
ಭಿಕ್ಷ	-7058
ಲಿಸುವ	-7059
ವರಾಗಿ	-7060
ವಿರುವ	-7061
▁Amor	-7062
▁Arph	-7063
▁Eden	-7064
▁Enos	-7065
▁Hast	-7066
▁Levi	-7067
▁Naph	-7068
▁Take	-7069
▁They	-7070
▁dark	-7071
▁deal	-7072
▁deep	-7073
▁draw	-7074
▁drew	-7075
▁feed	-7076
▁high	-7077
▁lamb	-7078
▁must	-7079
▁oath	-7080
▁obey	-7081
▁port	-7082
▁prin	-7083
▁rods	-7084
▁some	-7085
▁wash	-7086
▁wood	-7087
▁अधीन	-7088
▁इतनी	-7089
▁उदास	-7090
▁एनोश	-7091
▁कबूत	-7092
▁करूं	-7093
▁कहता	-7094
▁कृपा	-7095
▁खिला	-7096
▁छूछी	-7097
▁झुका	-7098
▁डाले	-7099
▁धनुष	-7100
▁पहले	-7101
▁पांव	-7102
▁पूरे	-7103
▁पेड़	-7104
▁बनाए	-7105
▁बिना	-7106
▁मादा	-7107
▁मारे	-7108
▁मिली	-7109
▁रोया	-7110
▁लेवी	-7111
▁विरू	-7112
▁शरीर	-7113
▁शेलह	-7114
▁शेला	-7115
▁सुनी	-7116
▁सोचा	-7117
▁हानि	-7118
▁होती	-7119
▁అంగీ	-7120
▁అక్క	-7121
▁అత్య	-7122
▁అమోర	-7123
▁ఉంచు	-7124
▁ఎదుట	-7125
▁ఏలిన	-7126
▁ఓడలో	-7127
▁కనగా	-7128
▁కాని	-7129
▁కూడి	-7130
▁క్రమ	-7131
▁గొడ్	-7132
▁చంపు	-7133
▁చెను	-7134
▁చేయక	-7135
▁చోటు	-7136
▁తాము	-7137
▁దహనబ	-7138
▁దాను	-7139
▁దిగి	-7140
▁దేని	-7141
▁నరుల	-7142
▁నిర్	-7143
▁నీవే	-7144
▁నేనె	-7145
▁న్యా	-7146
▁పంపు	-7147
▁పలిక	-7148
▁ఫలము	-7149
▁ముగ్	-7150
▁ములు	-7151
▁ములో	-7152
▁వీరే	-7153
▁వెలు	-7154
▁షేతు	-7155
▁స్వర	-7156
▁ಇದಾದ	-7157
▁ಉಳಿದ	-7158
▁ಎತ್ತ	-7159
▁ಎಲೀಫ	-7160
▁ಕಠಿಣ	-7161
▁ಕನಸು	-7162
▁ಕಿವಿ	-7163
▁ಕೆಂಪ	-7164
▁ತಮಗೆ	-7165
▁ತಿರು	-7166
▁ದಾಸನ	-7167
▁ನಾವೂ	-7168
▁ನೀನೂ	-7169
▁ನೆಲದ	-7170
▁ಪಾರಿ	-7171
▁ಪೆಲೆ	-7172
▁ಯಾರೂ	-7173
▁ಯೆರೆ	-7174
▁ವರ್ತ	-7175
▁ವೆನು	-7176
▁ಶೇಮ್	-7177
▁ಹಣ್ಣ	-7178
▁ಹಾಮ್	-7179
▁ಹೆಗಲ	-7180
erning	-7181
istres	-7182
पक्षद्	-7183
కొనిరి	-7184
క్పేలా	-7185
ట్టుకు	-7186
బ్యోను	-7187
వాడును	-7188
వానికి	-7189
వారిని	-7190
వారును	-7191
వేసిరి	-7192
ಕೆಯಾಗಿ	-7193
ಕೊಂಡಾಗ	-7194
ಟ್ಟಿಗೆ	-7195
ವಾಗಿದೆ	-7196
ಹೋಯಿತು	-7197
ೌವನಸ್ಥ	-7198
▁Mahal	-7199
▁Salah	-7200
▁Shall	-7201
▁Where	-7202
▁baker	-7203
▁began	-7204
▁begin	-7205
▁curse	-7206
▁drove	-7207
▁fetch	-7208
▁grave	-7209
▁guard	-7210
▁judge	-7211
▁lands	-7212
▁leave	-7213
▁midst	-7214
▁pleas	-7215
▁separ	-7216
▁sixty	-7217
▁swear	-7218
▁sword	-7219
▁wroth	-7220
▁आएंगे	-7221
▁आत्मा	-7222
▁उजिया	-7223
▁कन्धे	-7224
▁कुरूप	-7225
▁गृहदे	-7226
▁चिन्ह	-7227
▁जहाज़	-7228
▁जाएगी	-7229
▁जानते	-7230
▁जिनके	-7231
▁जिसका	-7232
▁ज्ञान	-7233
▁झगड़ा	-7234
▁दौड़ा	-7235
▁पीढ़ी	-7236
▁पुकार	-7237
▁प्रजा	-7238
▁भयंकर	-7239
▁भांति	-7240
▁भिन्न	-7241
▁रक्षा	-7242
▁रहेगी	-7243
▁लकड़ी	-7244
▁लूंगा	-7245
▁शुद्ध	-7246
▁सत्तर	-7247
▁सर्वश	-7248
▁सातों	-7249
▁सुकाल	-7250
▁सुनते	-7251
▁हाथों	-7252
▁అడిగి	-7253
▁అయ్యా	-7254
▁అరణ్య	-7255
▁ఎక్కు	-7256
▁ఏదెను	-7257
▁కత్తి	-7258
▁కలిసి	-7259
▁కొరకు	-7260
▁గుంపు	-7261
▁చున్న	-7262
▁చేసెద	-7263
▁తట్టు	-7264
▁తెప్ప	-7265
▁తెలిప	-7266
▁త్రోవ	-7267
▁ప్రజల	-7268
▁ప్రసవ	-7269
▁ప్రాణ	-7270
▁బాశెమ	-7271
▁భయపడి	-7272
▁మందను	-7273
▁మొదటి	-7274
▁మోసపు	-7275
▁వారిక	-7276
▁విందు	-7277
▁విప్ప	-7278
▁షేలహు	-7279
▁సఫలము	-7280
▁సర్వశ	-7281
▁సేద్య	-7282
▁హెబ్ర	-7283
▁ಅಂಗೀಕ	-7284
▁ಅರಸನೂ	-7285
▁ಅರಸರು	-7286
▁ಅವನವನ	-7287
▁ಅವರವರ	-7288
▁ಇವುಗಳ	-7289
▁ಉತ್ತಮ	-7290
▁ಎದೋಮ್	-7291
▁ಎಲ್ಲಿ	-7292
▁ಒಹೊಲೀ	-7293
▁ಕ್ಷಾಮ	-7294
▁ಕ್ಷೇಮ	-7295
▁ದೇವರೂ	-7296
▁ದೇವರೇ	-7297
▁ಪರ್ವತ	-7298
▁ಪೂರ್ವ	-7299
▁ಬರಗಾಲ	-7300
▁ಬಾಸೆಮ	-7301
▁ಮಂದೆಯ	-7302
▁ಮೇಕೆಯ	-7303
▁ವಿಧೇಯ	-7304
▁ಸಿಬೆಯ	-7305
▁ಸೆರೆಮ	-7306
▁ಸೆರೆಯ	-7307
▁ಹೆಬ್ರ	-7308
▁ಹೊರತು	-7309
thright	-7310
त्तान्त	-7311
ననుకొని	-7312
ಕ್ಷಣವಾದ	-7313
ರಿನಲ್ಲಿ	-7314
ರ್ವಶಕ್ತ	-7315
ವರೆಲ್ಲಾ	-7316
ಾಗಿದ್ದು	-7317
ಿದ್ದೇವೆ	-7318
ೆದುರಿಗೆ	-7319
▁Bashem	-7320
▁Hebrew	-7321
▁Zibeon	-7322
▁beasts	-7323
▁behind	-7324
▁cometh	-7325
▁gotten	-7326
▁harlot	-7327
▁ninety	-7328
▁return	-7329
▁saidst	-7330
▁turned	-7331
▁चित्कब	-7332
▁जन्माए	-7333
▁ज्योति	-7334
▁तिम्ना	-7335
▁निकाला	-7336
▁पहिचान	-7337
▁पहुंचे	-7338
▁पुरवाई	-7339
▁बच्चों	-7340
▁बढ़ाकर	-7341
▁मकपेला	-7342
▁मिस्त्	-7343
▁मुरझाई	-7344
▁लड़कों	-7345
▁साक्षी	-7346
▁स्वरूप	-7347
▁स्वर्ग	-7348
▁కలుగగా	-7349
▁కాళ్లు	-7350
▁కొన్ని	-7351
▁చోటికి	-7352
▁జనముగా	-7353
▁జనములు	-7354
▁తిమ్నా	-7355
▁తిరుగు	-7356
▁తీర్చు	-7357
▁తొంబది	-7358
▁దక్షిణ	-7359
▁దానిలో	-7360
▁దినముల	-7361
▁నేలమీద	-7362
▁పశువుల	-7363
▁పిలిచి	-7364
▁పిల్లల	-7365
▁పురుగు	-7366
▁పోయిరి	-7367
▁ప్రచండ	-7368
▁ఫలించి	-7369
▁బట్టలు	-7370
▁మధ్యను	-7371
▁మిల్కా	-7372
▁యేమిటి	-7373
▁రమ్మని	-7374
▁రుచిగల	-7375
▁విచారణ	-7376
▁వేటాడి	-7377
▁వేసెను	-7378
▁సంపూర్	-7379
▁హేబెలు	-7380
▁ಅವಳಿಗೆ	-7381
▁ಅಶುದ್ಧ	-7382
▁ಇದ್ದವು	-7383
▁ಇರುವದು	-7384
▁ಉದ್ಯೋಗ	-7385
▁ಒಡೆಯನೇ	-7386
▁ಕರೆದನು	-7387
▁ಗಳನ್ನೂ	-7388
▁ಗಳಲ್ಲಿ	-7389
▁ಜನರಿಗೆ	-7390
▁ತೆರಹನು	-7391
▁ಪ್ರಭುವ	-7392
▁ಬಿಲ್ಲು	-7393
▁ಮಕ್ಪೇಲ	-7394
▁ಮಾಡಿರಿ	-7395
▁ಮಾತುಗಳ	-7396
▁ಹಾಗರಳು	-7397
▁ಹಿಡಿದು	-7398
ingplace	-7399
ండునట్లు	-7400
చ్చెదనని	-7401
ಕೊಳ್ಳುವದ	-7402
ವ್ಯವನ್ನು	-7403
ಾಗಿರುವದು	-7404
▁afflict	-7405
▁company	-7406
▁covered	-7407
▁herdmen	-7408
▁portion	-7409
▁prosper	-7410
▁removed	-7411
▁savoury	-7412
▁serpent	-7413
▁spotted	-7414
▁witness	-7415
▁चरवाहों	-7416
▁जातियां	-7417
▁निकालकर	-7418
▁वस्तुएं	-7419
▁विरूद्ध	-7420
▁అర్పక్ష	-7421
▁ఉదయమును	-7422
▁కానుకను	-7423
▁గాకనియు	-7424
▁చిన్నది	-7425
▁చేయించి	-7426
▁తట్టును	-7427
▁తమ్ముని	-7428
▁నాయొద్ద	-7429
▁పలికెను	-7430
▁పిల్లను	-7431
▁పొలమును	-7432
▁మక్పేలా	-7433
▁మమ్మును	-7434
▁మాత్రమే	-7435
▁యింటికి	-7436
▁యింటిలో	-7437
▁యుండిరి	-7438
▁వచ్చితి	-7439
▁వారందరి	-7440
▁విశాలము	-7441
▁సంవత్సర	-7442
▁ಇಲ್ಲಿಗೆ	-7443
▁ಇವುಗಳಾದ	-7444
▁ಎದೋಮ್ಯರ	-7445
▁ಕೈಯನ್ನು	-7446
▁ಕೊಬ್ಬಿದ	-7447
▁ಗರ್ಭಿಣಿ	-7448
▁ಜಲಪ್ರಳಯ	-7449
▁ಜೀವದಿಂದ	-7450
▁ಪಾರಿವಾಳ	-7451
▁ಬೆಳ್ಳಿಯ	-7452
▁ಮನಸ್ಸೆಯ	-7453
▁ಮಾಡಿದರು	-7454
▁ರುಚಿಯಾದ	-7455
▁ಲೆಮೆಕನು	-7456
▁ವ್ಯವಸಾಯ	-7457
▁ಸಂತತಿಗೂ	-7458
▁ಸುಭಿಕ್ಷ	-7459
▁ಹಾಕಿದನು	-7460
▁ಹೇಳುತ್ತ	-7461
చున్నాడని	-7462
ించునట్లు	-7463
ದಲ್ಲೆಲ್ಲಾ	-7464
ಲ್ಪಟ್ಟಿತು	-7465
▁Almighty	-7466
▁Arphaxad	-7467
▁grievous	-7468
▁mourning	-7469
▁बढ़ाऊंगा	-7470
▁स्वप्नों	-7471
▁కలుగజేసి	-7472
▁కుటుంబపు	-7473
▁చూచితిని	-7474
▁దాసులమైన	-7475
▁దేశమందలి	-7476
▁నియమించి	-7477
▁ప్రయాణమై	-7478
▁ప్రార్థన	-7479
▁మాటలాడిన	-7480
▁ముగ్గురు	-7481
▁యున్నాడు	-7482
▁లేనియెడల	-7483
▁వెళ్లిరి	-7484
▁సిబ్యోను	-7485
▁ಅಬೀಮೆಲೆಕ	-7486
▁ಇರಿಸಿದನು	-7487
▁ಒಡೆಯನಿಗೆ	-7488
▁ಕಣ್ಣುಗಳು	-7489
▁ಕಲ್ಲನ್ನು	-7490
▁ಕಾನಾನ್ಯರ	-7491
▁ಗವಿಯಲ್ಲಿ	-7492
▁ದೆಸೆಯಿಂದ	-7493
▁ಬೆತ್ತಲೆಯ	-7494
▁ಮಕ್ಕಳಿಗೆ	-7495
▁ಸತ್ತುಹೋದ	-7496
▁ಸ್ತ್ರೀಯು	-7497
▁ಹೆಂಡತಿಯರ	-7498
▁ಹೊಲದಲ್ಲಿ	-7499
▁Bashemath	-7500
▁Machpelah	-7501
▁अर्पक्षद्	-7502
▁ओहोलीबामा	-7503
▁वृत्तान्त	-7504
▁स्त्रियां	-7505
▁అప్పుడామె	-7506
▁ఎఫ్రాయిము	-7507
▁చిన్నదాని	-7508
▁చిన్నవాడు	-7509
▁దినమాయెను	-7510
▁నీయొద్దకు	-7511
▁పానదాయకుల	-7512
▁పిల్లలును	-7513
▁సన్నిధిని	-7514
▁సమృద్ధిగా	-7515
▁సహోదరుడగు	-7516
▁సహోదరులతో	-7517
▁స్త్రీలను	-7518
▁ತಕ್ಕೊಂಡನು	-7519
▁ತಮ್ಮನನ್ನು	-7520
▁ದಿನಗಳಲ್ಲಿ	-7521
▁ಮಕ್ಕಳನ್ನೂ	-7522
▁ಮಾಡಿಸಿದನು	-7523
▁ಸವಿಾಪಕ್ಕೆ	-7524
▁ಸ್ವಾಸ್ಥ್ಯ	-7525
▁birthright	-7526
▁concerning	-7527
▁पकानेहारों	-7528
▁पलिश्तियों	-7529
▁लड़केबालों	-7530
▁అబ్రామునకు	-7531
▁గొఱ్ఱపిల్ల	-7532
▁పాతిపెట్టు	-7533
▁భోజ్యములను	-7534
▁ಕರೆದುಕೊಂಡು	-7535
▁ಕಾಲುಗಳನ್ನು	-7536
▁ಕುಮಾರ್ತೆಯರ	-7537
▁ಗುಡಾರವನ್ನು	-7538
▁ದೇವರಾಗಿರುವ	-7539
▁ದೇಶದೊಳಗಿಂದ	-7540
▁ಪಟ್ಟಣವನ್ನು	-7541
▁ಪೂರ್ವದಿಕ್ಕ	-7542
▁ಬಂದಿದ್ದಾರೆ	-7543
▁ಮಾಡಿದ್ದೇನೆ	-7544
▁ಮಾರ್ಗದಲ್ಲಿ	-7545
▁ಮಾರ್ಗವನ್ನು	-7546
▁ಸಹೋದರರನ್ನು	-7547
▁ಸ್ತಂಭವನ್ನು	-7548
▁ಹಿತ್ತಿಯನಾದ	-7549
▁Philistines	-7550
▁कर्मचारियों	-7551
▁पिलानेहारों	-7552
▁मिस्त्रियों	-7553
▁కుమార్తెలలో	-7554
▁పద్దనరాములో	-7555
▁ಅತ್ಯಧಿಕವಾಗಿ	-7556
▁ನಿಲ್ಲಿಸಿದನು	-7557
▁ಪ್ರಾತಃಕಾಲವೂ	-7558
▁ಸೃಷ್ಟಿಸಿದನು	-7559
▁buryingplace	-7560
▁सर्वशक्तिमान	-7561
▁కాజ్ఞాపించిన	-7562
▁ద్రాక్షారసము	-7563
▁బెన్యామీనును	-7564
▁సంతానమునకును	-7565
▁ಕುಡಿಯುವದಕ್ಕೆ	-7566
▁ಮುದುಕನಾಗಿದ್ದ	-7567
▁ರೆಬೆಕ್ಕಳನ್ನು	-7568
▁ವಸ್ತ್ರಗಳನ್ನು	-7569
▁ಸಾಯುವದಕ್ಕಿಂತ	-7570
▁ಹೆಂಡತಿಯರನ್ನೂ	-7571
▁జ్యేష్ఠకుమారు	-7572
▁తండ్రియొద్దకు	-7573
▁స్వాస్థ్యముగా	-7574
▁వెంటబెట్టుకొని	-7575
by	-7576
ds	-7577
iv	-7578
la	-7579
sk	-7580
ंघ	-7581
पो	-7582
यु	-7583
ीत	-7584
ून	-7585
ूश	-7586
ेम	-7587
ोक	-7588
టే	-7589
డమ	-7590
దూ	-7591
బూ	-7592
యూ	-7593
రక	-7594
రల	-7595
ుత	-7596
ూప	-7597
ృహ	-7598
ಆದ	-7599
ಗಮ	-7600
ಚೆ	-7601
ತಣ	-7602
ತೀ	-7603
ತೊ	-7604
ಪು	-7605
ಮೂ	-7606
ಳೇ	-7607
ಹಿ	-7608
ಾಹ	-7609
ೂಹ	-7610
ೋಹ	-7611
ars	-7612
ase	-7613
eds	-7614
elf	-7615
ets	-7616
its	-7617
ket	-7618
ote	-7619
ret	-7620
uke	-7621
ule	-7622
xen	-7623
zer	-7624
कने	-7625
किम	-7626
कोल	-7627
चाई	-7628
ज्ज	-7629
दार	-7630
द्य	-7631
नाश	-7632
पदा	-7633
बच्	-7634
मार	-7635
यीम	-7636
रने	-7637
र्प	-7638
लता	-7639
लाओ	-7640
लेग	-7641
वंश	-7642
वां	-7643
ुफल	-7644
ूणा	-7645
ेरह	-7646
्रे	-7647
ంటు	-7648
ంతట	-7649
ఆమె	-7650
ఇది	-7651
కొక	-7652
గంధ	-7653
చోట	-7654
జ్జ	-7655
జ్ఞ	-7656
టిన	-7657
డవై	-7658
తీఫ	-7659
ధము	-7660
నేక	-7661
ప్య	-7662
ఫ్త	-7663
మస్	-7664
మాట	-7665
రిప	-7666
లాడ	-7667
లుగ	-7668
లోక	-7669
వేయ	-7670
ాంగ	-7671
ాలి	-7672
ింక	-7673
ుడై	-7674
ుని	-7675
ెరూ	-7676
ోమె	-7677
ಂಡಿ	-7678
ಜ್ಜ	-7679
ಡದೆ	-7680
ತವು	-7681
ಪತ್	-7682
ಯ್ದ	-7683
ರ್ಲ	-7684
ರ್ಶ	-7685
ಲ್ದ	-7686
ವನೂ	-7687
ವಾಡ	-7688
ಷನು	-7689
ಾಗು	-7690
ಾಣಿ	-7691
ಾಧಿ	-7692
ಾಲ್	-7693
ೌದು	-7694
್ವರ	-7695
▁Je	-7696
▁Me	-7697
▁ew	-7698
▁fo	-7699
▁qu	-7700
▁आश	-7701
▁आस	-7702
▁इब	-7703
▁एप	-7704
▁एर	-7705
▁कठ	-7706
▁छल	-7707
▁तै	-7708
▁सं	-7709
▁हड	-7710
▁అప	-7711
▁ఊట	-7712
▁కద	-7713
▁తల	-7714
▁నశ	-7715
▁యథ	-7716
▁లూ	-7717
▁సూ	-7718
▁ಅಸ	-7719
▁ಇದ	-7720
▁ತರ	-7721
▁ಬೊ	-7722
▁ಯೊ	-7723
▁ಸೊ	-7724
▁ಹರ	-7725
aced	-7726
acel	-7727
ange	-7728
ayed	-7729
edor	-7730
eleg	-7731
erit	-7732
ifth	-7733
irit	-7734
laom	-7735
most	-7736
oman	-7737
orah	-7738
ower	-7739
pher	-7740
rent	-7741
ries	-7742
skin	-7743
usel	-7744
vest	-7745
ड़कर	-7746
तरों	-7747
त्यु	-7748
दोर्	-7749
न्ति	-7750
वनार	-7751
शेलह	-7752
ामार	-7753
ित्त	-7754
िबोन	-7755
ूदाफ	-7756
ूर्य	-7757
ेंगे	-7758
्रहण	-7759
्राम	-7760
క్రమ	-7761
తిలో	-7762
ధిలో	-7763
ననగా	-7764
పరచి	-7765
మంతు	-7766
మనము	-7767
మీదట	-7768
ముగల	-7769
యుని	-7770
య్యు	-7771
రాజు	-7772
రిగి	-7773
ర్వా	-7774
లాము	-7775
లుగా	-7776
లుచు	-7777
షోను	-7778
హితు	-7779
హీను	-7780
ానము	-7781
ారని	-7782
ించె	-7783
ింపు	-7784
ಅಬ್ರ	-7785
ಗ್ಗಿ	-7786
ಚ್ಚು	-7787
ದಾಗಿ	-7788
ಬಂದು	-7789
ರಿಗೊ	-7790
ಲೋಕದ	-7791
ವೇಲನ	-7792
ಾಕಾರ	-7793
ಾನಿನ	-7794
ಿಸದೆ	-7795
ೊರ್ದ	-7796
್ವರೆ	-7797
▁Had	-7798
▁Jok	-7799
▁Ken	-7800
▁Mid	-7801
▁Pot	-7802
▁Sid	-7803
▁Syr	-7804
▁Tem	-7805
▁bad	-7806
▁bes	-7807
▁cub	-7808
▁few	-7809
▁int	-7810
▁ref	-7811
▁tre	-7812
▁vis	-7813
▁why	-7814
▁अति	-7815
▁अशु	-7816
▁अस्	-7817
▁आना	-7818
▁इसे	-7819
▁गिन	-7820
▁छीन	-7821
▁छूट	-7822
▁जाग	-7823
▁धाय	-7824
▁परम	-7825
▁पहु	-7826
▁बचे	-7827
▁बनी	-7828
▁बने	-7829
▁बैठ	-7830
▁बैर	-7831
▁भती	-7832
▁भरी	-7833
▁भवन	-7834
▁भूल	-7835
▁सौप	-7836
▁అహొ	-7837
▁ఇంత	-7838
▁ఇవి	-7839
▁ఎను	-7840
▁ఐదు	-7841
▁కనబ	-7842
▁ఖండ	-7843
▁గృహ	-7844
▁గ్ర	-7845
▁చాల	-7846
▁చీక	-7847
▁దరు	-7848
▁నిజ	-7849
▁నొక	-7850
▁బలా	-7851
▁బెల	-7852
▁మంచ	-7853
▁మహా	-7854
▁మూల	-7855
▁మేత	-7856
▁మొర	-7857
▁రగూ	-7858
▁రయూ	-7859
▁వెద	-7860
▁వేళ	-7861
▁సరి	-7862
▁సాగ	-7863
▁హోర	-7864
▁ಆತನ	-7865
▁ಆರು	-7866
▁ಇಡು	-7867
▁ಇವೆ	-7868
▁ಏನೂ	-7869
▁ಔತಣ	-7870
▁ಕಡಗ	-7871
▁ಕಡಿ	-7872
▁ಕನು	-7873
▁ಕಿಟ	-7874
▁ಕೀಲ	-7875
▁ಕೇಡ	-7876
▁ಜೊತ	-7877
▁ತಲೆ	-7878
▁ತೀರ	-7879
▁ಪಶು	-7880
▁ಪೂರ	-7881
▁ಬಂಜ	-7882
▁ಭಯಪ	-7883
▁ಮಂಚ	-7884
▁ರರೂ	-7885
▁ವಂಚ	-7886
▁ವನು	-7887
▁ಶಿನ	-7888
▁ಶೇಲ	-7889
▁ಸಂಧ	-7890
▁ಸಂಹ	-7891
▁ಸುವ	-7892
▁ಸೂಳ	-7893
▁ಹಾದ	-7894
▁ಹಾಸ	-7895
aleel	-7896
anged	-7897
eshed	-7898
ordan	-7899
urely	-7900
ब्रोन	-7901
ంటిమి	-7902
ందురు	-7903
గలార్	-7904
చెదను	-7905
చేసిన	-7906
తివని	-7907
త్వము	-7908
నుమని	-7909
మందలి	-7910
ములలో	-7911
రక్షక	-7912
రమును	-7913
రించు	-7914
ర్మము	-7915
లేదని	-7916
వారెవ	-7917
వృక్ష	-7918
ిరియా	-7919
ొర్లా	-7920
ಕೊಡುವ	-7921
ಡಬೇಕು	-7922
ತಿಗನು	-7923
ದಷ್ಟು	-7924
ದೊರ್ಲ	-7925
ನಾಗುವ	-7926
ನಿನಗೆ	-7927
ಪ್ರಾಯ	-7928
ಮಾಡಲಿ	-7929
ರನಿಗೆ	-7930
ರಷ್ಟು	-7931
ರುವಾಗ	-7932
ರೆಂದು	-7933
ಲಾರದೆ	-7934
ಳೆಂದು	-7935
ವುಗಳು	-7936
ವೆಂದೂ	-7937
ಹೋಗುವ	-7938
ಿದೆನು	-7939
ಿದ್ರೆ	-7940
ಿಸಿರಿ	-7941
▁Duke	-7942
▁Onan	-7943
▁Shin	-7944
▁Timn	-7945
▁cont	-7946
▁dove	-7947
▁empt	-7948
▁fair	-7949
▁fall	-7950
▁forg	-7951
▁fulf	-7952
▁gods	-7953
▁hair	-7954
▁inst	-7955
▁kill	-7956
▁love	-7957
▁mand	-7958
▁mess	-7959
▁oxen	-7960
▁purs	-7961
▁room	-7962
▁rule	-7963
▁thin	-7964
▁true	-7965
▁vine	-7966
▁walk	-7967
▁ward	-7968
▁अश्श	-7969
▁इनके	-7970
▁उड़ा	-7971
▁उतार	-7972
▁ऊंटो	-7973
▁ओनान	-7974
▁खड़े	-7975
▁खाना	-7976
▁घड़ा	-7977
▁चुके	-7978
▁चूमा	-7979
▁जवान	-7980
▁जेरह	-7981
▁जैसी	-7982
▁देना	-7983
▁नंगा	-7984
▁पलटा	-7985
▁पूरी	-7986
▁पोती	-7987
▁फुला	-7988
▁बारह	-7989
▁बेला	-7990
▁बैठी	-7991
▁भरने	-7992
▁मण्ड	-7993
▁मनसा	-7994
▁रखकर	-7995
▁रखना	-7996
▁रहकर	-7997
▁रूएल	-7998
▁लिपट	-7999
▁लेने	-8000
▁सर्प	-8001
▁सुधि	-8002
▁सुफल	-8003
▁हंसी	-8004
▁అడవి	-8005
▁అనేక	-8006
▁అయిద	-8007
▁అష్ష	-8008
▁ఇప్ప	-8009
▁ఇష్ట	-8010
▁ఎక్క	-8011
▁ఎవని	-8012
▁చక్క	-8013
▁చావక	-8014
▁చీల్	-8015
▁చూలు	-8016
▁చెట్	-8017
▁చెడి	-8018
▁చేదు	-8019
▁చోటి	-8020
▁తరము	-8021
▁దాటి	-8022
▁దేరి	-8023
▁నక్ష	-8024
▁నల్ల	-8025
▁నింద	-8026
▁పలుక	-8027
▁పెలె	-8028
▁పోగు	-8029
▁ప్రబ	-8030
▁బలము	-8031
▁మంది	-8032
▁మందు	-8033
▁మహలల	-8034
▁మాను	-8035
▁ముతో	-8036
▁మ్రొ	-8037
▁యందు	-8038
▁యిదే	-8039
▁యెరె	-8040
▁రాయి	-8041
▁లేడు	-8042
▁లేదో	-8043
▁లేవి	-8044
▁వర్త	-8045
▁సాయం	-8046
▁ಅಲ್ಲ	-8047
▁ಅವನಿ	-8048
▁ಅವನೂ	-8049
▁ಅಶ್ಶ	-8050
▁ಆರಂಭ	-8051
▁ಆಸ್ತ	-8052
▁ಎಚ್ಚ	-8053
▁ಕಂದು	-8054
▁ಕಷ್ಟ	-8055
▁ಜೆರಹ	-8056
▁ಟಗರು	-8057
▁ತಂಗಿ	-8058
▁ತಾವು	-8059
▁ತ್ವರ	-8060
▁ದಿನದ	-8061
▁ನಕ್ಷ	-8062
▁ನಡುವ	-8063
▁ನಫ್ತ	-8064
▁ನೀನೇ	-8065
▁ಪಶ್ಚ	-8066
▁ಪಾಲು	-8067
▁ಬಿಡು	-8068
▁ಬೆತೊ	-8069
▁ಭಾಷೆ	-8070
▁ಮಹಲಲ	-8071
▁ಮೂಡಣ	-8072
▁ಮೇಕೆ	-8073
▁ಯಜ್ಞ	-8074
▁ರಿಂದ	-8075
▁ರಿಗೆ	-8076
▁ಶೇಮನ	-8077
▁ಸಮೂಹ	-8078
▁ಸರ್ಪ	-8079
▁ಸೆರೂ	-8080
▁ಸ್ತು	-8081
▁ಹಣವು	-8082
▁ಹಿಡು	-8083
▁ಹೊರಟ	-8084
escore	-8085
laomer	-8086
ointed	-8087
uselah	-8088
द्रव्य	-8089
नेहारे	-8090
लाओमेर	-8091
ందరికి	-8092
క్తిగల	-8093
క్రింద	-8094
దురుగా	-8095
దురేమో	-8096
మిచ్చి	-8097
యందంతట	-8098
యినాను	-8099
యెహోవా	-8100
లిచెను	-8101
లిచ్చు	-8102
లీబామా	-8103
ల్లికి	-8104
వారికి	-8105
ష్టాంగ	-8106
ించుడి	-8107
ింపబడి	-8108
ింపబడు	-8109
ూర్చిన	-8110
ెననెను	-8111
ేండ్లు	-8112
ైయున్న	-8113
ಕರ್ತನು	-8114
ಗೊಳ್ಳು	-8115
ಟ್ಟೆನು	-8116
ತ್ತೇಳು	-8117
ನಿಗಾಗಿ	-8118
ರಿಗಿಂತ	-8119
ರೆಲ್ಲರ	-8120
ವಾಗಿರು	-8121
ಿಸಬೇಕು	-8122
ೆಯುಳ್ಳ	-8123
▁Arise	-8124
▁Jared	-8125
▁Napht	-8126
▁Peleg	-8127
▁Reuel	-8128
▁Tamar	-8129
▁There	-8130
▁anger	-8131
▁cloth	-8132
▁feast	-8133
▁fifth	-8134
▁fowls	-8135
▁goest	-8136
▁image	-8137
▁incre	-8138
▁known	-8139
▁offic	-8140
▁round	-8141
▁saith	-8142
▁sleep	-8143
▁smell	-8144
▁smote	-8145
▁stars	-8146
▁tents	-8147
▁times	-8148
▁wages	-8149
▁while	-8150
▁white	-8151
▁अरामी	-8152
▁आंखों	-8153
▁इब्री	-8154
▁कदोर्	-8155
▁कन्या	-8156
▁करूणा	-8157
▁केनान	-8158
▁क्षेम	-8159
▁खलड़ी	-8160
▁खिलाई	-8161
▁गदहों	-8162
▁ग्रहण	-8163
▁छुड़ा	-8164
▁झुण्ड	-8165
▁तामार	-8166
▁तीसरे	-8167
▁थोड़ा	-8168
▁दिखाई	-8169
▁दूदाफ	-8170
▁पहिना	-8171
▁पहिला	-8172
▁पेलेग	-8173
▁बच्चा	-8174
▁बहुओं	-8175
▁बापदा	-8176
▁बासमत	-8177
▁येरेद	-8178
▁रूपये	-8179
▁विचार	-8180
▁शक्ति	-8181
▁सूर्य	-8182
▁हाकिम	-8183
▁ఆయెను	-8184
▁ఇక్కడ	-8185
▁ఎందుక	-8186
▁ఎనోషు	-8187
▁ఓనాను	-8188
▁కడవను	-8189
▁కడుగు	-8190
▁కలిగి	-8191
▁కావున	-8192
▁గుహలో	-8193
▁చేతిక	-8194
▁చేర్చ	-8195
▁జనముల	-8196
▁జెరహు	-8197
▁దేవుడ	-8198
▁నొద్ద	-8199
▁పడిరి	-8200
▁పాపము	-8201
▁పొందు	-8202
▁పోతీఫ	-8203
▁బట్టి	-8204
▁భావము	-8205
▁మిద్య	-8206
▁ముందర	-8207
▁మెతూష	-8208
▁లన్ని	-8209
▁సంగతు	-8210
▁సుగంధ	-8211
▁స్తుత	-8212
▁స్వప్	-8213
▁ಅಡವಿಯ	-8214
▁ಅರಣ್ಯ	-8215
▁ಇದ್ದು	-8216
▁ಉಪಪತ್	-8217
▁ಎಬರನು	-8218
▁ಕನಸಿನ	-8219
▁ಕಾರ್ಯ	-8220
▁ಕಾಲವೂ	-8221
▁ಕುರಿಮ	-8222
▁ಕೊಡಲಿ	-8223
▁ಕೋಪವು	-8224
▁ಜಾತಿಯ	-8225
▁ತಂದಾಗ	-8226
▁ತಕ್ಕೋ	-8227
▁ತ್ವರೆ	-8228
▁ದುದಾಯ	-8229
▁ದ್ವಾರ	-8230
▁ನಿತ್ಯ	-8231
▁ಬಂಗಾರ	-8232
▁ಬಳಿಗೂ	-8233
▁ಬಿಟ್ಟ	-8234
▁ಭೂಮುಖ	-8235
▁ಮಲಗುವ	-8236
▁ಮಿದ್ಯ	-8237
▁ಯನ್ನು	-8238
▁ಯೊರ್ದ	-8239
▁ಸೊಸೆಯ	-8240
▁ಸ್ವಂತ	-8241
▁ಹೀಗಿರ	-8242
▁ಹೊಟ್ಟ	-8243
▁ಹೋಗಲಿ	-8244
▁ಹೋರಿಯ	-8245
acelets	-8246
fleshed	-8247
istress	-8248
वंशियों	-8249
ండ్రును	-8250
కాలమందు	-8251
చిత్తము	-8252
డేండ్లు	-8253
యున్నది	-8254
వచ్చును	-8255
ಂದಿನಿಂದ	-8256
ಇದಲ್ಲದೆ	-8257
ಕೆಯನ್ನೂ	-8258
ಕೊಳ್ಳದೆ	-8259
ದ್ದನ್ನೂ	-8260
ಬಿಟ್ಟರು	-8261
ಮಾಡಿದರು	-8262
ರೆಲ್ಲರೂ	-8263
ವನಾಗಿಯೂ	-8264
ವಾಗಿರಲಿ	-8265
ಸಾರವಾಗಿ	-8266
ಾಗುವಂತೆ	-8267
ಿದ್ದೀರಿ	-8268
▁Cainan	-8269
▁Chedor	-8270
▁Hebron	-8271
▁Jordan	-8272
▁Midian	-8273
▁Shelah	-8274
▁Surely	-8275
▁Syrian	-8276
▁beheld	-8277
▁breath	-8278
▁cursed	-8279
▁divide	-8280
▁enough	-8281
▁escape	-8282
▁filled	-8283
▁hither	-8284
▁keeper	-8285
▁mayest	-8286
▁number	-8287
▁sorrow	-8288
▁strong	-8289
▁surety	-8290
▁talked	-8291
▁window	-8292
▁अंगरखा	-8293
▁अशुद्ध	-8294
▁कबूतरी	-8295
▁चढ़ाया	-8296
▁जेवनार	-8297
▁निकलते	-8298
▁निवासी	-8299
▁पितरों	-8300
▁पिलाया	-8301
▁बलवन्त	-8302
▁बालबच्	-8303
▁भेड़ों	-8304
▁महललेल	-8305
▁मिद्या	-8306
▁मृत्यु	-8307
▁यात्रा	-8308
▁शान्ति	-8309
▁అందుకా	-8310
▁అతడును	-8311
▁ఇంటిలో	-8312
▁ఇకమీదట	-8313
▁ఎనుబది	-8314
▁ఒంటెలు	-8315
▁ఒక్కటే	-8316
▁కనబడిన	-8317
▁చిక్కి	-8318
▁చుండగా	-8319
▁చూడుము	-8320
▁చేతిలో	-8321
▁చేయుడి	-8322
▁చేయుదు	-8323
▁జలములు	-8324
▁జిల్పా	-8325
▁తామారు	-8326
▁తులముల	-8327
▁తెచ్చు	-8328
▁దాసుడు	-8329
▁దేవుడే	-8330
▁నీకేమి	-8331
▁నుండిన	-8332
▁పవిత్ర	-8333
▁పెనిమి	-8334
▁పేరుపె	-8335
▁ప్రకార	-8336
▁మాంసము	-8337
▁మాయెను	-8338
▁మిగిలి	-8339
▁యథార్థ	-8340
▁రాజును	-8341
▁రూకలను	-8342
▁వృద్ధా	-8343
▁వేరుగా	-8344
▁శ్మశాన	-8345
▁సాక్షి	-8346
▁సిరియా	-8347
▁స్వరూప	-8348
▁హామును	-8349
▁ಆಗಿದ್ದ	-8350
▁ಆಗಿರುವ	-8351
▁ಇಬ್ರಿಯ	-8352
▁ಒಬ್ಬನೇ	-8353
▁ಓಡಿಹೋದ	-8354
▁ಗಳನ್ನು	-8355
▁ಜಗಳವಾಡ	-8356
▁ತಂದೆಗಳ	-8357
▁ತಿಮ್ನಾ	-8358
▁ದೇವರಾದ	-8359
▁ಪ್ರಾಣಿ	-8360
▁ಬಲಿಷ್ಠ	-8361
▁ಬಾಸೆಮತ	-8362
▁ಮಂದೆಗಳ	-8363
▁ಮಕ್ಕಳಿ	-8364
▁ಮಾತಿಗೆ	-8365
▁ಮುನ್ನೂ	-8366
▁ಯೆಫೆತ್	-8367
▁ಶೆಲಹನು	-8368
▁ಸಂಪೂರ್	-8369
▁ಸೇವಕರು	-8370
▁ಹುಡುಗನ	-8371
▁ಹೂಣಿಡು	-8372
▁ಹೆಚ್ಚು	-8373
ండ్లవాడు	-8374
మీదనుండి	-8375
యున్నాడు	-8376
సికొనెను	-8377
ಕ್ಕೋಸ್ಕರ	-8378
ಗಳೊಂದಿಗೂ	-8379
ನಿಗೋಸ್ಕರ	-8380
ರಿಸುವೆನು	-8381
ವರೆಲ್ಲರೂ	-8382
ಿಯಾಗಿರುವ	-8383
▁bearing	-8384
▁defiled	-8385
▁entered	-8386
▁greater	-8387
▁greatly	-8388
▁hearken	-8389
▁inherit	-8390
▁require	-8391
▁seventy	-8392
▁thought	-8393
▁watered	-8394
▁whither	-8395
▁छड़ियों	-8396
▁जन्तुओं	-8397
▁तुम्हें	-8398
▁निमित्त	-8399
▁पहुंचकर	-8400
▁प्रसन्न	-8401
▁मतूशेलह	-8402
▁वस्तुओं	-8403
▁विश्राम	-8404
▁అంగలార్	-8405
▁అతనిమీద	-8406
▁అత్యధిక	-8407
▁ఆదామును	-8408
▁ఒంటెలను	-8409
▁కదొర్లా	-8410
▁కన్నులు	-8411
▁కలుగును	-8412
▁కొనబడిన	-8413
▁నక్షత్ర	-8414
▁నివసింప	-8415
▁న్యాయము	-8416
▁పక్షులు	-8417
▁పిలువగా	-8418
▁పొందెను	-8419
▁బంగారము	-8420
▁భారముగా	-8421
▁భార్యగా	-8422
▁మంచిదని	-8423
▁రగూయేలు	-8424
▁రెండేసి	-8425
▁లోపలికి	-8426
▁వివాహము	-8427
▁సిద్ధము	-8428
▁ಅಪ್ಪಣೆಯ	-8429
▁ಎಂಟುನೂರ	-8430
▁ಒಂಟೆಗಳು	-8431
▁ಕರೆಯಿಸಿ	-8432
▁ಕುರಿಗಳು	-8433
▁ಕುರಿಗಳೂ	-8434
▁ಕೆದೊರ್ಲ	-8435
▁ಕೊಲ್ಲುವ	-8436
▁ಗಳೆಲ್ಲಾ	-8437
▁ಜಾತಿಗನು	-8438
▁ತಿಳಿಸಿದ	-8439
▁ನಕ್ಷತ್ರ	-8440
▁ನನ್ನಿಂದ	-8441
▁ನೋಡುತ್ತ	-8442
▁ನೋಹನಿಗೆ	-8443
▁ಪಾಲನ್ನು	-8444
▁ಪೆಲೆಗನು	-8445
▁ಬಿಟ್ಟನು	-8446
▁ಮಗಳನ್ನು	-8447
▁ಮಮ್ರೆಗೆ	-8448
▁ಮಾಡುತ್ತ	-8449
▁ಮಾತನಾಡು	-8450
▁ಮುಗಿಸಿದ	-8451
▁ಯೌವನಸ್ಥ	-8452
▁ಲ್ಲಿರುವ	-8453
▁ಶೆಕೆಮನು	-8454
▁ಸಂತತಿಗೆ	-8455
▁ಸಾರಳಿಗೆ	-8456
▁ಸೇವಿಸುವ	-8457
▁ಹುಡುಗನು	-8458
▁ಹೆತ್ತಾಗ	-8459
▁ಹೆರುವದು	-8460
ರಿಗೊಬ್ಬರು	-8461
ಿಸಿಕೊಂಡನು	-8462
ಿಸಿದ್ದೇನೆ	-8463
▁communed	-8464
▁darkness	-8465
▁devoured	-8466
▁foreskin	-8467
▁kindness	-8468
▁shoulder	-8469
▁yielding	-8470
▁लड़कियों	-8471
▁ఏశావునకు	-8472
▁కనబడలేదు	-8473
▁కేయినాను	-8474
▁గాడిదలను	-8475
▁చేయుదును	-8476
▁జీవించిన	-8477
▁దృష్టికి	-8478
▁దేవునితో	-8479
▁నీకిచ్చు	-8480
▁నీతిమంతు	-8481
▁నేటివరకు	-8482
▁పుట్టెను	-8483
▁పురుషుడు	-8484
▁పెట్టిరి	-8485
▁ప్రభువైన	-8486
▁ప్రయాణము	-8487
▁భార్యలను	-8488
▁భూజంతువు	-8489
▁మూడువందల	-8490
▁యజమానుడు	-8491
▁లాబానుతో	-8492
▁సముద్రపు	-8493
▁సాష్టాంగ	-8494
▁స్థలమందు	-8495
▁ಅವುಗಳಿಗೆ	-8496
▁ಆಶೀರ್ವದಿ	-8497
▁ಉತ್ತಮವಾದ	-8498
▁ಒಹೊಲೀಬಾಮ	-8499
▁ಕಾಲದಲ್ಲಿ	-8500
▁ಕೊಡವನ್ನು	-8501
▁ಜನಾಂಗಗಳು	-8502
▁ನಮ್ಮಲ್ಲಿ	-8503
▁ಪಕ್ಷಿಗಳು	-8504
▁ಪಾತ್ರೆಯು	-8505
▁ಮನೆಯನ್ನು	-8506
▁ಮನೆಯೊಳಗೆ	-8507
▁ಮಾತನಾಡಿದ	-8508
▁ರೆಬೆಕ್ಕಳ	-8509
▁ಲೋಟನನ್ನು	-8510
▁ಸರ್ವಶಕ್ತ	-8511
▁ಸಹಿತವಾಗಿ	-8512
▁ಸುನ್ನತಿಯ	-8513
▁ಸೆರೆಮನೆಯ	-8514
▁ಸೇರಿಸಲ್ಪ	-8515
▁ಸ್ಥಳದಿಂದ	-8516
▁ಹೆಂಡತಿಯು	-8517
▁ಹೇಳಿದಂತೆ	-8518
▁ಹೋಗುವೆನು	-8519
ಕೊಳ್ಳುವೆನು	-8520
ತ್ತೊಂಭತ್ತು	-8521
ಿಯಾಗಿದ್ದನು	-8522
▁afterward	-8523
▁beginning	-8524
▁blessings	-8525
▁bracelets	-8526
▁certainly	-8527
▁delivered	-8528
▁destroyed	-8529
▁fulfilled	-8530
▁mandrakes	-8531
▁nakedness	-8532
▁sojourned	-8533
▁అనుకొనెను	-8534
▁ఓడలోనుండి	-8535
▁క్షేమముగా	-8536
▁చేసికొనిన	-8537
▁దాసుడగును	-8538
▁పరుగెత్తి	-8539
▁పాతిపెట్ట	-8540
▁పిలిపించి	-8541
▁మోసపుచ్చి	-8542
▁యోసేపునకు	-8543
▁రాకమునుపు	-8544
▁రెండువందల	-8545
▁వచ్చువరకు	-8546
▁సంతతివారు	-8547
▁సృజించెను	-8548
▁ಇಸಾಕನನ್ನು	-8549
▁ಕನಸಿನಲ್ಲಿ	-8550
▁ಕರ್ತನನ್ನು	-8551
▁ತ್ವರೆಯಾಗಿ	-8552
▁ನಾವೆಯೊಳಗೆ	-8553
▁ನಿಮ್ಮನ್ನು	-8554
▁ಪಶುಗಳನ್ನೂ	-8555
▁ಬಾವಿಯನ್ನು	-8556
▁ಭೂಮಿಯನ್ನೂ	-8557
▁ಮಾರ್ಗವಾಗಿ	-8558
▁ಮುದಿಪ್ರಾಯ	-8559
▁ಸಂತಾನಕ್ಕೂ	-8560
▁ಸ್ಥಳವನ್ನು	-8561
▁ಹೃದಯದಲ್ಲಿ	-8562
▁ಹೊರಟುಹೋಗಿ	-8563
▁Mahalaleel	-8564
▁Methuselah	-8565
▁threescore	-8566
▁whatsoever	-8567
▁गृहदेवताओं	-8568
▁అస్తమయమును	-8569
▁ఐగుప్తుదేశ	-8570
▁కోడండ్రును	-8571
▁నివసించిరి	-8572
▁పెట్టుకొని	-8573
▁బలిపీఠమును	-8574
▁భూమియందంతట	-8575
▁రెండేండ్లు	-8576
▁వచ్చితివిు	-8577
▁సంతానమునకు	-8578
▁సంవత్సరముల	-8579
▁సాగిలపడిరి	-8580
▁ಆಜ್ಞಾಪಿಸಿದ	-8581
▁ಐಗುಪ್ತ್ಯರು	-8582
▁ಕುಮಾರರನ್ನೂ	-8583
▁ಗರ್ಭಿಣಿಯಾದ	-8584
▁ದ್ರಾಕ್ಷಾರಸ	-8585
▁ನನ್ನೊಂದಿಗೆ	-8586
▁ಪ್ರಯಾಣಮಾಡಿ	-8587
▁ಫಿಲಿಷ್ಟಿಯರ	-8588
▁ಬಂದಿದ್ದೇವೆ	-8589
▁ಮಾಡಿದ್ದಾನೆ	-8590
▁ಮಾಡುವದಕ್ಕೆ	-8591
▁ಮುದ್ದಿಟ್ಟು	-8592
▁ಸಂತಾನವನ್ನು	-8593
▁ಸಹೋದರನನ್ನು	-8594
▁ಹೊರಟುಹೋದನು	-8595
ವುಗಳನ್ನೆಲ್ಲಾ	-8596
▁menservants	-8597
▁कदोर्लाओमेर	-8598
▁అతనియొద్దకు	-8599
▁కలిగినదంతయు	-8600
▁దేశమందంతటను	-8601
▁భక్ష్యకారుల	-8602
▁ಅಡ್ಡಬಿದ್ದರು	-8603
▁ಬಲಿಪೀಠವನ್ನು	-8604
▁ಬಳಿಯಲ್ಲಿದ್ದ	-8605
▁ಬೆನ್ಯಾವಿಾನನ	-8606
▁ಮನೆಯಲ್ಲಿದ್ದ	-8607
▁ರೊಟ್ಟಿಯನ್ನು	-8608
▁ರೊಟ್ಟಿಯನ್ನೂ	-8609
▁ಹುಡುಗಿಯನ್ನು	-8610
▁ಹೇಳಿದ್ದನ್ನು	-8611
▁Chedorlaomer	-8612
▁maidservants	-8613
▁सुगन्धद्रव्य	-8614
▁భూమిమీదనుండి	-8615
▁ಇಸ್ರಾಯೇಲನಿಗೆ	-8616
▁ತಪ್ಪಿಸಿಕೊಂಡು	-8617
▁ಒಬ್ಬರಿಗೊಬ್ಬರು	-8618
▁ಸೇರಿಸಲ್ಪಟ್ಟನು	-8619
▁ಹೆಂಡತಿಯಾಗಿರುವ	-8620
▁interpretation	-8621
▁ಕುಮಾರ್ತೆಯರನ್ನೂ	-8622
▁ದ್ರಾಕ್ಷಾರಸವನ್ನು	-8623
ai	-8624
ia	-8625
ue	-8626
ंत	-8627
ंप	-8628
ंह	-8629
कु	-8630
गट	-8631
गण	-8632
गल	-8633
दन	-8634
नज	-8635
षण	-8636
षी	-8637
सु	-8638
ार	-8639
्म	-8640
ంక	-8641
చన	-8642
జా	-8643
తన	-8644
ధూ	-8645
పై	-8646
మన	-8647
యవ	-8648
సం	-8649
ాయ	-8650
ృప	-8651
ోహ	-8652
ಗನ	-8653
ಫಲ	-8654
ಭವ	-8655
ರದ	-8656
ರನ	-8657
ಾಟ	-8658
ೇದ	-8659
ೌರ	-8660
▁,	-8661
▁ట	-8662
ady	-8663
ali	-8664
ela	-8665
ign	-8666
ims	-8667
irg	-8668
lah	-8669
lee	-8670
les	-8671
ode	-8672
uah	-8673
und	-8674
urt	-8675
van	-8676
ंठी	-8677
ंसा	-8678
छार	-8679
टने	-8680
ढ़े	-8681
दोन	-8682
बेल	-8683
म्म	-8684
रिस	-8685
रूग	-8686
रोई	-8687
लोन	-8688
ल्य	-8689
वार	-8690
ष्ठ	-8691
सेर	-8692
ूलो	-8693
्सा	-8694
కలు	-8695
గాధ	-8696
దాత	-8697
నలు	-8698
నుల	-8699
న్య	-8700
పరి	-8701
మాన	-8702
మార	-8703
లవె	-8704
ల్క	-8705
వతల	-8706
వలి	-8707
వలే	-8708
శ్య	-8709
సుక	-8710
ులై	-8711
ూలు	-8712
ూలూ	-8713
ేయు	-8714
్చి	-8715
్శా	-8716
ಂದಿ	-8717
ಅದರ	-8718
ಇದು	-8719
ಕಾದ	-8720
ಗನೂ	-8721
ಗೋಮ	-8722
ಜೀಯ	-8723
ತನೂ	-8724
ತಿದ	-8725
ತ್ವ	-8726
ಬಲಿ	-8727
ಮಾನ	-8728
ರಣೆ	-8729
ರಿತ	-8730
ರೂಪ	-8731
ರೆಯ	-8732
ರ್ಮ	-8733
ಲಾಯ	-8734
ಲೋಕ	-8735
ವದೂ	-8736
ವನದ	-8737
ವೆಯ	-8738
ವೇಶ	-8739
ಹೋಗ	-8740
ಾಡು	-8741
ಾಧದ	-8742
ಾಳು	-8743
ುವು	-8744
ೆಂಬ	-8745
ೆಯೋ	-8746
ೇಮಾ	-8747
ೈಸಿ	-8748
ೋತ್	-8749
ೋರಹ	-8750
್ವತ	-8751
▁By	-8752
▁Sp	-8753
▁cr	-8754
▁gh	-8755
▁ou	-8756
▁te	-8757
▁अन	-8758
▁आग	-8759
▁ऊन	-8760
▁ऊस	-8761
▁कल	-8762
▁गे	-8763
▁घु	-8764
▁झा	-8765
▁धु	-8766
▁धो	-8767
▁पद	-8768
▁बस	-8769
▁लग	-8770
▁लु	-8771
▁वी	-8772
▁शी	-8773
▁हद	-8774
▁हर	-8775
▁అవ	-8776
▁అస	-8777
▁ఆష	-8778
▁కౌ	-8779
▁గడ	-8780
▁గత	-8781
▁గై	-8782
▁ధన	-8783
▁నో	-8784
▁రొ	-8785
▁రో	-8786
▁శి	-8787
▁శీ	-8788
▁హద	-8789
▁హు	-8790
▁హె	-8791
▁ಆತ	-8792
▁ಎಣ	-8793
▁ಐದ	-8794
▁ಗದ	-8795
▁ಘನ	-8796
▁ಚದ	-8797
▁ಚೆ	-8798
▁ಜಯ	-8799
▁ದೋ	-8800
▁ಬು	-8801
▁ಮನ	-8802
▁ಯಳ	-8803
▁ಯು	-8804
▁ವೈ	-8805
abit	-8806
angu	-8807
ants	-8808
aved	-8809
edan	-8810
edge	-8811
erug	-8812
erve	-8813
fold	-8814
fort	-8815
held	-8816
ians	-8817
ious	-8818
ired	-8819
oint	-8820
read	-8821
rest	-8822
sach	-8823
ting	-8824
ubal	-8825
ulun	-8826
ंतीस	-8827
कर्म	-8828
च्छा	-8829
ताया	-8830
द्दी	-8831
द्धि	-8832
धारी	-8833
नकों	-8834
नारे	-8835
पिता	-8836
रागण	-8837
लम्ब	-8838
वधान	-8839
वाकर	-8840
वाते	-8841
वीला	-8842
ूलून	-8843
्रेम	-8844
ందము	-8845
ందుక	-8846
ఇతడు	-8847
గ్గి	-8848
తికి	-8849
తిరి	-8850
దిని	-8851
దుము	-8852
ధూరవ	-8853
నంపి	-8854
నాడు	-8855
పట్ట	-8856
పడని	-8857
పిల్	-8858
పురు	-8859
ప్యా	-8860
మంచి	-8861
మీది	-8862
ముతో	-8863
మేము	-8864
యయిన	-8865
యాను	-8866
రాసు	-8867
లారా	-8868
లుగవ	-8869
లుగె	-8870
లేదా	-8871
లేము	-8872
వంటి	-8873
వాను	-8874
వాసి	-8875
వులు	-8876
వేమి	-8877
షాను	-8878
షుడు	-8879
ష్టి	-8880
సెరు	-8881
ారపు	-8882
ిక్ష	-8883
ొంది	-8884
ోన్న	-8885
ಗೊಂಡ	-8886
ಗ್ರಹ	-8887
ಣಕಾಲ	-8888
ತ್ರು	-8889
ನೆಂಬ	-8890
ನ್ನತ	-8891
ಳೆಂಬ	-8892
ವಂತೆ	-8893
ವಿದೆ	-8894
ಹೊಂದ	-8895
ಾಮನು	-8896
ಾಮಿನ	-8897
ಾಮ್ಯ	-8898
ಿಸ್ತ	-8899
ೃಕ್ಷ	-8900
ೆಂದೂ	-8901
ೇಲ್ಯ	-8902
▁Gad	-8903
▁How	-8904
▁Job	-8905
▁Kad	-8906
▁Reu	-8907
▁bas	-8908
▁bed	-8909
▁cau	-8910
▁cry	-8911
▁dry	-8912
▁hid	-8913
▁lod	-8914
▁red	-8915
▁top	-8916
▁tra	-8917
▁vow	-8918
▁wag	-8919
▁wax	-8920
▁आयु	-8921
▁कूश	-8922
▁कोप	-8923
▁खाट	-8924
▁खेत	-8925
▁गाद	-8926
▁चुप	-8927
▁तीर	-8928
▁तेल	-8929
▁थीं	-8930
▁दशा	-8931
▁दीं	-8932
▁देव	-8933
▁नील	-8934
▁पक्	-8935
▁पार	-8936
▁फले	-8937
▁फलो	-8938
▁बंट	-8939
▁बसे	-8940
▁बहा	-8941
▁बहू	-8942
▁बोल	-8943
▁भरे	-8944
▁भले	-8945
▁मेल	-8946
▁राज	-8947
▁लूट	-8948
▁लें	-8949
▁विध	-8950
▁शूर	-8951
▁सच्	-8952
▁हरी	-8953
▁हरे	-8954
▁అద్	-8955
▁అరా	-8956
▁అల్	-8957
▁ఆయా	-8958
▁ఇటు	-8959
▁ఇవే	-8960
▁ఊరు	-8961
▁ఏరు	-8962
▁కల్	-8963
▁కృప	-8964
▁చేర	-8965
▁జెబ	-8966
▁తరు	-8967
▁తేమ	-8968
▁తొల	-8969
▁దిగ	-8970
▁ద్వ	-8971
▁నని	-8972
▁నము	-8973
▁నవ్	-8974
▁నామ	-8975
▁నెర	-8976
▁పరా	-8977
▁పీఠ	-8978
▁పోష	-8979
▁బోయ	-8980
▁భార	-8981
▁మంత	-8982
▁మడి	-8983
▁మాన	-8984
▁మిం	-8985
▁మృగ	-8986
▁మేఘ	-8987
▁యేడ	-8988
▁లోక	-8989
▁వాం	-8990
▁వాట	-8991
▁వాత	-8992
▁విశ	-8993
▁వీర	-8994
▁శకు	-8995
▁షీన	-8996
▁షేబ	-8997
▁సహా	-8998
▁హవీ	-8999
▁ಅದ್	-9000
▁ಅನು	-9001
▁ಅವಲ	-9002
▁ಆತ್	-9003
▁ಆಯು	-9004
▁ಆಶೇ	-9005
▁ಇದು	-9006
▁ಎಷ್	-9007
▁ಕರು	-9008
▁ಕಾದ	-9009
▁ಕೂಗ	-9010
▁ಕೇನ	-9011
▁ಕೋಲ	-9012
▁ಕ್ರ	-9013
▁ಜೆಬ	-9014
▁ತಾರ	-9015
▁ದ್ರ	-9016
▁ನಿರ	-9017
▁ಪೋಷ	-9018
▁ಬಿಡ	-9019
▁ಬೇಡ	-9020
▁ಮಗಳ	-9021
▁ಮಹಾ	-9022
▁ಮಹೋ	-9023
▁ಮೇಘ	-9024
▁ಯಾಜ	-9025
▁ಯೋಬ	-9026
▁ಶಾಪ	-9027
▁ಶಾಶ	-9028
▁ಸಫಲ	-9029
▁ಸಾಲ	-9030
▁ಸಿಂ	-9031
▁ಸೇತ	-9032
▁ಹಗಲ	-9033
▁ಹೊಡ	-9034
anted	-9035
antly	-9036
ience	-9037
ilead	-9038
vilah	-9039
woman	-9040
येंगे	-9041
लियों	-9042
षियों	-9043
हत्तर	-9044
्राता	-9045
కొనగా	-9046
చారము	-9047
చెప్ప	-9048
తునకు	-9049
త్తిక	-9050
ద్దరి	-9051
నములో	-9052
నుండు	-9053
నొద్ద	-9054
మంతయు	-9055
మానము	-9056
మీదను	-9057
యైనను	-9058
ర్పము	-9059
వాడవు	-9060
వారని	-9061
సెదను	-9062
స్థుల	-9063
ించుట	-9064
ూలూను	-9065
ొద్దు	-9066
్రాతా	-9067
్రాను	-9068
ಂತೆಯೂ	-9069
ಕೊಂಡಿ	-9070
ಗೊಂಡು	-9071
ಡುವವು	-9072
ಬಾರದೆ	-9073
ಯಾಕೋಬ	-9074
ಯೋಸೇಫ	-9075
ಯ್ಯುವ	-9076
ರಿಸಲಿ	-9077
ರುವದು	-9078
ವಂದರೆ	-9079
ವೇಲನು	-9080
ಿಗೆಯೂ	-9081
ಿಟ್ಟು	-9082
ಿತ್ತು	-9083
ೊಬ್ಬನ	-9084
▁Bela	-9085
▁Send	-9086
▁With	-9087
▁bord	-9088
▁doub	-9089
▁fain	-9090
▁flee	-9091
▁hard	-9092
▁heir	-9093
▁hire	-9094
▁host	-9095
▁hurt	-9096
▁kept	-9097
▁lean	-9098
▁long	-9099
▁mock	-9100
▁most	-9101
▁noth	-9102
▁part	-9103
▁prov	-9104
▁rain	-9105
▁rams	-9106
▁rece	-9107
▁rent	-9108
▁rich	-9109
▁save	-9110
▁sear	-9111
▁self	-9112
▁shea	-9113
▁shek	-9114
▁turn	-9115
▁vale	-9116
▁wast	-9117
▁wise	-9118
▁work	-9119
▁अप्र	-9120
▁आएगा	-9121
▁आशेर	-9122
▁इतना	-9123
▁ऊंचे	-9124
▁एमोर	-9125
▁कछार	-9126
▁करती	-9127
▁कहूं	-9128
▁कुआं	-9129
▁कोरह	-9130
▁खेती	-9131
▁खोदा	-9132
▁घड़े	-9133
▁चरने	-9134
▁चारा	-9135
▁छिपा	-9136
▁जाती	-9137
▁जेठे	-9138
▁टोकर	-9139
▁डंठी	-9140
▁तोड़	-9141
▁दासी	-9142
▁निगल	-9143
▁पड़ी	-9144
▁पराए	-9145
▁पिया	-9146
▁पीने	-9147
▁पोषण	-9148
▁फाड़	-9149
▁फूलो	-9150
▁फैला	-9151
▁बांज	-9152
▁बादल	-9153
▁बालक	-9154
▁बिता	-9155
▁बुरे	-9156
▁भलाई	-9157
▁याजक	-9158
▁रहना	-9159
▁रूपा	-9160
▁लेके	-9161
▁लौटा	-9162
▁व्या	-9163
▁समझा	-9164
▁सरूग	-9165
▁सहाय	-9166
▁सेना	-9167
▁सोना	-9168
▁होरी	-9169
▁అడుగ	-9170
▁అప్ప	-9171
▁ఆజ్ఞ	-9172
▁ఆరంభ	-9173
▁ఇంటి	-9174
▁ఇతడు	-9175
▁ఎల్ల	-9176
▁కప్ప	-9177
▁కలను	-9178
▁కాపా	-9179
▁కూషు	-9180
▁కొంత	-9181
▁గిలా	-9182
▁చాలా	-9183
▁చెదర	-9184
▁జరిగ	-9185
▁తడవి	-9186
▁తడవు	-9187
▁తమకు	-9188
▁తలను	-9189
▁దిగు	-9190
▁దీనా	-9191
▁దూరమ	-9192
▁దొరక	-9193
▁నఫ్త	-9194
▁నేనా	-9195
▁నేని	-9196
▁పంటప	-9197
▁పారు	-9198
▁పూర్	-9199
▁పొర్	-9200
▁పోగా	-9201
▁ఫరోయ	-9202
▁భర్త	-9203
▁మంతు	-9204
▁మనకు	-9205
▁మనలో	-9206
▁మారు	-9207
▁మీలో	-9208
▁ముగా	-9209
▁మూరల	-9210
▁యేడవ	-9211
▁యొర్	-9212
▁రింప	-9213
▁రును	-9214
▁రూకల	-9215
▁లేని	-9216
▁లేరు	-9217
▁వంతు	-9218
▁విడు	-9219
▁వివర	-9220
▁వీని	-9221
▁వీరి	-9222
▁వ్యయ	-9223
▁శ్రమ	-9224
▁శ్రే	-9225
▁షేలా	-9226
▁సంభవ	-9227
▁సత్య	-9228
▁సమాధ	-9229
▁సమూహ	-9230
▁సాగి	-9231
▁సెరూ	-9232
▁ಅನ್ಯ	-9233
▁ಅವನೇ	-9234
▁ಆಗಲಿ	-9235
▁ಇಡುವ	-9236
▁ಇಸ್ಸ	-9237
▁ಉಗ್ರ	-9238
▁ಉಳ್ಳ	-9239
▁ಒಳಗೆ	-9240
▁ಕದ್ದ	-9241
▁ಕುಡಿ	-9242
▁ಕುಮಾ	-9243
▁ಕೈಗಳ	-9244
▁ಕೈಚಾ	-9245
▁ಕೊಂದ	-9246
▁ಕೋರಹ	-9247
▁ತಾನೇ	-9248
▁ತೇಮಾ	-9249
▁ತೊಂಭ	-9250
▁ದರ್ಶ	-9251
▁ದಾಸಿ	-9252
▁ನಕ್ಕ	-9253
▁ಪಕ್ಕ	-9254
▁ಪಡೆಯ	-9255
▁ಪೆರೆ	-9256
▁ಬಂಡಿ	-9257
▁ಬಲಗೈ	-9258
▁ಬಲ್ಲ	-9259
▁ಬಾವಿ	-9260
▁ಬೆತೂ	-9261
▁ಬೇಕು	-9262
▁ಭಯಪಡ	-9263
▁ಮಂಚದ	-9264
▁ಮುಸು	-9265
▁ಮೊಲೆ	-9266
▁ಮೊಳೆ	-9267
▁ರೇಖೆ	-9268
▁ಲೋಟನ	-9269
▁ವ್ಯಥ	-9270
▁ಸಂಗಮ	-9271
▁ಸರಿಯ	-9272
▁ಸಿವು	-9273
▁ಸೌಂದ	-9274
▁ಹನೋಕ	-9275
▁ಹವೀಲ	-9276
▁ಹಾದು	-9277
▁ಹಿರೀ	-9278
▁ಹೌದು	-9279
enance	-9280
forted	-9281
icians	-9282
rained	-9283
rength	-9284
sachar	-9285
प्ताली	-9286
प्रधान	-9287
्साकार	-9288
ంటినని	-9289
కిచ్చి	-9290
కొనుడి	-9291
కొనుము	-9292
చుకొని	-9293
చేతిని	-9294
చేయును	-9295
చేసికొ	-9296
చోటికి	-9297
చ్చును	-9298
టనున్న	-9299
దేమనగా	-9300
పరచెను	-9301
ప్యాంగ	-9302
ఫలములు	-9303
మందిని	-9304
మిచ్చు	-9305
ములును	-9306
యుండగా	-9307
స్థులు	-9308
ారమును	-9309
ినందున	-9310
ినయెడల	-9311
ీయులకు	-9312
ెననియు	-9313
ోన్నతు	-9314
ಕೊಟ್ಟು	-9315
ಗಳುಳ್ಳ	-9316
ತನದಿಂದ	-9317
ದರಲ್ಲಿ	-9318
ಮನುಷ್ಯ	-9319
ರಿನಿಂದ	-9320
ಲ್ಲಿಯೇ	-9321
ವದಿಲ್ಲ	-9322
ಹಾಗಲ್ಲ	-9323
ಾತ್ಕಾರ	-9324
ಾನೆಂದು	-9325
ಿಯಲ್ಲಾ	-9326
ೆನೆಂದು	-9327
ೊಬ್ಬನೇ	-9328
▁Asher	-9329
▁Bless	-9330
▁Korah	-9331
▁Lotan	-9332
▁Serug	-9333
▁Teman	-9334
▁Zerah	-9335
▁abide	-9336
▁abund	-9337
▁alone	-9338
▁awoke	-9339
▁brown	-9340
▁built	-9341
▁clear	-9342
▁cloud	-9343
▁domin	-9344
▁drank	-9345
▁elder	-9346
▁embal	-9347
▁faces	-9348
▁fount	-9349
▁ghost	-9350
▁goeth	-9351
▁hence	-9352
▁lambs	-9353
▁langu	-9354
▁mercy	-9355
▁needs	-9356
▁ought	-9357
▁power	-9358
▁prove	-9359
▁ready	-9360
▁repro	-9361
▁tarry	-9362
▁token	-9363
▁trade	-9364
▁truly	-9365
▁worsh	-9366
▁wrest	-9367
▁इच्छा	-9368
▁कुलों	-9369
▁क्रोध	-9370
▁खम्भे	-9371
▁गिरके	-9372
▁जितनी	-9373
▁ढूंढ़	-9374
▁तुच्छ	-9375
▁तेमान	-9376
▁थोड़ी	-9377
▁थोड़े	-9378
▁दीशोन	-9379
▁देशों	-9380
▁धब्बे	-9381
▁निदान	-9382
▁पड़ता	-9383
▁पाओगे	-9384
▁प्रगट	-9385
▁प्रेम	-9386
▁बनाने	-9387
▁बन्धु	-9388
▁बीतने	-9389
▁बैलों	-9390
▁महानद	-9391
▁लड़की	-9392
▁लोतान	-9393
▁लौटकर	-9394
▁वारिस	-9395
▁शापित	-9396
▁शिनार	-9397
▁हवीला	-9398
▁అనియు	-9399
▁అయిదవ	-9400
▁ఆమెకు	-9401
▁ఆయననీ	-9402
▁ఆషేరు	-9403
▁ఇశ్శా	-9404
▁ఊరికి	-9405
▁ఏలోను	-9406
▁కడుపు	-9407
▁కనుగొ	-9408
▁కానుక	-9409
▁కావలి	-9410
▁కొనిన	-9411
▁కోరహు	-9412
▁గాకని	-9413
▁చేతుల	-9414
▁తన్ను	-9415
▁తలుపు	-9416
▁దూతలు	-9417
▁నడుచు	-9418
▁ననెను	-9419
▁నాచేత	-9420
▁నిద్ర	-9421
▁నిర్మ	-9422
▁పంపిన	-9423
▁పట్టు	-9424
▁పడుచు	-9425
▁పదియవ	-9426
▁పీలవె	-9427
▁ఫరోను	-9428
▁బడును	-9429
▁బడెను	-9430
▁బలాత్	-9431
▁బహుగా	-9432
▁భాగము	-9433
▁భుజము	-9434
▁మూలము	-9435
▁మొలిప	-9436
▁యెవరి	-9437
▁యేలిన	-9438
▁రాజ్య	-9439
▁లోయలో	-9440
▁వలెను	-9441
▁వారసు	-9442
▁వికార	-9443
▁వేగుల	-9444
▁వేశ్య	-9445
▁ಅಗಾಧದ	-9446
▁ಆದರಣೆ	-9447
▁ಎತ್ತಿ	-9448
▁ಎದುರು	-9449
▁ಎಫ್ರಾ	-9450
▁ಎಲೀಫಜ	-9451
▁ಏದೆನ್	-9452
▁ಏಳನೆಯ	-9453
▁ಐದನೆಯ	-9454
▁ಕಂಡನು	-9455
▁ಕತ್ತಲ	-9456
▁ಕತ್ತಿ	-9457
▁ಕಲ್ಲು	-9458
▁ಕೊಂಬೆ	-9459
▁ಖಂಡಿತ	-9460
▁ಗವಿಯೂ	-9461
▁ಗಿಲ್ಯ	-9462
▁ಜೀವನದ	-9463
▁ತಾಮಾರ	-9464
▁ತುಂಡು	-9465
▁ದಿಲ್ಲ	-9466
▁ದುಃಖಪ	-9467
▁ದೇವದೂ	-9468
▁ನಡುವೆ	-9469
▁ನಡೆದು	-9470
▁ನೆಂದು	-9471
▁ಪುಷ್ಟ	-9472
▁ಪ್ರಬಲ	-9473
▁ಪ್ರಾಯ	-9474
▁ಬಂದಳು	-9475
▁ಬಣ್ಣದ	-9476
▁ಬದಲಾಯ	-9477
▁ಬಾರದು	-9478
▁ಬಿತ್ತ	-9479
▁ಬಿಲ್ಲ	-9480
▁ಬೆಳಕು	-9481
▁ಬೇಕಾದ	-9482
▁ಮಗುವು	-9483
▁ಮಧ್ಯೆ	-9484
▁ಮಾಡಲಿ	-9485
▁ಮೂವರು	-9486
▁ಮೊಮ್ಮ	-9487
▁ಯನ್ನೂ	-9488
▁ರುವದು	-9489
▁ವನ್ನೂ	-9490
▁ವರಿಗೂ	-9491
▁ವಿಸ್ತ	-9492
▁ವ್ಯಸನ	-9493
▁ಶುದ್ಧ	-9494
▁ಸಂತೋಷ	-9495
▁ಸಾಯದೆ	-9496
▁ಸಾರಯಳ	-9497
▁ಸೇವಕರ	-9498
▁ಸ್ಥಿರ	-9499
▁ಹೊಲವೂ	-9500
▁ಹೋದಾಗ	-9501
eelites	-9502
చొప్పున	-9503
ద్దరిని	-9504
పిల్లను	-9505
మంతటిని	-9506
ಕೊಳ್ಳಲಿ	-9507
ತ್ತೆರಡು	-9508
ದರಿಂದಲೂ	-9509
ದ್ದೆಲ್ಲ	-9510
ನನ್ನಾಗಿ	-9511
ನಾಗಿರಲಿ	-9512
ಮಾಡುವನು	-9513
ರಾಗಿದ್ದ	-9514
ರಿಸುವನು	-9515
ಲ್ಲಾಮ್ಯ	-9516
ಾಗಲಿಲ್ಲ	-9517
ಾಗಿರುವಿ	-9518
ಿದ್ದೆನು	-9519
ಿಯರನ್ನೂ	-9520
ಿರಲಿಲ್ಲ	-9521
ಿಸಿದ್ದೀ	-9522
ಿಸಿದ್ದೇ	-9523
್ನದಲ್ಲಿ	-9524
▁Dishon	-9525
▁Gilead	-9526
▁Shinar	-9527
▁angels	-9528
▁basket	-9529
▁caused	-9530
▁concub	-9531
▁consum	-9532
▁contin	-9533
▁cubits	-9534
▁dreams	-9535
▁eldest	-9536
▁hollow	-9537
▁kindly	-9538
▁plenty	-9539
▁spread	-9540
▁wagons	-9541
▁whence	-9542
▁उपद्रव	-9543
▁किनकों	-9544
▁किनारे	-9545
▁कुकर्म	-9546
▁जबूलून	-9547
▁ठहरेगा	-9548
▁तारागण	-9549
▁दाखलता	-9550
▁निकाली	-9551
▁पाएंगे	-9552
▁बुद्धि	-9553
▁मण्डली	-9554
▁लिपटकर	-9555
▁विलम्ब	-9556
▁सच्चाई	-9557
▁समाप्त	-9558
▁सातवें	-9559
▁सावधान	-9560
▁सेवकों	-9561
▁అడిగిన	-9562
▁ఆకాశపు	-9563
▁ఆలాగున	-9564
▁ఇద్దరు	-9565
▁ఒకనితో	-9566
▁కన్నుల	-9567
▁కిచ్చి	-9568
▁కుత్తర	-9569
▁గుంటలో	-9570
▁చక్కని	-9571
▁చేతులు	-9572
▁జరిగిన	-9573
▁తీర్పు	-9574
▁తుడిచి	-9575
▁త్రాగి	-9576
▁దిషోను	-9577
▁ద్రవ్య	-9578
▁నందుకు	-9579
▁నడుగగా	-9580
▁నరులను	-9581
▁నుండగా	-9582
▁పుట్టి	-9583
▁పేరులు	-9584
▁పొట్టే	-9585
▁పొమ్ము	-9586
▁ప్రవాహ	-9587
▁బలిసిన	-9588
▁మీదికి	-9589
▁మునుపు	-9590
▁ముసలిత	-9591
▁మేమును	-9592
▁యుండుట	-9593
▁రాజులు	-9594
▁లేయాను	-9595
▁లోతాను	-9596
▁వంశముల	-9597
▁వారును	-9598
▁వినుడి	-9599
▁వినుము	-9600
▁వెలుగు	-9601
▁షీనారు	-9602
▁స్వరము	-9603
▁ಆಹಾರವು	-9604
▁ಇದ್ದರೆ	-9605
▁ಇನ್ನೂರ	-9606
▁ಇಲ್ಲವೋ	-9607
▁ಇವರಿಂದ	-9608
▁ಉಳಿಸುವ	-9609
▁ಎಲ್ಲಾದ	-9610
▁ಕುಡಿಸಿ	-9611
▁ಕೇಳಿರಿ	-9612
▁ಕೊಡಿರಿ	-9613
▁ಗುಡಾರದ	-9614
▁ಗುರುತು	-9615
▁ಚಲಿಸುವ	-9616
▁ತಂದೆಯೇ	-9617
▁ದಹನಬಲಿ	-9618
▁ದಾಸದಾಸ	-9619
▁ದೊರಕಲಿ	-9620
▁ನನಗಾಗಿ	-9621
▁ನಾನೂರು	-9622
▁ನಾಹೋರನ	-9623
▁ನಿವಾಸಿ	-9624
▁ಪ್ರತಿದ	-9625
▁ಪ್ರವೇಶ	-9626
▁ಬದುಕಿದ	-9627
▁ಬಿದ್ದು	-9628
▁ಬಿಲ್ಹಳ	-9629
▁ಬೇತೇಲ್	-9630
▁ಮಕ್ಕಳೂ	-9631
▁ಮಮ್ರೆಯ	-9632
▁ಮೈದಾನದ	-9633
▁ಮೊಣಕಾಲ	-9634
▁ಯಥಾರ್ಥ	-9635
▁ಯೆಹೂದನ	-9636
▁ವದನ್ನು	-9637
▁ವಿಶ್ರಮ	-9638
▁ಶಾಶ್ವತ	-9639
▁ಸತ್ತಳು	-9640
▁ಸಹೋದರಿ	-9641
▁ಸಾಮಾನು	-9642
▁ಹೆಗಲಿನ	-9643
▁ಹೆಚ್ಚಿ	-9644
▁ಹೇಳಿರಿ	-9645
▁ಹೋಯಿತು	-9646
ందరికిని	-9647
కూడనున్న	-9648
పురుషుడు	-9649
ప్పుకొని	-9650
ప్రకారము	-9651
మిచ్చెను	-9652
లలోనుండి	-9653
లుగెత్తి	-9654
ెననుకొని	-9655
ಕ್ಕಾಗಿಯೂ	-9656
ಗಡೆಯಲ್ಲಿ	-9657
ದಾಗಿತ್ತು	-9658
ದ್ದರಲ್ಲಿ	-9659
ನನ್ನನ್ನು	-9660
ಬಾರದೆಂದು	-9661
ಮಾಡುವೆನು	-9662
ರಿಗಳನ್ನು	-9663
ರಿಗಾಗಿಯೂ	-9664
ಲ್ಪಟ್ಟವು	-9665
ಳಿಗೋಸ್ಕರ	-9666
ಾಗಿದ್ದರು	-9667
ಿಗೆಯನ್ನು	-9668
ಿಸುವದಕ್ಕ	-9669
▁Ephrath	-9670
▁Havilah	-9671
▁Zebulun	-9672
▁carried	-9673
▁charged	-9674
▁clothes	-9675
▁comfort	-9676
▁dwelled	-9677
▁earring	-9678
▁grieved	-9679
▁herself	-9680
▁inhabit	-9681
▁nothing	-9682
▁offered	-9683
▁pleased	-9684
▁pursued	-9685
▁restore	-9686
▁scatter	-9687
▁seventh	-9688
▁shepher	-9689
▁steward	-9690
▁thyself	-9691
▁अन्धिया	-9692
▁अश्शूर्	-9693
▁उजियाले	-9694
▁एप्राता	-9695
▁क्योंकर	-9696
▁ठहरूंगा	-9697
▁तम्बुओं	-9698
▁दासियां	-9699
▁देवताओं	-9700
▁नप्ताली	-9701
▁पंचमांश	-9702
▁बान्धता	-9703
▁मूलपिता	-9704
▁हेब्रोन	-9705
▁అక్కడనే	-9706
▁అనుగ్రహ	-9707
▁అన్నయైన	-9708
▁అష్షూరు	-9709
▁ఆశీర్వా	-9710
▁ఉండకుండ	-9711
▁ఉన్నాడా	-9712
▁ఎఫ్రాతా	-9713
▁ఎఫ్రాయి	-9714
▁ఏశావుతో	-9715
▁కనానులో	-9716
▁కయీనును	-9717
▁కాలమందు	-9718
▁కొండమీద	-9719
▁కొనుటకు	-9720
▁గతించిన	-9721
▁గోనెలలో	-9722
▁చూపునకు	-9723
▁చేతులను	-9724
▁చేతులలో	-9725
▁చేయబోవు	-9726
▁చేయుమని	-9727
▁చేసికొన	-9728
▁చేసినది	-9729
▁చేసెదను	-9730
▁జలములను	-9731
▁జీవరాసు	-9732
▁తీసికొన	-9733
▁తూర్పున	-9734
▁తెలుపగల	-9735
▁దాసుడైన	-9736
▁దించెను	-9737
▁దినమందు	-9738
▁దినమందే	-9739
▁ద్వారము	-9740
▁నఫ్తాలి	-9741
▁నిలిచిన	-9742
▁నీతోకూడ	-9743
▁నీయొద్ద	-9744
▁పారిపోయ	-9745
▁బంధువుల	-9746
▁బాశెమతు	-9747
▁భావమును	-9748
▁మాయొద్ద	-9749
▁ముఖములు	-9750
▁యుందురు	-9751
▁రావలసిన	-9752
▁వాటన్ని	-9753
▁వీరందరు	-9754
▁వెండితో	-9755
▁సంపూర్ణ	-9756
▁సింధూరవ	-9757
▁సేవకుడు	-9758
▁ಅಧಿಪತಿಯ	-9759
▁ಇದ್ದಾರೆ	-9760
▁ಇವರನ್ನು	-9761
▁ಉಗ್ರಾಣಿ	-9762
▁ಓಡಿಹೋಗಿ	-9763
▁ಕಟ್ಟಿಗೆ	-9764
▁ಕೆಟ್ಟದರ	-9765
▁ಕೊಯ್ಯುವ	-9766
▁ಗೊಮೋರಗಳ	-9767
▁ತಪ್ಪಿಸಿ	-9768
▁ದನಕಾಯುವ	-9769
▁ದಾಸನಿಗೆ	-9770
▁ದೇಶಕ್ಕೂ	-9771
▁ದೊಡ್ಡವನ	-9772
▁ನಾಗಿದ್ದ	-9773
▁ನಾಶಮಾಡು	-9774
▁ನಾಹೋರನು	-9775
▁ನೀರುಗಳು	-9776
▁ನ್ಯಾಯತೀ	-9777
▁ಪಾನದಾಯಕ	-9778
▁ಬಾಯಲ್ಲಿ	-9779
▁ಭಯಪಟ್ಟು	-9780
▁ಮಕ್ಕಳಾದ	-9781
▁ಮನೆಯವರೂ	-9782
▁ಮಹೋನ್ನತ	-9783
▁ಮಾತುಗಳು	-9784
▁ಮಾರಿದನು	-9785
▁ಮಿಲ್ಕಳು	-9786
▁ಮುಂದಾಗಿ	-9787
▁ಮುದುರಿದ	-9788
▁ಯಜ್ಞವೇದ	-9789
▁ರೆಗೂವನು	-9790
▁ವಾಗಿರುವ	-9791
▁ವಾಸಿಸುವ	-9792
▁ಸಂತತಿಯು	-9793
▁ಸಂಪೂರ್ಣ	-9794
▁ಸಮಾಧಿಗೆ	-9795
▁ಸಹೋದರರೂ	-9796
▁ಸಾಯುತ್ತ	-9797
▁ಸೆರೂಗನು	-9798
▁ಹಾಗಾದರೆ	-9799
▁ಹೂಣಿಡುವ	-9800
▁ಹೇಳಬೇಕು	-9801
▁ಹೇಳಿದಳು	-9802
వారెవరును	-9803
ಗಳಿಗೋಸ್ಕರ	-9804
ಣ್ಣೆಯನ್ನು	-9805
ನಾಗಿದ್ದನು	-9806
ರೆಲ್ಲರಿಗೆ	-9807
ಿನಲ್ಲಿರುವ	-9808
▁Issachar	-9809
▁Naphtali	-9810
▁dominion	-9811
▁fountain	-9812
▁garments	-9813
▁language	-9814
▁preserve	-9815
▁remember	-9816
▁restored	-9817
▁searched	-9818
▁strength	-9819
▁withheld	-9820
▁इस्साकार	-9821
▁एमोरियों	-9822
▁गाड़ियों	-9823
▁चित्कबरी	-9824
▁चिल्लाकर	-9825
▁पत्नियों	-9826
▁అతడునేను	-9827
▁అతనితోనీ	-9828
▁ఇట్లనెను	-9829
▁ఇశ్రాయేల	-9830
▁కట్టించి	-9831
▁కనానీయుల	-9832
▁కలిగినది	-9833
▁గొఱ్ఱలకు	-9834
▁గోప్యాంగ	-9835
▁చేసితిని	-9836
▁చేసెదనని	-9837
▁జెబూలూను	-9838
▁తండ్రియు	-9839
▁తెలియును	-9840
▁దిగిపోయి	-9841
▁దొరకలేదు	-9842
▁దొరికెను	-9843
▁నేనామెను	-9844
▁నేలనుండి	-9845
▁పుట్టిరి	-9846
▁పుత్రదాత	-9847
▁ప్రొద్దు	-9848
▁భయపడకుము	-9849
▁యాపెతును	-9850
▁యేడ్చెను	-9851
▁యొర్దాను	-9852
▁లెక్కింప	-9853
▁వచ్చుటకు	-9854
▁వచ్చెదను	-9855
▁వస్త్రము	-9856
▁విడిచెను	-9857
▁వివరించి	-9858
▁వృద్ధుడై	-9859
▁వెళ్లుము	-9860
▁వేసికొని	-9861
▁సమస్తమైన	-9862
▁సేవకుడైన	-9863
▁స్త్రీతో	-9864
▁స్త్రీని	-9865
▁స్థలమును	-9866
▁ಆಗಿದ್ದನು	-9867
▁ಆದಾಮನಿಗೆ	-9868
▁ಇಸ್ಸಾಕಾರ	-9869
▁ಎಪ್ಪತ್ತು	-9870
▁ಎಫ್ರೋನನು	-9871
▁ಏರಿಹೋದನು	-9872
▁ಒಡಂಬಡಿಕೆ	-9873
▁ಓಡಿಹೋದನು	-9874
▁ಔತಣವನ್ನು	-9875
▁ಕಟ್ಟಿದನು	-9876
▁ಕುಟುಂಬಗಳ	-9877
▁ಕೊಳ್ಳಿರಿ	-9878
▁ಚೀಲದಲ್ಲಿ	-9879
▁ಜೀವದಲ್ಲಿ	-9880
▁ತನ್ನನ್ನು	-9881
▁ತಲೆಯನ್ನು	-9882
▁ತಿನ್ನುವಿ	-9883
▁ತಿಳಿದಿದೆ	-9884
▁ದನಗಳನ್ನೂ	-9885
▁ದಲ್ಲಿರುವ	-9886
▁ದೀನಳನ್ನು	-9887
▁ದುಃಖದಿಂದ	-9888
▁ನನಗೋಸ್ಕರ	-9889
▁ನೋಡುವೆನು	-9890
▁ಪ್ರಕಾರವೇ	-9891
▁ಪ್ರತ್ಯೇಕ	-9892
▁ಪ್ರಳಯವಾದ	-9893
▁ಬಲಾತ್ಕಾರ	-9894
▁ಬಾಗಲನ್ನು	-9895
▁ಬೇತೇಲಿಗೆ	-9896
▁ಮಕ್ಕಳಿಂದ	-9897
▁ಮತ್ತೊಂದು	-9898
▁ಮರಿಯನ್ನು	-9899
▁ಮಾಡಿದ್ದೀ	-9900
▁ಮಾಡಿದ್ದು	-9901
▁ಯಾವವಂದರೆ	-9902
▁ಯೊರ್ದನಿನ	-9903
▁ವಿಷಯವಾಗಿ	-9904
▁ಸಾರಳನ್ನು	-9905
▁ಸಿಕ್ಕಾರು	-9906
▁ಸಿಕ್ಕಿತು	-9907
▁ಸಿಬೆಯೋನನ	-9908
▁ಸ್ತ್ರೀಗೆ	-9909
▁ಹೆಂಡತಿಯೂ	-9910
▁ಹೆಚ್ಚಾಗಿ	-9911
▁ಹೆಬ್ರೋನ್	-9912
▁ಹೋಗಬಾರದು	-9913
ಕೊಂಡಿದ್ದನು	-9914
ನಿಶ್ಚಯವಾಗಿ	-9915
ಿಸಲ್ಪಟ್ಟರು	-9916
▁appointed	-9917
▁bondwoman	-9918
▁comforted	-9919
▁countries	-9920
▁increased	-9921
▁mountains	-9922
▁provender	-9923
▁seventeen	-9924
▁shouldest	-9925
▁धब्बेवाले	-9926
▁परमप्रधान	-9927
▁बालबच्चों	-9928
▁అర్పక్షదు	-9929
▁అహొలీబామా	-9930
▁ఇస్సాకుతో	-9931
▁ఒంటెలకును	-9932
▁ఓడలోనున్న	-9933
▁కుమారులకు	-9934
▁కూర్చుండి	-9935
▁చేతికప్పగ	-9936
▁తోడైయుండి	-9937
▁ద్రాక్షావ	-9938
▁ధాన్యమును	-9939
▁నియమించిన	-9940
▁నివసించిన	-9941
▁పట్టణమును	-9942
▁పట్టణములో	-9943
▁పెట్టుమని	-9944
▁బేతేలునకు	-9945
▁భార్యయయిన	-9946
▁మధ్యనున్న	-9947
▁మృతిబొంది	-9948
▁యజమానుడగు	-9949
▁యైదేండ్లు	-9950
▁వృద్ధాప్య	-9951
▁వేయించెను	-9952
▁శయనించెను	-9953
▁సమస్తమును	-9954
▁సిద్ధపరచి	-9955
▁సేద్యపరచు	-9956
▁ಅಂಗಿಯನ್ನು	-9957
▁ಅಂದುಕೊಂಡು	-9958
▁ಅಬೀಮೆಲೆಕನ	-9959
▁ಅಬ್ರಹಾಮನೂ	-9960
▁ಅರಾಮಿನಿಂದ	-9961
▁ಅವರಿಬ್ಬರೂ	-9962
▁ಆಕಾಶವನ್ನು	-9963
▁ಇಳಿದುಹೋಗಿ	-9964
▁ಉದ್ಯೋಗಸ್ಥ	-9965
▁ಕಳುಹಿಸಿಕೊ	-9966
▁ಕುಮಾರರಿಗೂ	-9967
▁ಕುಮಾರರಿಗೆ	-9968
▁ಕುರಿಕಾಯುವ	-9969
▁ಕುರಿಗಳಿಗೆ	-9970
▁ಕೂಡಿಕೊಂಡು	-9971
▁ಕ್ರಿಮಿಗಳೂ	-9972
▁ಚೀಲಗಳನ್ನು	-9973
▁ಚೀಲಗಳಲ್ಲಿ	-9974
▁ಚೊಚ್ಚಲತನದ	-9975
▁ತಿಳಿಸಿದನು	-9976
▁ನಿಮ್ಮಲ್ಲಿ	-9977
▁ಬೆಟ್ಟಕ್ಕೆ	-9978
▁ಮಾಡಲ್ಪಟ್ಟ	-9979
▁ರಕ್ತವನ್ನು	-9980
▁ರಾಹೇಲಳಿಗೆ	-9981
▁ವನ್ನೆಲ್ಲಾ	-9982
▁ವಾಸವಾಗಿರು	-9983
▁ವಾಸಿಸಿದನು	-9984
▁ಸಿದ್ಧಮಾಡಿ	-9985
▁ಸುಭಿಕ್ಷೆಯ	-9986
▁ಸೆರೆಯಲ್ಲಿ	-9987
▁ಸ್ತಂಭವಾಗಿ	-9988
▁ಹಿಡುಕೊಂಡು	-9989
▁ಹುಟ್ಟುವರು	-9990
చున్నప్పుడు	-9991
లన్నిటికిని	-9992
వారినందరిని	-9993
▁abundantly	-9994
▁affliction	-9995
▁remembered	-9996
▁yourselves	-9997
▁चित्तीवाली	-9998
▁ఎల్లప్పుడు	-9999
▁ఐగుప్తీయుల	-10000
▁గుడారములలో	-10001
▁చేసికొనిరి	-10002
▁చేసికొనెను	-10003
▁తెలుపబడెను	-10004
▁దగ్గరనున్న	-10005
▁దీవెనలతోను	-10006
▁దేశమంతటిని	-10007
▁నియమించెను	-10008
▁పంపివేసెను	-10009
▁పట్టణములను	-10010
▁పిలిపించిన	-10011
▁పుచ్చుకొని	-10012
▁ప్రదేశములో	-10013
▁మనుష్యులను	-10014
▁యథార్థవంతు	-10015
▁యాకోబునేను	-10016
▁వస్తువులను	-10017
▁వస్త్రమును	-10018
▁సంపాదించిన	-10019
▁సర్వోన్నతు	-10020
▁స్వప్నమందు	-10021
▁స్వరూపమందు	-10022
▁ಅಂದುಕೊಂಡನು	-10023
▁ಅಡ್ಡಬಿದ್ದು	-10024
▁ಅದುಲ್ಲಾಮ್ಯ	-10025
▁ಅಪ್ಪಿಕೊಂಡು	-10026
▁ಅರಣ್ಯದಲ್ಲಿ	-10027
▁ಅರ್ಪಕ್ಷದನು	-10028
▁ಆಶೀರ್ವದಿಸು	-10029
▁ಇಷ್ಮಾಯೇಲ್ಯ	-10030
▁ಎದುರಾಗಿರುವ	-10031
▁ಎದುರಿನಲ್ಲಿ	-10032
▁ಕಳುಹಿಸಿದಾಗ	-10033
▁ಕುಮಾರ್ತೆಗಳ	-10034
▁ಕೆದೊರ್ಲಗೋಮ	-10035
▁ಕೇಳಿದ್ದೇನೆ	-10036
▁ದಾಸನಾಗಿರಲಿ	-10037
▁ದಾಸಿಯರನ್ನೂ	-10038
▁ಪರ್ವತದಲ್ಲಿ	-10039
▁ಪ್ರೀತಿಮಾಡಿ	-10040
▁ಬಂದಿದ್ದೀರಿ	-10041
▁ಮನುಷ್ಯನಿಂದ	-10042
▁ಮಾಡಿಕೊಂಡರು	-10043
▁ಮಾಡಿದ್ದೇನು	-10044
▁ಮಾತನಾಡಿದನು	-10045
▁ವರುಷದವನಾಗಿ	-10046
▁ವಾಸವಾಗಿರುವ	-10047
▁ವಿಶಾಲದಲ್ಲಿ	-10048
▁ಹುಟ್ಟಿದವಳು	-10049
▁Ishmeelites	-10050
▁countenance	-10051
▁इश्माएलियों	-10052
▁ज्योतिषियों	-10053
▁అబీమెలెకును	-10054
▁ఆజ్ఞాపించిన	-10055
▁ఇశ్రాయేలును	-10056
▁ఇష్మాయేలును	-10057
▁ఐగుప్తీయులు	-10058
▁చిన్నవానికి	-10059
▁ద్రవ్యములతో	-10060
▁పీలవెన్నులు	-10061
▁పోయినప్పుడు	-10062
▁ఫిలిష్తీయుల	-10063
▁మూలపురుషుడు	-10064
▁వినినప్పుడు	-10065
▁వ్యాపించెను	-10066
▁సర్వశక్తిగల	-10067
▁సిరియావాడైన	-10068
▁హిత్తీయుడైన	-10069
▁ಅಬ್ರಾಮನನ್ನು	-10070
▁ಎದುರುಗೊಳ್ಳು	-10071
▁ಕಾಣಿಕೆಯನ್ನು	-10072
▁ಕಾಣಿಕೆಯನ್ನೂ	-10073
▁ಕಾಣಿಸಿಕೊಂಡು	-10074
▁ದೇಶದಲ್ಲಿದ್ದ	-10075
▁ದೇಶದಲ್ಲಿರುವ	-10076
▁ದ್ರವ್ಯವನ್ನು	-10077
▁ನಾವೆಯೊಳಗಿಂದ	-10078
▁ಪಾತ್ರೆಯನ್ನು	-10079
▁ಫಿಲಿಷ್ಟಿಯರು	-10080
▁ಮುದ್ದಿಟ್ಟನು	-10081
▁ಸನ್ನಿಧಿಯಿಂದ	-10082
▁ಸರ್ವಶಕ್ತನಾದ	-10083
▁ಹೀಗಿರುವಲ್ಲಿ	-10084
▁ಹೆಂಡತಿಯನ್ನೂ	-10085
▁అందుకతడునేను	-10086
▁అడిగినప్పుడు	-10087
▁ఎదుర్కొనుటకు	-10088
▁కాపురముండెను	-10089
▁తీసికొనిపోయి	-10090
▁దేశములోనుండి	-10091
▁పేరుపెట్టెను	-10092
▁ప్రకారమాయెను	-10093
▁ప్రత్యక్షమైన	-10094
▁ఫిలిష్తీయులు	-10095
▁విడిచిపెట్టి	-10096
▁ಆಜ್ಞಾಪಿಸಿದನು	-10097
▁ದನಕಾಯುವವರಿಗೂ	-10098
▁ಪೂರ್ವದಿಕ್ಕಿನ	-10099
▁ಬಲಾತ್ಕಾರದಿಂದ	-10100
▁ವಸ್ತ್ರಗಳನ್ನೂ	-10101
▁ಸನ್ನಿಧಿಯಲ್ಲಿ	-10102
▁ಸಾಯಂಕಾಲದಲ್ಲಿ	-10103
▁ఆశీర్వదించెను	-10104
▁ಅಭಿವೃದ್ಧಿಯಾಗಿ	-10105
▁ಕಳುಹಿಸಿದ್ದಾನೆ	-10106
▁ನಾಶಮಾಡುವದಿಲ್ಲ	-10107
▁ಮಾರ್ಗದಲ್ಲಿರುವ	-10108
▁ಯಜ್ಞವೇದಿಯನ್ನು	-10109
▁ಸುನ್ನತಿಮಾಡಿಸಿ	-10110
▁ಸ್ವಾಸ್ಥ್ಯವಾಗಿ	-10111
▁ಹೆಂಡತಿಯಾಗಿದ್ದ	-10112
▁వచ్చుచున్నాడని	-10113
▁విత్తనములిచ్చు	-10114
▁ಕುಮಾರ್ತೆಗಳಲ್ಲಿ	-10115
▁ತಕ್ಕೊಂಡಿದ್ದಾನೆ	-10116
▁ಬೆತ್ತಲೆಯಾಗಿದ್ದ	-10117
▁తీసికొనివచ్చెను	-10118
▁ತಕ್ಕೊಳ್ಳುವದಕ್ಕೆ	-10119
▁ಮಾಡಿದ್ದನ್ನೆಲ್ಲಾ	-10120
).	-10121
OD	-10122
dd	-10123
lp	-10124
ru	-10125
ss	-10126
ys	-10127
ंआ	-10128
आब	-10129
ईं	-10130
ऊल	-10131
गु	-10132
गो	-10133
घट	-10134
चि	-10135
जे	-10136
टु	-10137
ढय	-10138
णी	-10139
दय	-10140
दह	-10141
नत	-10142
पु	-10143
बी	-10144
बो	-10145
भव	-10146
सो	-10147
हट	-10148
हत	-10149
है	-10150
िम	-10151
ीं	-10152
ुद	-10153
ణయ	-10154
తొ	-10155
థమ	-10156
దై	-10157
ధు	-10158
నొ	-10159
పద	-10160
భా	-10161
భి	-10162
రై	-10163
షా	-10164
ాహ	-10165
ీద	-10166
ీర	-10167
ోళ	-10168
ಂಕ	-10169
ಆಗ	-10170
ಕಟ	-10171
ತೋ	-10172
ಫೋ	-10173
ಬಾ	-10174
ಹೀ	-10175
ಹೈ	-10176
ಿಮ	-10177
ೀತ	-10178
ೃಹ	-10179
ೇತ	-10180
ೇಶ	-10181
ೋಳ	-10182
aff	-10183
ail	-10184
ald	-10185
aul	-10186
cer	-10187
dim	-10188
dom	-10189
dow	-10190
ead	-10191
ees	-10192
eis	-10193
eng	-10194
eph	-10195
han	-10196
hob	-10197
iah	-10198
iel	-10199
ily	-10200
imr	-10201
iol	-10202
iot	-10203
iqu	-10204
lse	-10205
nes	-10206
now	-10207
oab	-10208
ook	-10209
oor	-10210
pes	-10211
ple	-10212
rim	-10213
roi	-10214
tan	-10215
ues	-10216
upp	-10217
upt	-10218
vah	-10219
wer	-10220
ंगन	-10221
ंगो	-10222
ंत्	-10223
ंदी	-10224
ंसठ	-10225
एली	-10226
करे	-10227
खता	-10228
खों	-10229
घ्र	-10230
चित	-10231
टका	-10232
ताव	-10233
त्थ	-10234
दाय	-10235
देश	-10236
नेह	-10237
बाब	-10238
भाल	-10239
में	-10240
यार	-10241
योत	-10242
रदन	-10243
रें	-10244
लित	-10245
वश्	-10246
वाद	-10247
श्र	-10248
सान	-10249
स्द	-10250
स्म	-10251
िड़	-10252
िनी	-10253
ृणा	-10254
ेरे	-10255
ैली	-10256
ोरी	-10257
्डी	-10258
्रो	-10259
ంతో	-10260
గతా	-10261
గుట	-10262
టకే	-10263
టని	-10264
ఠిన	-10265
తను	-10266
త్మ	-10267
దంత	-10268
దీయ	-10269
దువ	-10270
ధీన	-10271
నంత	-10272
నది	-10273
నను	-10274
పత్	-10275
పని	-10276
మము	-10277
మూడ	-10278
యమా	-10279
యిం	-10280
రోధ	-10281
ర్శ	-10282
వతె	-10283
వేక	-10284
షను	-10285
సరు	-10286
సెన	-10287
ాపి	-10288
ిగా	-10289
ినా	-10290
ినై	-10291
ిన్	-10292
ీకో	-10293
ీతి	-10294
ెకు	-10295
ేకా	-10296
ಂತು	-10297
ಅವನ	-10298
ಕಾನ	-10299
ಗಾಷ	-10300
ಗೂಷ	-10301
ಗೆಯ	-10302
ಗೊಡ	-10303
ಚ್ಛ	-10304
ಜ್ಯ	-10305
ಡಿದ	-10306
ದಿನ	-10307
ನಜ್	-10308
ನೇಕ	-10309
ನೇರ	-10310
ಬಲ್	-10311
ಬೂಸ	-10312
ಬ್ದ	-10313
ಮಗೂ	-10314
ಮೇಲ	-10315
ರದೆ	-10316
ವ್ಯ	-10317
ವ್ವ	-10318
ಸಮಾ	-10319
ಹತ್	-10320
ಹೋಬ	-10321
ಹ್ಯ	-10322
ಾರೋ	-10323
ಾಲಿ	-10324
ಾವೆ	-10325
ಿಗಳ	-10326
ಿತೋ	-10327
ಿಯಾ	-10328
ಿವೆ	-10329
ೀತು	-10330
ೀಮ್	-10331
ುವಿ	-10332
ೂರಿ	-10333
ೆಬೋ	-10334
ೆಲಹ	-10335
ೇನೋ	-10336
ೇಲನ	-10337
ೋರನ	-10338
ೌರವ	-10339
▁Af	-10340
▁At	-10341
▁Do	-10342
▁Dr	-10343
▁Ir	-10344
▁Tw	-10345
▁Up	-10346
▁Ur	-10347
▁Uz	-10348
▁ac	-10349
▁mo	-10350
▁ph	-10351
▁ra	-10352
▁आर	-10353
▁ऊर	-10354
▁ओन	-10355
▁कस	-10356
▁कौ	-10357
▁चम	-10358
▁छत	-10359
▁जु	-10360
▁जू	-10361
▁टि	-10362
▁ढा	-10363
▁तट	-10364
▁दब	-10365
▁नो	-10366
▁पछ	-10367
▁मछ	-10368
▁रथ	-10369
▁वन	-10370
▁वस	-10371
▁शू	-10372
▁शो	-10373
▁सफ	-10374
▁हथ	-10375
▁हि	-10376
▁అణ	-10377
▁అల	-10378
▁ఏక	-10379
▁ఓద	-10380
▁గూ	-10381
▁ఘన	-10382
▁చి	-10383
▁నగ	-10384
▁నడ	-10385
▁పూ	-10386
▁ఫల	-10387
▁బు	-10388
▁యొ	-10389
▁రథ	-10390
▁వశ	-10391
▁శవ	-10392
▁షా	-10393
▁ಅಲ	-10394
▁ಆಲ	-10395
▁ಕಣ	-10396
▁ಗತ	-10397
▁ಗಾ	-10398
▁ಗೀ	-10399
▁ದರ	-10400
▁ದ್	-10401
▁ಧೂ	-10402
▁ಫೀ	-10403
▁ಮೋ	-10404
▁ಯೂ	-10405
▁ರಥ	-10406
▁ಸರ	-10407
▁ಸೀ	-10408
▁ಹನ	-10409
abel	-10410
adow	-10411
agin	-10412
alam	-10413
alek	-10414
ally	-10415
anch	-10416
ands	-10417
arez	-10418
arth	-10419
ason	-10420
ebaj	-10421
emed	-10422
ency	-10423
etur	-10424
fall	-10425
geon	-10426
iend	-10427
ings	-10428
ited	-10429
izra	-10430
keth	-10431
lour	-10432
nded	-10433
nter	-10434
obal	-10435
ohar	-10436
ooth	-10437
pass	-10438
reen	-10439
same	-10440
shur	-10441
tern	-10442
ters	-10443
took	-10444
used	-10445
vied	-10446
yond	-10447
ंगवा	-10448
ग्री	-10449
ज्जा	-10450
टेगा	-10451
ढ़का	-10452
तिनी	-10453
दासी	-10454
धानी	-10455
नहार	-10456
नाढय	-10457
नेगी	-10458
न्तर	-10459
न्नत	-10460
पेरा	-10461
माता	-10462
मान्	-10463
म्बा	-10464
म्मट	-10465
म्मी	-10466
योजन	-10467
रावा	-10468
रिया	-10469
रोगा	-10470
र्थी	-10471
लाया	-10472
लौते	-10473
वश्य	-10474
वहार	-10475
वाड़	-10476
ष्ठा	-10477
हिरे	-10478
ूंघट	-10479
ोयीम	-10480
ोलोक	-10481
्रान	-10482
्वास	-10483
ండుట	-10484
ఖారు	-10485
గొని	-10486
చూచి	-10487
చేయక	-10488
టికీ	-10489
డవైన	-10490
డిరి	-10491
డ్డల	-10492
డ్రా	-10493
తకము	-10494
తోనీ	-10495
త్తె	-10496
త్రు	-10497
నాకు	-10498
నితో	-10499
నిర్	-10500
నేమో	-10501
పక్ష	-10502
పోగా	-10503
బాలు	-10504
మగ్ర	-10505
మాకు	-10506
మీకు	-10507
మేమి	-10508
యిము	-10509
యోతు	-10510
యోమె	-10511
రీయా	-10512
రెసు	-10513
రోయి	-10514
ర్తి	-10515
లమని	-10516
లవలె	-10517
లాను	-10518
లికె	-10519
లిని	-10520
లిమే	-10521
లోచన	-10522
లోని	-10523
ళ్లి	-10524
వాసన	-10525
వికు	-10526
వెంట	-10527
వేదన	-10528
వ్వల	-10529
సుకు	-10530
హాను	-10531
హాయి	-10532
ింపక	-10533
ివ్వ	-10534
ువుల	-10535
ృష్ట	-10536
ెబోయ	-10537
ెలను	-10538
ెల్ల	-10539
ోహరు	-10540
్యాద	-10541
ಆದರೆ	-10542
ಇವನು	-10543
ಕತ್ತ	-10544
ಕನೆಯ	-10545
ಕೆಯೂ	-10546
ಗೇನು	-10547
ಚಿತು	-10548
ಚೆರ್	-10549
ಡಿಸಿ	-10550
ತಮ್ಮ	-10551
ತಿಯು	-10552
ದಂತೆ	-10553
ದೇನು	-10554
ನನಗೂ	-10555
ನಾನೇ	-10556
ನಾಲ್	-10557
ನೆಯು	-10558
ಬುಗಳ	-10559
ಬೇಲ್	-10560
ಭರಿತ	-10561
ಮ್ಮಡ	-10562
ಯಿಮ್	-10563
ಯ್ದು	-10564
ರಕ್ಷ	-10565
ರಲ್ಲ	-10566
ರೋಯಿ	-10567
ಲೆತನ	-10568
ಲ್ಲದ	-10569
ವರಾಶ	-10570
ವರುಷ	-10571
ವಿಯೂ	-10572
ವಿಯೋ	-10573
ಹಾಕಿ	-10574
ಹುಡು	-10575
ಾಂತರ	-10576
ಾಗಲೂ	-10577
ಾದರೋ	-10578
ಾಪಾರ	-10579
ಾಮನೇ	-10580
ಿಕೆಯ	-10581
ಿದಳು	-10582
ಿಬ್ಬ	-10583
ೆದನು	-10584
ೆಬಾಯ	-10585
▁Ber	-10586
▁GOD	-10587
▁Haz	-10588
▁Hiv	-10589
▁Luz	-10590
▁Meh	-10591
▁Per	-10592
▁Ret	-10593
▁Why	-10594
▁Yet	-10595
▁aud	-10596
▁bar	-10597
▁bel	-10598
▁bot	-10599
▁cam	-10600
▁cou	-10601
▁ewe	-10602
▁far	-10603
▁got	-10604
▁hor	-10605
▁inn	-10606
▁lab	-10607
▁mag	-10608
▁mil	-10609
▁occ	-10610
▁reb	-10611
▁shr	-10612
▁spo	-10613
▁unc	-10614
▁wra	-10615
▁yes	-10616
▁अंश	-10617
▁अदु	-10618
▁अमा	-10619
▁अल्	-10620
▁आऊं	-10621
▁आती	-10622
▁इन्	-10623
▁उगा	-10624
▁उठी	-10625
▁उधर	-10626
▁एश्	-10627
▁कनज	-10628
▁कान	-10629
▁कैद	-10630
▁खाए	-10631
▁खुद	-10632
▁खुल	-10633
▁खेद	-10634
▁खेल	-10635
▁चुक	-10636
▁जीत	-10637
▁डरो	-10638
▁डाह	-10639
▁दाम	-10640
▁धूल	-10641
▁नबा	-10642
▁नया	-10643
▁पदा	-10644
▁परो	-10645
▁फूट	-10646
▁बरी	-10647
▁बर्	-10648
▁बीत	-10649
▁यूश	-10650
▁रंग	-10651
▁लहै	-10652
▁लाभ	-10653
▁लूज	-10654
▁शबा	-10655
▁सूत	-10656
▁हाल	-10657
▁అంద	-10658
▁అతి	-10659
▁అదు	-10660
▁అమా	-10661
▁ఆరు	-10662
▁ఆలక	-10663
▁ఈరా	-10664
▁ఉంచ	-10665
▁ఉదయ	-10666
▁ఊజు	-10667
▁ఎడమ	-10668
▁ఎష్	-10669
▁ఏటి	-10670
▁ఏల్	-10671
▁ఓను	-10672
▁కరు	-10673
▁కలహ	-10674
▁కోత	-10675
▁గంప	-10676
▁గడి	-10677
▁చివ	-10678
▁చేప	-10679
▁చోట	-10680
▁జగడ	-10681
▁జ్ఞ	-10682
▁టకు	-10683
▁డని	-10684
▁డైన	-10685
▁తడు	-10686
▁తరి	-10687
▁తీయ	-10688
▁దాహ	-10689
▁దోష	-10690
▁ధను	-10691
▁నైన	-10692
▁పడమ	-10693
▁పాప	-10694
▁పూడ	-10695
▁పొగ	-10696
▁పొద	-10697
▁పొల	-10698
▁బోళ	-10699
▁మని	-10700
▁మరణ	-10701
▁మిస	-10702
▁మైన	-10703
▁మోయ	-10704
▁యడి	-10705
▁యైన	-10706
▁రేణ	-10707
▁లతో	-10708
▁లైన	-10709
▁వలె	-10710
▁వేట	-10711
▁షావ	-10712
▁సమక	-10713
▁సీద	-10714
▁ಅಂಜ	-10715
▁ಅಕ್	-10716
▁ಅಗಲ	-10717
▁ಅಗೋ	-10718
▁ಅಡವ	-10719
▁ಅತಿ	-10720
▁ಅಮಾ	-10721
▁ಅಲ್	-10722
▁ಆಲೋ	-10723
▁ಆಸನ	-10724
▁ಇವನ	-10725
▁ಈಡು	-10726
▁ಊರ್	-10727
▁ಎಳೇ	-10728
▁ಕಡೆ	-10729
▁ಕಳೆ	-10730
▁ಕೆಡ	-10731
▁ಗಾದ	-10732
▁ಗಾಳ	-10733
▁ಗುವ	-10734
▁ಗೋಮ	-10735
▁ಚೋಹ	-10736
▁ದರು	-10737
▁ದೆದ	-10738
▁ದೇಹ	-10739
▁ನೆಯ	-10740
▁ಪಾನ	-10741
▁ಫನು	-10742
▁ಬಳಿ	-10743
▁ಬೆಲ	-10744
▁ಮಂಜ	-10745
▁ಮದು	-10746
▁ಮಾಕ	-10747
▁ಮೂವ	-10748
▁ಮೇರ	-10749
▁ಮೋಸ	-10750
▁ಯಾಗ	-10751
▁ಯುವ	-10752
▁ಲಹೈ	-10753
▁ಲ್ಲ	-10754
▁ವದು	-10755
▁ವಾಲ	-10756
▁ಶೋಬ	-10757
▁ಸಕಲ	-10758
▁ಸರಿ	-10759
▁ಸೌಲ	-10760
▁ಹಣದ	-10761
▁ಹಾಳ	-10762
▁ಹೇಗ	-10763
▁ಹೋತ	-10764
aamah	-10765
alley	-10766
amite	-10767
asted	-10768
emies	-10769
enath	-10770
ichol	-10771
ified	-10772
illah	-10773
ipped	-10774
ished	-10775
lours	-10776
oined	-10777
oveth	-10778
pised	-10779
raced	-10780
ually	-10781
ंत्री	-10782
क्तान	-10783
जन्तु	-10784
टुम्ब	-10785
डूंगा	-10786
ण्डार	-10787
द्दीम	-10788
द्यपि	-10789
न्दूर	-10790
मवासी	-10791
यानाश	-10792
शियों	-10793
िड़की	-10794
ండ్రి	-10795
ంతరము	-10796
ందెను	-10797
ఆమెను	-10798
ఇక్కడ	-10799
ఐగుప్	-10800
కరమైన	-10801
కుడని	-10802
గతాళి	-10803
గాకని	-10804
గాడిద	-10805
చిత్ర	-10806
చుండి	-10807
చుటకు	-10808
చ్చెన	-10809
జలముల	-10810
టియైన	-10811
డనియు	-10812
డుగగా	-10813
ణించి	-10814
తేలను	-10815
తోకూడ	-10816
దనియు	-10817
దినము	-10818
దీయుల	-10819
దుమని	-10820
ద్ధము	-10821
నందున	-10822
నొల్ల	-10823
పడెను	-10824
బడిరి	-10825
మగుదు	-10826
మాత్ర	-10827
మార్త	-10828
యునని	-10829
రాలైన	-10830
ర్షము	-10831
లించు	-10832
లిగిన	-10833
లిచేత	-10834
లేనంత	-10835
వతలను	-10836
వలెనో	-10837
వాడగు	-10838
వాడెవ	-10839
వాత్మ	-10840
వాహకు	-10841
విధము	-10842
వునని	-10843
శిక్ష	-10844
ష్టము	-10845
సెనతు	-10846
స్తకి	-10847
ీయుని	-10848
ూర్తి	-10849
ృష్టి	-10850
ెదాను	-10851
ెనుగు	-10852
ేండ్ల	-10853
ోబాబు	-10854
ోబాలు	-10855
ోసెను	-10856
్తాను	-10857
ಂದಿಗೂ	-10858
ಅಬ್ರಹ	-10859
ಇಲ್ಲಿ	-10860
ಎದ್ದು	-10861
ಕನಿಗೆ	-10862
ಕೋಲನೂ	-10863
ಗುತ್ತ	-10864
ಚಿಕ್ಕ	-10865
ಜೀಯರೂ	-10866
ಟಕ್ಕೆ	-10867
ದನಿಂದ	-10868
ದಾದರೆ	-10869
ದ್ದವು	-10870
ನಿಯಾದ	-10871
ನೆಂದೂ	-10872
ನ್ನಲು	-10873
ಮಾಡದೆ	-10874
ಮ್ಮುಖ	-10875
ರ್ಗಾಷ	-10876
ಲಿರುವ	-10877
ಲ್ಲವೋ	-10878
ವನಿಗೆ	-10879
ವಾಗಲೂ	-10880
ವೃಕ್ಷ	-10881
ಶ್ವಾಸ	-10882
ಾನುಗಳ	-10883
ಿಲ್ಲದ	-10884
ಿಸಬಹು	-10885
ುತ್ತಾ	-10886
ೇಕಳುಹ	-10887
ೇಳನೆಯ	-10888
್ಯವಾದ	-10889
▁Aram	-10890
▁Cush	-10891
▁Elam	-10892
▁Elon	-10893
▁Ezer	-10894
▁Fear	-10895
▁Hear	-10896
▁Hush	-10897
▁Lest	-10898
▁Moab	-10899
▁More	-10900
▁Poti	-10901
▁Shur	-10902
▁Wilt	-10903
▁Zebo	-10904
▁able	-10905
▁bere	-10906
▁best	-10907
▁conf	-10908
▁corr	-10909
▁dece	-10910
▁doth	-10911
▁fire	-10912
▁fish	-10913
▁furn	-10914
▁grac	-10915
▁hate	-10916
▁held	-10917
▁help	-10918
▁hold	-10919
▁home	-10920
▁lion	-10921
▁nour	-10922
▁open	-10923
▁ours	-10924
▁pers	-10925
▁pott	-10926
▁roll	-10927
▁sand	-10928
▁scar	-10929
▁seek	-10930
▁shut	-10931
▁sign	-10932
▁soon	-10933
▁sort	-10934
▁suff	-10935
▁tong	-10936
▁tres	-10937
▁trib	-10938
▁vail	-10939
▁viol	-10940
▁wand	-10941
▁west	-10942
▁अदमा	-10943
▁अस्त	-10944
▁आसनत	-10945
▁उपजा	-10946
▁एलाम	-10947
▁एलोन	-10948
▁एसेर	-10949
▁कंगन	-10950
▁कठिन	-10951
▁कबरि	-10952
▁कस्द	-10953
▁कहके	-10954
▁कहते	-10955
▁काली	-10956
▁कुंआ	-10957
▁खड़ी	-10958
▁गन्ध	-10959
▁गाड़	-10960
▁घटने	-10961
▁घृणा	-10962
▁चुकी	-10963
▁चौदह	-10964
▁जांघ	-10965
▁जीता	-10966
▁ठहरी	-10967
▁तुझी	-10968
▁थैली	-10969
▁ददान	-10970
▁दामा	-10971
▁नंगे	-10972
▁नत्थ	-10973
▁नारी	-10974
▁निर्	-10975
▁पकड़	-10976
▁पहिन	-10977
▁पाहु	-10978
▁पुरन	-10979
▁फूले	-10980
▁बकरे	-10981
▁बच्च	-10982
▁बदले	-10983
▁बरसा	-10984
▁बांझ	-10985
▁बाईं	-10986
▁बीती	-10987
▁बुरी	-10988
▁भेजे	-10989
▁मामा	-10990
▁मूर्	-10991
▁मोआब	-10992
▁यरदन	-10993
▁रूचि	-10994
▁रोने	-10995
▁लगाई	-10996
▁लेखे	-10997
▁लेगा	-10998
▁लेते	-10999
▁वीणा	-11000
▁शाऊल	-11001
▁संगी	-11002
▁सिंह	-11003
▁सीधा	-11004
▁सेवक	-11005
▁सोहर	-11006
▁हमें	-11007
▁అగాధ	-11008
▁అట్ల	-11009
▁అతడే	-11010
▁అనబడ	-11011
▁అసూయ	-11012
▁ఆత్మ	-11013
▁ఇకను	-11014
▁ఇసుక	-11015
▁ఉంచి	-11016
▁ఊరను	-11017
▁ఎఱ్ఱ	-11018
▁ఏలిక	-11019
▁ఒకరి	-11020
▁ఓడను	-11021
▁కఠిన	-11022
▁కతడు	-11023
▁కనజు	-11024
▁కమ్మ	-11025
▁కలలో	-11026
▁కాగా	-11027
▁కాడు	-11028
▁కాదే	-11029
▁కాల్	-11030
▁కోడల	-11031
▁గాదు	-11032
▁చాపి	-11033
▁చింద	-11034
▁చూడవ	-11035
▁చెరి	-11036
▁చేది	-11037
▁చేరి	-11038
▁చేరు	-11039
▁జనుల	-11040
▁జీతమ	-11041
▁జ్యో	-11042
▁డును	-11043
▁తమరు	-11044
▁తొడి	-11045
▁తొలగ	-11046
▁తోడు	-11047
▁దర్శ	-11048
▁నడుమ	-11049
▁నమస్	-11050
▁నమ్మ	-11051
▁నాకె	-11052
▁నానా	-11053
▁నిండ	-11054
▁నితో	-11055
▁నిలు	-11056
▁నివా	-11057
▁నూటప	-11058
▁నూనె	-11059
▁నేమి	-11060
▁నేమో	-11061
▁పండ్	-11062
▁పదున	-11063
▁పాలు	-11064
▁పావు	-11065
▁పెరి	-11066
▁పైకె	-11067
▁పోని	-11068
▁ఫీకో	-11069
▁బండ్	-11070
▁బడిన	-11071
▁భాషల	-11072
▁భూలో	-11073
▁మాంస	-11074
▁మోయు	-11075
▁యర్ప	-11076
▁యిది	-11077
▁యూషు	-11078
▁యేలు	-11079
▁యోసే	-11080
▁రక్ష	-11081
▁రమ్య	-11082
▁రాగా	-11083
▁లును	-11084
▁లూజు	-11085
▁లేదు	-11086
▁వాంఛ	-11087
▁వేగు	-11088
▁వేయు	-11089
▁వైపు	-11090
▁వ్రే	-11091
▁శరీర	-11092
▁షూరు	-11093
▁ష్యు	-11094
▁సంతత	-11095
▁సంపద	-11096
▁సముఖ	-11097
▁సాగన	-11098
▁సుమీ	-11099
▁స్నే	-11100
▁ಅಂಗಿ	-11101
▁ಅಂತೂ	-11102
▁ಅಗಿದ	-11103
▁ಅಧಿಕ	-11104
▁ಅನೇಕ	-11105
▁ಅಳಿಯ	-11106
▁ಆದಾಳ	-11107
▁ಆನೇರ	-11108
▁ಇಂದು	-11109
▁ಉರಿಯ	-11110
▁ಉಳಿಯ	-11111
▁ಎಂದೂ	-11112
▁ಎಂದೆ	-11113
▁ಒಣಗಿ	-11114
▁ಓನಾನ	-11115
▁ಓನಿನ	-11116
▁ಕಲ್ದ	-11117
▁ಕಳವಳ	-11118
▁ಕಳ್ಳ	-11119
▁ಕಾರಣ	-11120
▁ಕಿಟಕ	-11121
▁ಕೂಗಿ	-11122
▁ಕೋಲು	-11123
▁ಗಟ್ಟ	-11124
▁ಗಿಯೂ	-11125
▁ಗೋಪು	-11126
▁ಗೌರವ	-11127
▁ಚೆಬೋ	-11128
▁ಜಲವು	-11129
▁ಜೀವಿ	-11130
▁ಜೊತೆ	-11131
▁ತೂಕದ	-11132
▁ದನಗಳ	-11133
▁ದಿಂದ	-11134
▁ನಾಚಿ	-11135
▁ನೀರಿ	-11136
▁ನೂರು	-11137
▁ನೂರೈ	-11138
▁ನೂಲು	-11139
▁ನೆನಸ	-11140
▁ಪೆರಿ	-11141
▁ಬಂತು	-11142
▁ಬಂದಿ	-11143
▁ಬಟ್ಟ	-11144
▁ಬೀಳು	-11145
▁ಬೆಂಕ	-11146
▁ಬೇಕೆ	-11147
▁ಬೇಟೆ	-11148
▁ಬೇಸರ	-11149
▁ಭಯವು	-11150
▁ಮಗಳೂ	-11151
▁ಮಗುವ	-11152
▁ಮರಗಳ	-11153
▁ಮೇಲ್	-11154
▁ಯಳಾಮ	-11155
▁ಯಿಂದ	-11156
▁ಯೋಸೇ	-11157
▁ರಮ್ಯ	-11158
▁ಲಾಬಾ	-11159
▁ವಂತೆ	-11160
▁ವೈದಿ	-11161
▁ಶಬ್ದ	-11162
▁ಶ್ರೇ	-11163
▁ಸಂಭವ	-11164
▁ಸ್ನೇ	-11165
▁ಸ್ವಪ	-11166
▁ಹಕ್ಕ	-11167
▁ಹಾಳು	-11168
▁ಹೋಲಿ	-11169
aldees	-11170
anches	-11171
hoboth	-11172
iquity	-11173
izraim	-11174
keness	-11175
oubled	-11176
pherah	-11177
reated	-11178
िस्तान	-11179
కొనును	-11180
గుదువు	-11181
గొట్టు	-11182
గ్గరగా	-11183
చెదనని	-11184
తండ్రి	-11185
త్తిని	-11186
దిక్కు	-11187
ఫలమును	-11188
మగునని	-11189
మీదికి	-11190
మూతిలో	-11191
యననీవు	-11192
లాడదీయ	-11193
ళ్లును	-11194
వాసమున	-11195
విడిచి	-11196
ష్టిగల	-11197
ానముగా	-11198
ించుచు	-11199
ృద్ధిప	-11200
ಕರಲ್ಲಿ	-11201
ಕ್ಕಿಂತ	-11202
ಗಲಿಲ್ಲ	-11203
ಡುವಂತೆ	-11204
ತ್ತಾರು	-11205
ದಲ್ಲವೋ	-11206
ದಿಂದಲೂ	-11207
ದೆಲ್ಲಾ	-11208
ಲಾರೆನು	-11209
ಲಾರೆವು	-11210
ವದಕ್ಕೂ	-11211
ವನಾದನು	-11212
ವರನ್ನೂ	-11213
ವೆಲ್ಲಾ	-11214
ಸಮಾಚಾರ	-11215
ಸಾರವಾದ	-11216
ಾಗಿರಲಿ	-11217
ಾಗುವನು	-11218
ಾನನಿಂದ	-11219
ಾನಲ್ಲಾ	-11220
ಾರಾನಿನ	-11221
ಾರೆಂದು	-11222
ಿತೆಂದು	-11223
ಿದ್ದೇಯ	-11224
ಿಯುಳ್ಳ	-11225
ಿಸತಕ್ಕ	-11226
ೇಲನಿಂದ	-11227
▁Admah	-11228
▁Adull	-11229
▁After	-11230
▁Dedan	-11231
▁Drink	-11232
▁Every	-11233
▁Jeush	-11234
▁Jobab	-11235
▁Kenaz	-11236
▁Nebaj	-11237
▁Sheba	-11238
▁Shuah	-11239
▁Tubal	-11240
▁Whose	-11241
▁Zohar	-11242
▁angry	-11243
▁birds	-11244
▁blame	-11245
▁break	-11246
▁dealt	-11247
▁doest	-11248
▁dried	-11249
▁empty	-11250
▁ended	-11251
▁going	-11252
▁green	-11253
▁hairy	-11254
▁haste	-11255
▁knees	-11256
▁lives	-11257
▁loins	-11258
▁named	-11259
▁obeis	-11260
▁plent	-11261
▁ruler	-11262
▁seest	-11263
▁since	-11264
▁smite	-11265
▁staff	-11266
▁stand	-11267
▁store	-11268
▁stuff	-11269
▁tenth	-11270
▁tower	-11271
▁trees	-11272
▁truth	-11273
▁waxed	-11274
▁widow	-11275
▁worth	-11276
▁youth	-11277
▁अधर्म	-11278
▁अन्दर	-11279
▁अवश्य	-11280
▁आंखें	-11281
▁आरम्भ	-11282
▁उतरकर	-11283
▁कराके	-11284
▁कादेश	-11285
▁कितने	-11286
▁खोलकर	-11287
▁गहिरे	-11288
▁गिरकर	-11289
▁घूंघट	-11290
▁चढ़कर	-11291
▁चढ़ाई	-11292
▁चांदी	-11293
▁चाहते	-11294
▁चूमकर	-11295
▁छोड़ा	-11296
▁जनेगी	-11297
▁टुकडे	-11298
▁तुल्य	-11299
▁तैयार	-11300
▁दरोगा	-11301
▁दहिना	-11302
▁दीशान	-11303
▁देंगे	-11304
▁देखते	-11305
▁धनाढय	-11306
▁नतिनी	-11307
▁पहिली	-11308
▁पीकोल	-11309
▁पीड़ा	-11310
▁पैंसठ	-11311
▁प्रलय	-11312
▁फाड़े	-11313
▁बकरों	-11314
▁भेजकर	-11315
▁मन्नत	-11316
▁मानकर	-11317
▁मानता	-11318
▁मिलकर	-11319
▁मिलने	-11320
▁यालाम	-11321
▁युद्ध	-11322
▁योबाब	-11323
▁रहोबो	-11324
▁लगाया	-11325
▁लेंगे	-11326
▁विधवा	-11327
▁शिकार	-11328
▁शीघ्र	-11329
▁शोबाल	-11330
▁सकेगा	-11331
▁सिबोन	-11332
▁सीदोन	-11333
▁हड्डी	-11334
▁हथिया	-11335
▁అంతటి	-11336
▁అంతయు	-11337
▁అంతలో	-11338
▁అదిగో	-11339
▁అద్మా	-11340
▁అనిరి	-11341
▁అయిదు	-11342
▁అల్లు	-11343
▁ఇట్లు	-11344
▁ఇయ్యు	-11345
▁ఈలాగు	-11346
▁ఉపపత్	-11347
▁ఏబెరు	-11348
▁ఏలాము	-11349
▁ఏసెరు	-11350
▁ఒక్కడ	-11351
▁ఓదార్	-11352
▁కనబడి	-11353
▁కనికర	-11354
▁కనును	-11355
▁కలలను	-11356
▁కిర్య	-11357
▁కుదువ	-11358
▁కురిప	-11359
▁కొనని	-11360
▁గడచిన	-11361
▁గుహయు	-11362
▁గైకొన	-11363
▁చింపు	-11364
▁చిత్త	-11365
▁చీల్చ	-11366
▁చువ్వ	-11367
▁చూచిఆ	-11368
▁చూడలే	-11369
▁చేయబడ	-11370
▁చేయరా	-11371
▁చేయుట	-11372
▁జలముల	-11373
▁జీతము	-11374
▁తగ్గి	-11375
▁దంతయు	-11376
▁దించి	-11377
▁దిగంబ	-11378
▁దొంగి	-11379
▁ధాన్య	-11380
▁నవ్వు	-11381
▁నిండి	-11382
▁నింపు	-11383
▁నిలిప	-11384
▁నివాస	-11385
▁నెక్క	-11386
▁నైనను	-11387
▁పిండి	-11388
▁పెంటి	-11389
▁ప్రథమ	-11390
▁భయపడు	-11391
▁మందకు	-11392
▁మందలో	-11393
▁మనలను	-11394
▁మమ్ము	-11395
▁మిగుల	-11396
▁మునకు	-11397
▁మైదాన	-11398
▁మొరను	-11399
▁యముగా	-11400
▁యుంచు	-11401
▁యెముక	-11402
▁యెవతె	-11403
▁రమ్ము	-11404
▁రాజసం	-11405
▁రెక్క	-11406
▁రెట్ట	-11407
▁లహాయి	-11408
▁విన్న	-11409
▁విరోధ	-11410
▁వివేక	-11411
▁వెళ్ళ	-11412
▁సమాధి	-11413
▁సిద్ద	-11414
▁సృష్ట	-11415
▁సెబోయ	-11416
▁సోయరు	-11417
▁సోహరు	-11418
▁హవీలా	-11419
▁హివ్వ	-11420
▁ಅದ್ಮಾ	-11421
▁ಅನಾಹಳ	-11422
▁ಅರಸನು	-11423
▁ಅಸಹ್ಯ	-11424
▁ಆರನೆಯ	-11425
▁ಇಲ್ಲಿ	-11426
▁ಇಳಿಸಿ	-11427
▁ಈಕೆಯು	-11428
▁ಐನೂರು	-11429
▁ಕಂಡಾಗ	-11430
▁ಕಟ್ಟು	-11431
▁ಕಡಿಮೆ	-11432
▁ಕದ್ದು	-11433
▁ಕೆಂಪು	-11434
▁ಕೆನಜ್	-11435
▁ಕೆಲವು	-11436
▁ಕೈಗಳು	-11437
▁ಗಂಡನು	-11438
▁ಗರ್ಭದ	-11439
▁ಗಿದ್ದ	-11440
▁ಗಿರುವ	-11441
▁ಗುಂಪು	-11442
▁ಜಾತ್ಯ	-11443
▁ತರವಾದ	-11444
▁ತಾರದೆ	-11445
▁ತಿತ್ತ	-11446
▁ತಿರುಗ	-11447
▁ತುಂಬಾ	-11448
▁ತೂಬಲ್	-11449
▁ತೆರಹನ	-11450
▁ತೆರೆಯ	-11451
▁ದರಿಂದ	-11452
▁ದಹನಬಲ	-11453
▁ದಾನನು	-11454
▁ದಾರಿಯ	-11455
▁ದಾಸರು	-11456
▁ನಾಣ್ಯ	-11457
▁ನಾದನು	-11458
▁ನಾನೂರ	-11459
▁ನಾಲ್ವ	-11460
▁ನಿಮಗೂ	-11461
▁ನೆಬಾಯ	-11462
▁ಪಟ್ಟು	-11463
▁ಪೂರ್ತ	-11464
▁ಬಂಜೆಯ	-11465
▁ಬಂದರೆ	-11466
▁ಬತ್ತಿ	-11467
▁ಬಿಚ್ಚ	-11468
▁ಭೂಲೋಕ	-11469
▁ಮರಳಿನ	-11470
▁ಮರೆತು	-11471
▁ಮಾಡದೆ	-11472
▁ಮಾಡೋಣ	-11473
▁ಮಾತಿನ	-11474
▁ಮಿಚ್ರ	-11475
▁ಮುಖವು	-11476
▁ಮುಗಿದ	-11477
▁ಮುದ್ರ	-11478
▁ಯಲ್ಲಿ	-11479
▁ಯೆಗೂಷ	-11480
▁ಯೆಬೂಸ	-11481
▁ಯೊಕ್ತ	-11482
▁ರೆಹೋಬ	-11483
▁ವೆಂದು	-11484
▁ಶತ್ರು	-11485
▁ಸಮಾಧಿ	-11486
▁ಸಾಕ್ಷ	-11487
▁ಸಿಂಹದ	-11488
▁ಸುದ್ದ	-11489
▁ಸೂಳೆಯ	-11490
▁ಸೇತನು	-11491
▁ಸ್ತುತ	-11492
▁ಸ್ವರವ	-11493
▁ಹರಿದು	-11494
▁ಹಾಸ್ಯ	-11495
▁ಹಿವ್ವ	-11496
▁ಹುಲ್ಲ	-11497
▁ಹೂಣಿಡ	-11498
▁ಹೊಂದು	-11499
▁ಹೊಡೆದ	-11500
▁ಹೊತ್ತ	-11501
▁ಹೊರುವ	-11502
▁ಹೋದವು	-11503
izzites	-11504
ज्जियों	-11505
కొరకును	-11506
తిననెను	-11507
దినములు	-11508
న్నాడని	-11509
పడుదురు	-11510
పొమ్మని	-11511
మట్టుకు	-11512
మైనందున	-11513
యుదునని	-11514
వృక్షపు	-11515
సీయులను	-11516
ించుటకు	-11517
ించుడని	-11518
ించెదవు	-11519
ಕೊಂಡೆನು	-11520
ಗಳಿಗಿಂತ	-11521
ದಲ್ಲಿಯೇ	-11522
ಮಾಡಿದಳು	-11523
ಮಾಡಿದಾಗ	-11524
ಮಾಡಿದ್ದ	-11525
ಮಾಡುತ್ತ	-11526
ಮಿನಲ್ಲಿ	-11527
ರಿಯನ್ನೂ	-11528
ರಿಸಿದರು	-11529
ರಿಸಿದಾಗ	-11530
ವುಗಳಾಗಿ	-11531
ಾಮ್ಯನಾದ	-11532
ಿದ್ದೀಮ್	-11533
▁Amalek	-11534
▁Asshur	-11535
▁Dishan	-11536
▁Gather	-11537
▁Hivite	-11538
▁Jaalam	-11539
▁Joktan	-11540
▁Kadesh	-11541
▁Pharez	-11542
▁Return	-11543
▁Shobal	-11544
▁Siddim	-11545
▁Zillah	-11546
▁abated	-11547
▁accept	-11548
▁answer	-11549
▁barren	-11550
▁befall	-11551
▁beyond	-11552
▁bottle	-11553
▁bowels	-11554
▁broken	-11555
▁camest	-11556
▁comest	-11557
▁disple	-11558
▁eighty	-11559
▁envied	-11560
▁favour	-11561
▁formed	-11562
▁fourth	-11563
▁friend	-11564
▁goodly	-11565
▁grapes	-11566
▁hasted	-11567
▁hunter	-11568
▁images	-11569
▁imagin	-11570
▁joined	-11571
▁labour	-11572
▁lights	-11573
▁moveth	-11574
▁obeyed	-11575
▁pledge	-11576
▁poured	-11577
▁prince	-11578
▁rested	-11579
▁speech	-11580
▁spirit	-11581
▁stayed	-11582
▁stones	-11583
▁strove	-11584
▁tender	-11585
▁theirs	-11586
▁though	-11587
▁thread	-11588
▁valley	-11589
▁walked	-11590
▁washed	-11591
▁weight	-11592
▁अधोलोक	-11593
▁अपराधी	-11594
▁आशीषें	-11595
▁एकलौते	-11596
▁किरिया	-11597
▁किवाड़	-11598
▁खिड़की	-11599
▁गुम्मट	-11600
▁चरवाहा	-11601
▁चरवाहे	-11602
▁छूटेगा	-11603
▁झुकाकर	-11604
▁टटोलकर	-11605
▁दण्डवत	-11606
▁दिखाया	-11607
▁दूदाफल	-11608
▁नबायोत	-11609
▁निर्बल	-11610
▁पड़ेगा	-11611
▁पदार्थ	-11612
▁परिश्र	-11613
▁भाषाओं	-11614
▁मित्रा	-11615
▁यद्यपि	-11616
▁याजकों	-11617
▁लहैरोई	-11618
▁लुढ़का	-11619
▁सबोयीम	-11620
▁समझदार	-11621
▁सिल्ला	-11622
▁होनहार	-11623
▁అంతేకా	-11624
▁అతడింక	-11625
▁అతడునీ	-11626
▁అన్నకు	-11627
▁అప్పడు	-11628
▁ఆకాశము	-11629
▁ఆమెవలన	-11630
▁ఆవులను	-11631
▁ఆసెనతు	-11632
▁ఇచ్చిన	-11633
▁ఎక్కువ	-11634
▁ఎగతాళి	-11635
▁కంటిని	-11636
▁కంటిమి	-11637
▁కట్టిన	-11638
▁కనిష్ఠ	-11639
▁కాలమున	-11640
▁కొట్టి	-11641
▁కొలుచు	-11642
▁గిలాదు	-11643
▁గొడ్రా	-11644
▁గోనెలో	-11645
▁చంపెను	-11646
▁చచ్చెద	-11647
▁చుట్టు	-11648
▁చువ్వల	-11649
▁చూచినీ	-11650
▁చెట్టు	-11651
▁చెదరగొ	-11652
▁చెరసాల	-11653
▁చేతికి	-11654
▁చేయుచు	-11655
▁చేయును	-11656
▁చేయుము	-11657
▁చేరెను	-11658
▁చేసిరో	-11659
▁జనులను	-11660
▁తట్టున	-11661
▁తెమ్ము	-11662
▁తెలిసి	-11663
▁తెలుపు	-11664
▁తేమాను	-11665
▁దానితో	-11666
▁దాసిని	-11667
▁దీనాను	-11668
▁దీషాను	-11669
▁దుఃఖము	-11670
▁దేశమున	-11671
▁దొంగిల	-11672
▁దొరుకు	-11673
▁నరులతో	-11674
▁నశించి	-11675
▁నాకంటె	-11676
▁నాకేమి	-11677
▁నామమున	-11678
▁నాలుగవ	-11679
▁నిర్ణయ	-11680
▁నిలువు	-11681
▁నేనతని	-11682
▁పంపెను	-11683
▁పట్టిన	-11684
▁పదార్థ	-11685
▁పలుకగా	-11686
▁పూడ్చి	-11687
▁పెనుగు	-11688
▁పెరెసు	-11689
▁పెలెగు	-11690
▁పేరును	-11691
▁పొందిన	-11692
▁పొలిమే	-11693
▁పోలికె	-11694
▁ప్రక్క	-11695
▁ప్రీతి	-11696
▁బంగారు	-11697
▁బ్రదుక	-11698
▁భయపడిన	-11699
▁మందలను	-11700
▁మస్తకి	-11701
▁మాటలను	-11702
▁మానుని	-11703
▁మీకును	-11704
▁ముక్కు	-11705
▁ముసుకు	-11706
▁యెరెదు	-11707
▁యోబాబు	-11708
▁రాకుండ	-11709
▁రాతిని	-11710
▁లక్ష్య	-11711
▁వర్షము	-11712
▁వాటిలో	-11713
▁వినబడు	-11714
▁వినిరి	-11715
▁వెన్ను	-11716
▁వేసిరి	-11717
▁శకునము	-11718
▁శవమును	-11719
▁శారాకు	-11720
▁శోబాలు	-11721
▁షావూలు	-11722
▁షేమును	-11723
▁సంతానా	-11724
▁సర్పము	-11725
▁సామగ్ర	-11726
▁సింహము	-11727
▁సిల్లా	-11728
▁సీదోను	-11729
▁సువాసన	-11730
▁సేవకుల	-11731
▁ಅಗಿದಾಗ	-11732
▁ಅಡ್ಡಬೀ	-11733
▁ಅಣ್ಣನು	-11734
▁ಅನ್ನಲು	-11735
▁ಆಗುವದು	-11736
▁ಆಶೀರ್ವ	-11737
▁ಇರುತ್ತ	-11738
▁ಇಸಾಕನೂ	-11739
▁ಊಟಕ್ಕೆ	-11740
▁ಎಷ್ಕೋಲ	-11741
▁ಒಂಟೆಗಳ	-11742
▁ಒಡೆಯನು	-11743
▁ಒಳ್ಳೇದ	-11744
▁ಕಟ್ಟುವ	-11745
▁ಕಾಣಿಕೆ	-11746
▁ಕುಡಿದು	-11747
▁ಕೈಚಾಚಿ	-11748
▁ಕೊಳ್ಳು	-11749
▁ಗೊಮೋರದ	-11750
▁ಚದರಿಸಿ	-11751
▁ಚಿಕ್ಕಮ	-11752
▁ಚಿಕ್ಕವ	-11753
▁ಚಿಲ್ಲಾ	-11754
▁ಜಿಲ್ಪಳ	-11755
▁ಜೀವರಾಶ	-11756
▁ತಂದೆಗೂ	-11757
▁ತಾಯಿಯು	-11758
▁ತಿಳಿಸಿ	-11759
▁ತೇಮಾನ್	-11760
▁ತೊಳೆದು	-11761
▁ದಿಂದಲೂ	-11762
▁ದೀಶೋನ್	-11763
▁ದೊರೆತನ	-11764
▁ನನಗೇನು	-11765
▁ನಮಗಾಗಿ	-11766
▁ನಾಲ್ಕು	-11767
▁ನಿದ್ರೆ	-11768
▁ಪರಲೋಕದ	-11769
▁ಪಶ್ಚಿಮ	-11770
▁ಪೆರೆಚ್	-11771
▁ಪ್ರದೇಶ	-11772
▁ಫಲಭರಿತ	-11773
▁ಬರಗಾಲದ	-11774
▁ಬಾವಿಗೆ	-11775
▁ಬುಗ್ಗೆ	-11776
▁ಬೆಳೆದು	-11777
▁ಬೆಳ್ಳಿ	-11778
▁ಬೇರೆಬೇ	-11779
▁ಭಾಷೆಗಳ	-11780
▁ಮಧ್ಯಾಹ	-11781
▁ಮಾಂಸವೂ	-11782
▁ಮುಟ್ಟಿ	-11783
▁ಮುದುರಿ	-11784
▁ಲ್ಪಟ್ಟ	-11785
▁ವಿಗ್ರಹ	-11786
▁ವಿಧವಾದ	-11787
▁ವಿಧವೆಯ	-11788
▁ಶಪಿಸುವ	-11789
▁ಶೆಕೆಮನ	-11790
▁ಶೆಕೆಲ್	-11791
▁ಸಂರಕ್ಷ	-11792
▁ಸಮೃದ್ಧ	-11793
▁ಸಮ್ಮುಖ	-11794
▁ಸಿವುಡು	-11795
▁ಸೇಯಾರ್	-11796
▁ಸ್ಥಳವು	-11797
▁ಹಣ್ಣಿನ	-11798
▁ಹನೋಕನು	-11799
▁ಹಾಗೆಯೂ	-11800
▁ಹಿಮ್ಮಡ	-11801
▁ಹುಟ್ಟಿ	-11802
▁ಹುಲ್ಲು	-11803
ternight	-11804
ందుననెను	-11805
చిత్రమైన	-11806
చున్నారు	-11807
త్తికొని	-11808
దృష్టికి	-11809
నుకొనెను	-11810
భివృద్ధి	-11811
వానికిని	-11812
ించితిని	-11813
ించుకొను	-11814
ನಾಗಿದ್ದು	-11815
ರೂಪದಲ್ಲಿ	-11816
ಹೋಗಿತ್ತು	-11817
ಾಗಿದ್ದಳು	-11818
ೊಳಗಿನಿಂದ	-11819
▁Amorite	-11820
▁Asenath	-11821
▁Blessed	-11822
▁Horites	-11823
▁Phichol	-11824
▁Timnath	-11825
▁blasted	-11826
▁changed	-11827
▁chariot	-11828
▁colours	-11829
▁consent	-11830
▁corrupt	-11831
▁counted	-11832
▁enemies	-11833
▁harvest	-11834
▁heavens	-11835
▁instead	-11836
▁knowest	-11837
▁laughed	-11838
▁messeng	-11839
▁mourned	-11840
▁planted	-11841
▁pottage	-11842
▁pressed	-11843
▁priests	-11844
▁princes	-11845
▁receive	-11846
▁refused	-11847
▁shekels	-11848
▁sojourn	-11849
▁stopped	-11850
▁strange	-11851
▁tarried	-11852
▁touched	-11853
▁अदुल्ला	-11854
▁कुटुम्ब	-11855
▁टुकड़ों	-11856
▁डालेंगे	-11857
▁तिम्नाथ	-11858
▁देखेंगे	-11859
▁देवदासी	-11860
▁निरन्तर	-11861
▁पहिरावा	-11862
▁प्रयोजन	-11863
▁बापदादे	-11864
▁बीजवाले	-11865
▁ब्याहकर	-11866
▁मछलियों	-11867
▁मूर्खता	-11868
▁योक्तान	-11869
▁राजधानी	-11870
▁व्यवहार	-11871
▁सामग्री	-11872
▁सामर्थी	-11873
▁सिद्दीम	-11874
▁सिन्दूर	-11875
▁सेनापति	-11876
▁हाकिमों	-11877
▁అంతస్థు	-11878
▁అందువలన	-11879
▁అదుల్లా	-11880
▁అన్యుని	-11881
▁ఆరువందల	-11882
▁ఆస్తిని	-11883
▁ఉండునని	-11884
▁ఏబెరును	-11885
▁కట్టెలు	-11886
▁కనబడును	-11887
▁కనానుకు	-11888
▁కనుగొని	-11889
▁కలిగెను	-11890
▁కాపరులు	-11891
▁కావలసిన	-11892
▁కొట్టిన	-11893
▁గాడిదలు	-11894
▁గాలిచేత	-11895
▁గుడారపు	-11896
▁గూర్చిన	-11897
▁గృహనిర్	-11898
▁గొడ్లను	-11899
▁గొప్పది	-11900
▁గొఱ్ఱలు	-11901
▁గోనెలను	-11902
▁చారలుగల	-11903
▁చూచుటకు	-11904
▁చేయించు	-11905
▁జనములకు	-11906
▁జీవముగల	-11907
▁జీవాత్మ	-11908
▁తరములలో	-11909
▁తిందువు	-11910
▁తెమ్మని	-11911
▁తెలిపిన	-11912
▁త్రోవను	-11913
▁త్వరపడి	-11914
▁దానిమీద	-11915
▁దాసీలను	-11916
▁దాసులతో	-11917
▁ధనుస్సు	-11918
▁నందరిని	-11919
▁నడిగెను	-11920
▁నాకొరకు	-11921
▁నిలువబె	-11922
▁నుంచెను	-11923
▁నోవహుతో	-11924
▁పగపట్టి	-11925
▁పరాక్రమ	-11926
▁పైనుండి	-11927
▁పొందిరి	-11928
▁పోతీఫెర	-11929
▁పోవుటకు	-11930
▁ఫలములను	-11931
▁బేతేలను	-11932
▁భాగములు	-11933
▁భూములను	-11934
▁మట్టుకు	-11935
▁మనకొరకు	-11936
▁మహలలేలు	-11937
▁మాత్రము	-11938
▁మెతూషెల	-11939
▁మేఘములో	-11940
▁యిరువది	-11941
▁యుండుము	-11942
▁యున్నది	-11943
▁యేమిటని	-11944
▁రాజులను	-11945
▁లందరును	-11946
▁లన్నియు	-11947
▁వచ్చుచు	-11948
▁వారందరు	-11949
▁వింటిని	-11950
▁వృక్షము	-11951
▁వెనుకకు	-11952
▁శయనించి	-11953
▁శయనించు	-11954
▁షేలహును	-11955
▁సంతానపు	-11956
▁స్తంభము	-11957
▁స్థిరపర	-11958
▁హనోకును	-11959
▁హమోరును	-11960
▁హోరీయుల	-11961
▁ಅಮೋರಿಯರ	-11962
▁ಅರಾಮಿಗೆ	-11963
▁ಅರಿಯೆನು	-11964
▁ಅವನನ್ನೂ	-11965
▁ಅವರಲ್ಲಿ	-11966
▁ಆತನನ್ನು	-11967
▁ಇದ್ದಾಳೆ	-11968
▁ಇನ್ನೂರು	-11969
▁ಇಲ್ಲಿಂದ	-11970
▁ಎರಡೆರಡು	-11971
▁ಎಲ್ಲಿಗೆ	-11972
▁ಏರಿಬಂದು	-11973
▁ಒಂಟೆಗಳೂ	-11974
▁ಒಟ್ಟಿಗೆ	-11975
▁ಒಪ್ಪಿಸಿ	-11976
▁ಒಳ್ಳೇದರ	-11977
▁ಕತ್ತೆಗಳ	-11978
▁ಕರೇಕಳುಹ	-11979
▁ಕಾನಾನನು	-11980
▁ಕೀಲನ್ನು	-11981
▁ಕೂಡಿದನು	-11982
▁ಕೇಡನ್ನು	-11983
▁ಕೈಗಳಿಂದ	-11984
▁ಕೊಡುವದು	-11985
▁ಗಿರ್ಗಾಷ	-11986
▁ತಂದೆಗಳೂ	-11987
▁ತರುವೆನು	-11988
▁ತಾಯಿಯಾದ	-11989
▁ತಿಳಿದದೆ	-11990
▁ತಿಳಿದಾಗ	-11991
▁ತೆರೆದನು	-11992
▁ತೋರಿಸುವ	-11993
▁ದಾಸರಿಗೆ	-11994
▁ದಿವಸಗಳು	-11995
▁ದೇವರಿಂದ	-11996
▁ದೇಶದಿಂದ	-11997
▁ದೊರೆತವು	-11998
▁ನೋಹನಿಂದ	-11999
▁ಪಕ್ಷಿಗಳ	-12000
▁ಫೀಕೋಲನೂ	-12001
▁ಬಲಿಪೀಠದ	-12002
▁ಬಾಸೆಮತಳ	-12003
▁ಬಿತ್ತುವ	-12004
▁ಬಿಲ್ಹಳು	-12005
▁ಬೇತೇಲಿನ	-12006
▁ಭಯಪಡಬೇಡ	-12007
▁ಮಂದೆಗಳು	-12008
▁ಮಂದೆಗಳೂ	-12009
▁ಮರವನ್ನೂ	-12010
▁ಮಾಡುವಾಗ	-12011
▁ಮೇಯಿಸುವ	-12012
▁ಯೋಸೇಫನೂ	-12013
▁ರನ್ನಾಗಿ	-12014
▁ಲಹೈರೋಯಿ	-12015
▁ಲೇಯಳಿಗೆ	-12016
▁ಲೋಟನಿಗೆ	-12017
▁ವಾಗಿದ್ದ	-12018
▁ವಾಸಮಾಡಿ	-12019
▁ವಿಾನುಗಳ	-12020
▁ವ್ಯಾಪಾರ	-12021
▁ಶ್ರೇಷ್ಠ	-12022
▁ಸಂತಾನವು	-12023
▁ಸತ್ಯವಂತ	-12024
▁ಸಾಕಷ್ಟು	-12025
▁ಸುತ್ತಲೂ	-12026
▁ಸೂರ್ಯನು	-12027
▁ಸೊಸೆಯಾದ	-12028
▁ಸೌಂದರ್ಯ	-12029
▁ಹಗೆಮಾಡಿ	-12030
▁ಹುಟ್ಟುವ	-12031
▁ಹೆಸರುಗಳ	-12032
▁ಹೇಗಂದರೆ	-12033
▁ಹೇಬೆಲನು	-12034
న్నప్పుడు	-12035
ములన్నియు	-12036
మైయుండెను	-12037
యైదేండ్లు	-12038
ಲೆತನವನ್ನು	-12039
ಾಗಿರುವೆನು	-12040
▁Amorites	-12041
▁Chaldees	-12042
▁Nebajoth	-12043
▁Rehoboth	-12044
▁audience	-12045
▁backward	-12046
▁bereaved	-12047
▁branches	-12048
▁conceive	-12049
▁consumed	-12050
▁despised	-12051
▁dwelling	-12052
▁eastward	-12053
▁embalmed	-12054
▁embraced	-12055
▁fourteen	-12056
▁gracious	-12057
▁iniquity	-12058
▁likeness	-12059
▁mistress	-12060
▁moreover	-12061
▁numbered	-12062
▁officers	-12063
▁overtook	-12064
▁pleasant	-12065
▁selfsame	-12066
▁separate	-12067
▁stronger	-12068
▁suffered	-12069
▁trespass	-12070
▁troubled	-12071
▁wouldest	-12072
▁wrestled	-12073
▁इस्राएली	-12074
▁कस्दियों	-12075
▁चिल्लाहट	-12076
▁जीवजन्तु	-12077
▁पहिचानकर	-12078
▁पहुंचाया	-12079
▁पोतीपेरा	-12080
▁लड़कियां	-12081
▁लौंडियों	-12082
▁शरीरधारी	-12083
▁स्वामिनी	-12084
▁అతనికిని	-12085
▁ఆకాశపక్ష	-12086
▁ఆదామునకు	-12087
▁ఆహారమును	-12088
▁ఇక్కడికి	-12089
▁ఇచ్చెదను	-12090
▁ఇష్మాయేల	-12091
▁ఉద్యోగము	-12092
▁ఎందుకనగా	-12093
▁ఎదుర్కొన	-12094
▁ఏబదిమంది	-12095
▁ఏలినవారి	-12096
▁కన్నులకు	-12097
▁కల్దీయుల	-12098
▁కిచ్చెను	-12099
▁కిష్టమైన	-12100
▁కొట్టును	-12101
▁చారలైనను	-12102
▁చున్నాను	-12103
▁చూచినేను	-12104
▁చూచిమీరు	-12105
▁చెప్పుము	-12106
▁చేయుదువా	-12107
▁చేసితివి	-12108
▁తీసికొను	-12109
▁తీసివేసి	-12110
▁తెలిపెను	-12111
▁తోడుకొని	-12112
▁త్రవ్విన	-12113
▁దహనబలికి	-12114
▁దాసులుగా	-12115
▁దినములైన	-12116
▁దూరమవును	-12117
▁దేశమంతటి	-12118
▁నాహోరును	-12119
▁నిబంధనకు	-12120
▁నున్నదని	-12121
▁పండుకొని	-12122
▁పక్షులను	-12123
▁పారిపోయి	-12124
▁పారిపోవు	-12125
▁పురుగును	-12126
▁పుష్టిగల	-12127
▁పూర్వికు	-12128
▁పైకెత్తి	-12129
▁పొట్టేళ్	-12130
▁పొలమందలి	-12131
▁పొలములలో	-12132
▁బలిపీఠము	-12133
▁బిగ్గరగా	-12134
▁బిల్హాను	-12135
▁మనుష్యుల	-12136
▁మాటలాడుట	-12137
▁మిద్యాను	-12138
▁మూడేండ్ల	-12139
▁మ్రొక్కి	-12140
▁యాకోబునా	-12141
▁యుందునని	-12142
▁యున్నావు	-12143
▁యెప్పుడు	-12144
▁యొక్తాను	-12145
▁రక్తమును	-12146
▁రాత్రిని	-12147
▁రానియెడల	-12148
▁లాబానును	-12149
▁లెమెకును	-12150
▁వారికిని	-12151
▁వారునీవు	-12152
▁వెన్నులు	-12153
▁వేరుపరచు	-12154
▁శరీరులలో	-12155
▁షెకెమును	-12156
▁సంపూర్తి	-12157
▁స్నేహితు	-12158
▁హిత్తీయు	-12159
▁ಅಣ್ಣನಿಗೆ	-12160
▁ಅದೇನಂದರೆ	-12161
▁ಅಬ್ರಾಮನೂ	-12162
▁ಇನ್ನೊಬ್ಬ	-12163
▁ಒಪ್ಪಿಸಿದ	-12164
▁ಕತ್ತೆಗಳು	-12165
▁ಕತ್ತೆಗಳೂ	-12166
▁ಕೆಟ್ಟದ್ದ	-12167
▁ಕೆಲಸವೇನು	-12168
▁ಕೆಳಗಿರುವ	-12169
▁ಕೇಳುವಂತೆ	-12170
▁ಕೈಗಳಲ್ಲಿ	-12171
▁ಕೊಡಲಿಲ್ಲ	-12172
▁ಕೊರಳನ್ನು	-12173
▁ಕೋಪಬಾರದೆ	-12174
▁ಕ್ರಮವಾಗಿ	-12175
▁ಗಾಳಿಯಿಂದ	-12176
▁ಗಿಲ್ಯಾದ್	-12177
▁ಜನರೆಲ್ಲಾ	-12178
▁ಜನಾಂಗವಾಗ	-12179
▁ಜೀವವುಳ್ಳ	-12180
▁ಜೀವವೃಕ್ಷ	-12181
▁ಜೀವಶ್ವಾಸ	-12182
▁ತನ್ನೊಳಗೆ	-12183
▁ತೆಗೆದುಕೋ	-12184
▁ನನ್ನನ್ನೂ	-12185
▁ನಾಲ್ಕನೆಯ	-12186
▁ನಿಲ್ಲಿಸಿ	-12187
▁ಪಕ್ಷಿಗಳೂ	-12188
▁ಪೋಟೀಫೆರನ	-12189
▁ಪ್ರತಿದಂಡ	-12190
▁ಬಿಡುಗಡೆಯ	-12191
▁ಬೆಳಕನ್ನು	-12192
▁ಬೇಟೆಯಾಡಿ	-12193
▁ಮತ್ತೊಬ್ಬ	-12194
▁ಮಹಲಲೇಲನು	-12195
▁ಮಾಡುವಂತೆ	-12196
▁ಮಾತನಾಡುವ	-12197
▁ಮುನ್ನೂರು	-12198
▁ಲಕ್ಷಣವಾದ	-12199
▁ಲೇಯಳನ್ನೂ	-12200
▁ಲೋಟನನ್ನೂ	-12201
▁ವಾಸಮಾಡುವ	-12202
▁ಸಮಯದಲ್ಲಿ	-12203
▁ಸಿದ್ದೀಮ್	-12204
▁ಸುಗಂಧದ್ರ	-12205
▁ಸೈನ್ಯಾಧಿ	-12206
▁ಸ್ಥಳಕ್ಕೂ	-12207
▁ಸ್ಥಿರಮಾಡ	-12208
▁ಹಣಕೊಟ್ಟು	-12209
▁ಹೆಣ್ಣಾಗಿ	-12210
▁ಹೆಸರುಗಳು	-12211
▁ಹೇಳಿದೆವು	-12212
▁ಹೇಳಿದ್ದು	-12213
▁ಹೇಳುವವರು	-12214
▁ಹೋಗಬಹುದು	-12215
▁ಹೋಗುವಂತೆ	-12216
కుండునట్లు	-12217
యొద్దనుండి	-12218
ింపబడుదురు	-12219
ృద్ధిపొంది	-12220
ಕೊಳ್ಳಲಿಲ್ಲ	-12221
ಮಾಡುವದಿಲ್ಲ	-12222
ವಾದದ್ದರಿಂದ	-12223
ಿದ್ದೇಯಾದರೆ	-12224
ಿಸಲ್ಪಟ್ಟವು	-12225
ುತ್ತಿದ್ದವು	-12226
ೆಯುಳ್ಳದ್ದು	-12227
▁Canaanite	-12228
▁concubine	-12229
▁obeisance	-12230
▁plenteous	-12231
▁separated	-12232
▁sevenfold	-12233
▁अन्धियारे	-12234
▁कबरिस्तान	-12235
▁खेलनेवाला	-12236
▁ज्योतियां	-12237
▁निवासियों	-12238
▁प्रतिष्ठा	-12239
▁बतानेवाला	-12240
▁बान्धूंगा	-12241
▁అంగలార్చు	-12242
▁అరణ్యములో	-12243
▁ఇశ్శాఖారు	-12244
▁ఎవరియొద్ద	-12245
▁కట్టుకొని	-12246
▁కనానీయులు	-12247
▁కప్పగించి	-12248
▁కలిగినదంత	-12249
▁కుమారులగు	-12250
▁కుమారులము	-12251
▁కుమార్తెల	-12252
▁గుడారములు	-12253
▁గుడారములో	-12254
▁గొమొఱ్ఱాల	-12255
▁గోప్యాంగచ	-12256
▁చింపుకొని	-12257
▁చూడకూడదని	-12258
▁చెప్పినది	-12259
▁చేసికొందు	-12260
▁చేసినయెడల	-12261
▁జంతువులను	-12262
▁తండ్రివలన	-12263
▁తెలియలేదు	-12264
▁తెలిసికొన	-12265
▁దేవునివలన	-12266
▁నమస్కారము	-12267
▁నాహోరునకు	-12268
▁నిర్మించి	-12269
▁పిలువనంపి	-12270
▁పుత్రహీను	-12271
▁పెద్దవాడు	-12272
▁పొందవలెను	-12273
▁పోవునట్లు	-12274
▁ప్రతివాడు	-12275
▁ప్రేమించి	-12276
▁బంధువులను	-12277
▁బ్రదికెను	-12278
▁భూమియొక్క	-12279
▁మాటలాడుచు	-12280
▁మార్గమును	-12281
▁లహాయిరోయి	-12282
▁వచ్చినీవు	-12283
▁వారందరిలో	-12284
▁వారితోకూడ	-12285
▁విరోధముగా	-12286
▁వెళ్లుదము	-12287
▁సంతతికిని	-12288
▁సన్నిధిలో	-12289
▁సహోదరులకు	-12290
▁స్తంభముగా	-12291
▁స్తంభమును	-12292
▁స్థిరపరచు	-12293
▁ಅರಾಮ್ಯನಾದ	-12294
▁ಅವನೊಬ್ಬನೇ	-12295
▁ಆಜ್ಞಾಪಿಸಿ	-12296
▁ಇಳುಕೊಂಡನು	-12297
▁ಊಟಮಾಡಿದರು	-12298
▁ಎಂದೆಂದಿಗೂ	-12299
▁ಎಫ್ರಾಯಾಮನ	-12300
▁ಎಫ್ರಾಯಾಮ್	-12301
▁ಒಂಟೆಗಳಿಗೂ	-12302
▁ಒಬ್ಬನನ್ನು	-12303
▁ಕತ್ತರಿಸುವ	-12304
▁ಕತ್ತಿಯಿಂದ	-12305
▁ಕಳುಹಿಸಿರಿ	-12306
▁ಕಾನಾನ್ಯರೂ	-12307
▁ಕುಟುಂಬಗಳು	-12308
▁ಕೊಂದುಹಾಕಿ	-12309
▁ಗಂಡಸರೆಲ್ಲ	-12310
▁ತಕ್ಕೊಂಡರೆ	-12311
▁ತ್ತಿದ್ದನು	-12312
▁ದೇಶಗಳಲ್ಲಿ	-12313
▁ನಾವೆಯಲ್ಲಿ	-12314
▁ನಾಹೋರನಿಗೆ	-12315
▁ನಿಜವಾಗಿಯೂ	-12316
▁ನಿನಗೋಸ್ಕರ	-12317
▁ನಿನ್ನಲ್ಲಿ	-12318
▁ನೂರೈವತ್ತು	-12319
▁ಪಲ್ಯವನ್ನೂ	-12320
▁ಪುಷ್ಟಿಯಾದ	-12321
▁ಪ್ರಮಾಣಮಾಡ	-12322
▁ಬರುವದಕ್ಕೆ	-12323
▁ಬಾಧ್ಯವಾಗಿ	-12324
▁ಮಂದಿಯನ್ನು	-12325
▁ಮಂದೆಗಳಿಗೆ	-12326
▁ಮಣ್ಣಿನಿಂದ	-12327
▁ಮನೆಯವರಿಗೂ	-12328
▁ಮಾಡಿಕೊಂಡು	-12329
▁ಮಾಡುವದಕ್ಕ	-12330
▁ಮಾತುಗಳನ್ನ	-12331
▁ಮುಚ್ಚಿದರು	-12332
▁ಮೇಘಗಳಲ್ಲಿ	-12333
▁ಯಜಮಾನನಿಗೆ	-12334
▁ವಿಧೇಯನಾಗಿ	-12335
▁ಸಂತೋಷದಿಂದ	-12336
▁ಸಂಪಾದಿಸಿದ	-12337
▁ಸಂಬಳವನ್ನು	-12338
▁ಸಹೋದರರಿಗೂ	-12339
▁ಸಹೋದರಿಯಾದ	-12340
▁ಸಿಕ್ಕಿದರೆ	-12341
▁ಸೃಷ್ಟಿಸಿದ	-12342
▁ಹಸುಗಳನ್ನು	-12343
▁ಹಾಗರಳನ್ನು	-12344
▁ಹೀಗಿರಲಾಗಿ	-12345
▁ಹುಲ್ಲನ್ನೂ	-12346
▁ಹೆತ್ತಿದ್ದ	-12347
లన్నిటిలోను	-12348
ింపబడునుగాక	-12349
ಕೊಂಡಿದ್ದೇನೆ	-12350
ವರಾಗಿದ್ದೇವೆ	-12351
ವರೆಲ್ಲರನ್ನೂ	-12352
ವಾಗಿದ್ದರಿಂದ	-12353
ಿಸಲ್ಪಟ್ಟಿತು	-12354
▁Adullamite	-12355
▁generation	-12356
▁households	-12357
▁restrained	-12358
▁throughout	-12359
▁worshipped	-12360
▁कब्रिस्तान	-12361
▁पिलानेहारे	-12362
▁बुद्धिमान्	-12363
▁అతనిగూర్చి	-12364
▁అనినప్పుడు	-12365
▁అబ్రాహామను	-12366
▁అమోరీయులను	-12367
▁ఆహారమిచ్చి	-12368
▁కనబడినయెడల	-12369
▁కనినప్పుడు	-12370
▁కాపరులకును	-12371
▁కాపురమున్న	-12372
▁కుమారుడును	-12373
▁కుమార్తెను	-12374
▁గర్భవాసమున	-12375
▁గోనెమూతిలో	-12376
▁చెప్పితిని	-12377
▁చేర్చబడెను	-12378
▁చేసెదననెను	-12379
▁తినివేసెను	-12380
▁తెలియచెప్ప	-12381
▁దేశమందున్న	-12382
▁నాలుగువందల	-12383
▁పట్టణములలో	-12384
▁పెట్టెదనని	-12385
▁ప్రచండముగా	-12386
▁బలాత్కారము	-12387
▁భారమైనందున	-12388
▁భూమిమీదికి	-12389
▁మందలన్నియు	-12390
▁మిస్రాయిము	-12391
▁యెదుటనుండి	-12392
▁యొద్దనున్న	-12393
▁రాజసంరక్షక	-12394
▁వచ్చితిరని	-12395
▁వచ్చియున్న	-12396
▁విచిత్రమైన	-12397
▁విస్తరించి	-12398
▁వేసికొనెను	-12399
▁వ్రేలాడదీయ	-12400
▁షిమ్యోనును	-12401
▁సంవత్సరమున	-12402
▁సమాధానముగా	-12403
▁ಅಪರಾಧವನ್ನು	-12404
▁ಅಬೀಮೆಲೆಕನೂ	-12405
▁ಅರಾಮಿನಲ್ಲಿ	-12406
▁ಅರುವತ್ತೈದು	-12407
▁ಅವನಿಗೋಸ್ಕರ	-12408
▁ಅವಲಕ್ಷಣವಾದ	-12409
▁ಇಟ್ಟುಕೊಂಡು	-12410
▁ಉಪಪತ್ನಿಯಾದ	-12411
▁ಐಗುಪ್ತದಿಂದ	-12412
▁ಒಡಂಬಡಿಕೆಗೆ	-12413
▁ಒಪ್ಪಿಸಿದನು	-12414
▁ಕತ್ತಿಯನ್ನೂ	-12415
▁ಕರೆಯಲ್ಪಡದೆ	-12416
▁ಕಾಯಿನನನ್ನು	-12417
▁ಕಾರ್ಯವನ್ನು	-12418
▁ಕುಮಾರರನ್ನು	-12419
▁ಕುರಿಗಳನ್ನು	-12420
▁ಕೇಳಿಸಿಕೊಂಡ	-12421
▁ಕೊಡುವದಕ್ಕೆ	-12422
▁ಕೋಲುಗಳನ್ನು	-12423
▁ಗೂಢಚಾರರಲ್ಲ	-12424
▁ಜನಾಂಗವಾಗುವ	-12425
▁ತಕ್ಕೊಳ್ಳಲಿ	-12426
▁ತಿಳಿಸಲಿಲ್ಲ	-12427
▁ತುಂಬಿಕೊಂಡು	-12428
▁ತ್ವರೆಪಟ್ಟು	-12429
▁ದೇಶದಲ್ಲಿಯೂ	-12430
▁ನೋಡುವದಕ್ಕೆ	-12431
▁ಪಟ್ಟಣದಲ್ಲಿ	-12432
▁ಪ್ರಮಾಣದಿಂದ	-12433
▁ಪ್ರಮಾಣಮಾಡಿ	-12434
▁ಬೆಟ್ಟದಲ್ಲಿ	-12435
▁ಮಂದಿಗೋಸ್ಕರ	-12436
▁ಮಂದೆಗಳನ್ನು	-12437
▁ಮನುಷ್ಯನಿಗೆ	-12438
▁ಮಾಡುತ್ತೇನೆ	-12439
▁ಮಾಡುವದಕ್ಕೂ	-12440
▁ಮಾಡುವದನ್ನು	-12441
▁ಮುಖ್ಯಸ್ಥನು	-12442
▁ಮೆತೂಷೆಲಹನು	-12443
▁ಮೊದಲುಗೊಂಡು	-12444
▁ರಾಹೇಲಳನ್ನು	-12445
▁ರಾಹೇಲಳನ್ನೂ	-12446
▁ವಾಸಮಾಡಿದನು	-12447
▁ವಾಸಮಾಡಿದರು	-12448
▁ಸಹೋದರರಲ್ಲಿ	-12449
▁ಸಾಯುತ್ತೇನೆ	-12450
▁ಸುತ್ತಲಿರುವ	-12451
▁ಹೇಳಿದಂತೆಯೇ	-12452
▁ಹೇಳಿದ್ದಾನೆ	-12453
పెట్టుకొనెను	-12454
ಕೊಳ್ಳುತ್ತೇನೆ	-12455
ದ್ದೆಲ್ಲವನ್ನೂ	-12456
▁continually	-12457
▁inhabitants	-12458
▁interpreted	-12459
▁leanfleshed	-12460
▁possessions	-12461
▁yesternight	-12462
▁అత్యధికముగా	-12463
▁అప్పగించెను	-12464
▁ఎనిమిదివందల	-12465
▁ఐగుప్తురాజు	-12466
▁కదొర్లాయోమె	-12467
▁కనబడుదురేమో	-12468
▁కూడినప్పుడు	-12469
▁కూర్చుండెను	-12470
▁చెప్పితివిు	-12471
▁చెప్పుమనెను	-12472
▁చేసినప్పుడు	-12473
▁తిమ్నాతునకు	-12474
▁తోడైయుండెను	-12475
▁దానిలోనున్న	-12476
▁దేశమంతటిమీద	-12477
▁నిలుచుండెను	-12478
▁నివసించుటకు	-12479
▁పారుచున్నది	-12480
▁యెహోవాఇదిగో	-12481
▁వస్త్రములను	-12482
▁వారినందరిని	-12483
▁వారియొద్దకు	-12484
▁వృక్షఫలములు	-12485
▁సహోదరులందరి	-12486
▁సాయంకాలమందు	-12487
▁సింధూరవృక్ష	-12488
▁ಅಪ್ಪಣೆಕೊಟ್ಟ	-12489
▁ಆಕಾಶದೊಳಗಿಂದ	-12490
▁ಇಲ್ಲದಿದ್ದರೆ	-12491
▁ಉಳಿದಿದ್ದಾನೆ	-12492
▁ಒಳ್ಳೆಯದನ್ನು	-12493
▁ಕಣ್ಣುಗಳನ್ನು	-12494
▁ಕತ್ತೆಗಳನ್ನು	-12495
▁ಕುಪ್ಪೆಯನ್ನು	-12496
▁ಕ್ಷೇಮಸಮಾಚಾರ	-12497
▁ಗುಡಾರಗಳನ್ನು	-12498
▁ಗುಡಾರಗಳಲ್ಲಿ	-12499
▁ಪಟ್ಟಣಗಳಲ್ಲಿ	-12500
▁ಪ್ರೀತಿಮಾಡುವ	-12501
▁ಬೇರ್ಷೆಬಕ್ಕೆ	-12502
▁ಮನಸ್ಸೆಯನ್ನೂ	-12503
▁ಮನುಷ್ಯರನ್ನು	-12504
▁ಮಾತನಾಡಿದ್ದೇ	-12505
▁ರೆಬೆಕ್ಕಳಿಗೆ	-12506
▁ವಿಷಯದಲ್ಲಿಯೂ	-12507
▁ಸಹೋದರರಿಗಿಂತ	-12508
▁ಸುದ್ದಿಯನ್ನು	-12509
▁ಸ್ವಪ್ನದಲ್ಲಿ	-12510
▁ಹಾರಾನಿನಲ್ಲಿ	-12511
▁ಹೆಂಡತಿಯಾದಳು	-12512
▁अदुल्लामवासी	-12513
▁ఆజ్ఞాపించెను	-12514
▁చేసియున్నాను	-12515
▁జ్యేష్ఠత్వము	-12516
▁దగ్గరకువచ్చి	-12517
▁ప్రవేశించెను	-12518
▁బావిమీదనుండి	-12519
▁బెయేర్షెబాకు	-12520
▁బెయేర్షెబాలో	-12521
▁బ్రదుకునట్లు	-12522
▁భూమిమీదనుండు	-12523
▁భూమిమీదనున్న	-12524
▁వెళ్లిపోయెను	-12525
▁వెళ్లుచుండగా	-12526
▁సాగిలపడుదురు	-12527
▁సేనాధిపతియైన	-12528
▁ಉಗ್ರಾಣಿಕನಿಗೆ	-12529
▁ಐಗುಪ್ತ್ಯರಿಗೆ	-12530
▁ಜೀವಜಂತುಗಳಿಗೂ	-12531
▁ತಿನ್ನುವದಕ್ಕೆ	-12532
▁ತಿಳಿದಿರಲಿಲ್ಲ	-12533
▁ತೆಗೆದುಕೊಂಡನು	-12534
▁ದೇಶವನ್ನೆಲ್ಲಾ	-12535
▁ಪಾರಿವಾಳವನ್ನು	-12536
▁ಬೇರ್ಷೆಬದಲ್ಲಿ	-12537
▁ವಾಸವಾಗಿದ್ದರು	-12538
▁ವಿಗ್ರಹಗಳನ್ನು	-12539
▁ವಿಚಾರಿಸುವೆನು	-12540
▁ಸೆರೆಮನೆಯಲ್ಲಿ	-12541
▁ಸ್ಥಾಪಿಸುವೆನು	-12542
▁ಹಿಮ್ಮಡಿಯನ್ನು	-12543
▁ಹೆಂಡತಿಯರನ್ನು	-12544
▁womenservants	-12545
▁ఇశ్రాయేలీయులు	-12546
▁గుడారములోనికి	-12547
▁గొఱ్ఱపిల్లలలో	-12548
▁తీసికొనివచ్చి	-12549
▁పరుగెత్తికొని	-12550
▁పాతిపెట్టుమని	-12551
▁పిలిపించినీవు	-12552
▁ప్రాణమువిడిచి	-12553
▁వాటన్నిటిలోను	-12554
▁ಕಟ್ಟಿಗೆಗಳನ್ನು	-12555
▁ಕುರಿಮರಿಗಳನ್ನು	-12556
▁ತಿನ್ನಬಾರದೆಂದು	-12557
▁ಪ್ರೀತಿಮಾಡಿದನು	-12558
▁ರಾಹೇಲಳಿಗೋಸ್ಕರ	-12559
▁ಸ್ವರವನ್ನೆತ್ತಿ	-12560
▁అభివృద్ధిపొంది	-12561
▁తీసికొనిపోయెను	-12562
▁ಐಗುಪ್ತದೇಶದಲ್ಲಿ	-12563
▁ಜಾತಿಗನುಸಾರವಾಗಿ	-12564
▁ತಿಳುಕೊಳ್ಳುವೆನು	-12565
▁ಪ್ರವಾಸಿಯಾಗಿರುವ	-12566
▁ಬೆತ್ತಲೆತನವನ್ನು	-12567
▁ಬೆನ್ಯಾವಿಾನನಿಗೆ	-12568
▁ಮುದಿಪ್ರಾಯದಲ್ಲಿ	-12569
▁ಹೆಂಡತಿಯರನ್ನಾಗಿ	-12570
▁ద్రాక్షావల్లికి	-12571
▁ಜ್ಞಾಪಕಮಾಡಿಕೊಂಡು	-12572
▁ಬಿಡುಗಡೆಯಾಗಿರುವಿ	-12573
.)	-12574
?)	-12575
cl	-12576
cr	-12577
ew	-12578
ez	-12579
mb	-12580
mi	-12581
og	-12582
pe	-12583
rh	-12584
rn	-12585
sc	-12586
uh	-12587
uj	-12588
ंद	-12589
ंा	-12590
आर	-12591
आल	-12592
ईस	-12593
कट	-12594
कै	-12595
ग्	-12596
जी	-12597
टल	-12598
डी	-12599
तन	-12600
थी	-12601
दक	-12602
फु	-12603
बस	-12604
भि	-12605
मल	-12606
मि	-12607
रब	-12608
रम	-12609
रस	-12610
लट	-12611
शि	-12612
हन	-12613
हम	-12614
కడ	-12615
కూ	-12616
జన	-12617
టీ	-12618
డె	-12619
డో	-12620
తర	-12621
ధవ	-12622
పట	-12623
భయ	-12624
భు	-12625
భూ	-12626
మం	-12627
మృ	-12628
యక	-12629
రట	-12630
రత	-12631
రస	-12632
రూ	-12633
వం	-12634
వగ	-12635
శర	-12636
సన	-12637
సీ	-12638
సే	-12639
హస	-12640
హే	-12641
ియ	-12642
ూర	-12643
ేశ	-12644
ోధ	-12645
ోర	-12646
ಇಸ	-12647
ಕಡ	-12648
ಕಾ	-12649
ಚು	-12650
ಟೀ	-12651
ಡರ	-12652
ಢನ	-12653
ಣದ	-12654
ಣು	-12655
ಥೆ	-12656
ದನ	-12657
ದೂ	-12658
ನನ	-12659
ಫೀ	-12660
ಬರ	-12661
ಭೂ	-12662
ಮು	-12663
ಯೇ	-12664
ರಮ	-12665
ರೇ	-12666
ಳವ	-12667
ಳೋ	-12668
ಷನ	-12669
ಹಮ	-12670
ಹಷ	-12671
ಹೇ	-12672
ಾಭ	-12673
ಿಗ	-12674
ೀಘ	-12675
ೂದ	-12676
ೆಪ	-12677
ೆಹ	-12678
ೈಲ	-12679
ೈಸ	-12680
ೊಗ	-12681
ೋಧ	-12682
ೋಮ	-12683
▁!	-12684
▁̧	-12685
▁ऋ	-12686
aal	-12687
abt	-12688
alf	-12689
alk	-12690
alm	-12691
als	-12692
asc	-12693
bal	-12694
bid	-12695
bit	-12696
bor	-12697
cel	-12698
ded	-12699
der	-12700
egr	-12701
ens	-12702
err	-12703
hab	-12704
hem	-12705
hon	-12706
ibs	-12707
ier	-12708
iim	-12709
ilg	-12710
ils	-12711
lar	-12712
let	-12713
lor	-12714
lts	-12715
man	-12716
mar	-12717
mer	-12718
mon	-12719
nor	-12720
ows	-12721
phr	-12722
rom	-12723
rrh	-12724
str	-12725
syr	-12726
ucc	-12727
uck	-12728
uni	-12729
ute	-12730
uth	-12731
veh	-12732
ंता	-12733
ंहु	-12734
एगी	-12735
ककर	-12736
कान	-12737
कुन	-12738
कुल	-12739
केल	-12740
कैन	-12741
कोत	-12742
क्क	-12743
क्र	-12744
गले	-12745
गार	-12746
गिन	-12747
ग्य	-12748
चीत	-12749
जाई	-12750
जूब	-12751
झता	-12752
टपट	-12753
ठाई	-12754
ढता	-12755
तरह	-12756
तरे	-12757
तले	-12758
ताम	-12759
त्न	-12760
त्र	-12761
दंग	-12762
दकर	-12763
दते	-12764
दाई	-12765
दाल	-12766
देन	-12767
ध्य	-12768
नैम	-12769
पटा	-12770
पशु	-12771
पहर	-12772
पाय	-12773
पीम	-12774
पेल	-12775
बली	-12776
बल्	-12777
बहु	-12778
बुल	-12779
बूस	-12780
ब्द	-12781
मिन	-12782
मोल	-12783
योक	-12784
रखे	-12785
रती	-12786
रात	-12787
राद	-12788
रेस	-12789
र्य	-12790
लके	-12791
लाई	-12792
लीं	-12793
लेम	-12794
वास	-12795
वाह	-12796
सुर	-12797
ादक	-12798
ि्ड	-12799
ींच	-12800
ीरे	-12801
ूएल	-12802
ूमा	-12803
ेरा	-12804
ैद्	-12805
ैसे	-12806
ोन्	-12807
ोरे	-12808
ोहर	-12809
्वे	-12810
ంటే	-12811
ండన	-12812
ందే	-12813
కాయ	-12814
కాల	-12815
కిట	-12816
కేక	-12817
క్ర	-12818
గను	-12819
గర్	-12820
గాష	-12821
ఘ్ర	-12822
చ్ఛ	-12823
ఠదు	-12824
డము	-12825
డల్	-12826
డుట	-12827
డున	-12828
డెవ	-12829
డ్గ	-12830
ఢని	-12831
ణను	-12832
తలు	-12833
తిశ	-12834
తీర	-12835
త్ప	-12836
దకు	-12837
దను	-12838
దిక	-12839
దిగ	-12840
నీవ	-12841
నేన	-12842
పాయ	-12843
పైన	-12844
ఫరో	-12845
ఫాయ	-12846
ఫ్ర	-12847
బ్త	-12848
భయు	-12849
భాగ	-12850
మృగ	-12851
మేక	-12852
మేల	-12853
మోన	-12854
మ్ర	-12855
యదే	-12856
యని	-12857
రాల	-12858
ర్జ	-12859
లాగ	-12860
లెహ	-12861
వంట	-12862
వదూ	-12863
వము	-12864
వాం	-12865
వేల	-12866
వేష	-12867
ష్క	-12868
హతు	-12869
హదు	-12870
హీన	-12871
హెబ	-12872
ికీ	-12873
ీరా	-12874
ీషు	-12875
ుంక	-12876
ుడు	-12877
ూయా	-12878
ెదు	-12879
ెపో	-12880
ైదీ	-12881
ోకు	-12882
్మర	-12883
్యవ	-12884
ಂಕರ	-12885
ಂಟೇ	-12886
ಂಥಾ	-12887
ಂದೇ	-12888
ಂಪೂ	-12889
ಕರು	-12890
ಕೆಲ	-12891
ಗಿಡ	-12892
ಗೈಯ	-12893
ಗೊಸ	-12894
ಗೋಣ	-12895
ಗ್ದ	-12896
ಗ್ಮ	-12897
ಚನೆ	-12898
ಟೂರ	-12899
ಡಿಕ	-12900
ಡೋಣ	-12901
ತಂದ	-12902
ತನದ	-12903
ತರು	-12904
ತಲಾ	-12905
ತಾಯ	-12906
ತಿನ	-12907
ತೆಯ	-12908
ತೋಟ	-12909
ಥ್ಯ	-12910
ದರಿ	-12911
ದರು	-12912
ದವರ	-12913
ದಿಯ	-12914
ದೆಸ	-12915
ನಾಗ	-12916
ನೆಲ	-12917
ಪತಿ	-12918
ಪಾದ	-12919
ಫರೋ	-12920
ಫಾಯ	-12921
ಫೆಲ	-12922
ಬನೂ	-12923
ಬಾಲ	-12924
ಬೇಕ	-12925
ಬೋಳ	-12926
ಬ್ತ	-12927
ಭೂಮ	-12928
ಮವು	-12929
ಮಸ್	-12930
ಮೃಗ	-12931
ಯವು	-12932
ಯವೂ	-12933
ಯಾಯ	-12934
ರಸ್	-12935
ರೀಮ	-12936
ರೂಬ	-12937
ಲಾಬ	-12938
ಲೆದ	-12939
ಲೆಹ	-12940
ಳಲಿ	-12941
ಳ್ಹ	-12942
ವರೆ	-12943
ವಳಿ	-12944
ವಾಬ	-12945
ವಿದ	-12946
ವೇಷ	-12947
ಶಿರ	-12948
ಸಂದ	-12949
ಸ್ರ	-12950
ಸ್ಸ	-12951
ಹಾಬ	-12952
ಹಾಸ	-12953
ಹಿತ	-12954
ಹೀನ	-12955
ಾಣೆ	-12956
ಾತಿ	-12957
ಾನಾ	-12958
ಾನಿ	-12959
ಾಬೆ	-12960
ಾರನ	-12961
ಿರು	-12962
ೀಯರ	-12963
ೂತ್	-12964
ೂರದ	-12965
ೂಲೂ	-12966
ೆಗಳ	-12967
ೆಬಹ	-12968
ೇಕಿ	-12969
ೈವೋ	-12970
ೋಜನ	-12971
ೋತನ	-12972
ೋದಯ	-12973
ೋನಿ	-12974
ೋಹೇ	-12975
್ಡಿ	-12976
▁Eu	-12977
▁Ex	-12978
▁Lo	-12979
▁Sw	-12980
▁ce	-12981
▁ly	-12982
▁sk	-12983
▁अभ	-12984
▁अश	-12985
▁अस	-12986
▁आन	-12987
▁ओट	-12988
▁ओस	-12989
▁कई	-12990
▁कत	-12991
▁कप	-12992
▁गू	-12993
▁घो	-12994
▁छठ	-12995
▁छी	-12996
▁टे	-12997
▁ढि	-12998
▁तन	-12999
▁तर	-13000
▁त्	-13001
▁दम	-13002
▁दश	-13003
▁नथ	-13004
▁पश	-13005
▁पौ	-13006
▁बछ	-13007
▁बज	-13008
▁भू	-13009
▁भौ	-13010
▁सत	-13011
▁सह	-13012
▁सै	-13013
▁हव	-13014
▁हस	-13015
▁అమ	-13016
▁ఆన	-13017
▁ఏడ	-13018
▁జో	-13019
▁దల	-13020
▁నొ	-13021
▁బస	-13022
▁బూ	-13023
▁భర	-13024
▁మత	-13025
▁యధ	-13026
▁యహ	-13027
▁రీ	-13028
▁ర్	-13029
▁లా	-13030
▁లి	-13031
▁వయ	-13032
▁వు	-13033
▁వృ	-13034
▁షూ	-13035
▁సజ	-13036
▁హస	-13037
▁ಅಯ	-13038
▁ಆಟ	-13039
▁ಆಡ	-13040
▁ಇಡ	-13041
▁ಎಲ	-13042
▁ಏಫ	-13043
▁ಗೇ	-13044
▁ಜೇ	-13045
▁ತಮ	-13046
▁ದಣ	-13047
▁ನಯ	-13048
▁ಪದ	-13049
▁ಪೀ	-13050
▁ಬೈ	-13051
▁ಮಳ	-13052
▁ಯಹ	-13053
▁ಳಗ	-13054
▁ವೀ	-13055
▁ಹಚ	-13056
able	-13057
agab	-13058
ahai	-13059
aims	-13060
alem	-13061
ales	-13062
alth	-13063
amed	-13064
aned	-13065
aped	-13066
ares	-13067
asar	-13068
atam	-13069
ates	-13070
aveh	-13071
aven	-13072
cain	-13073
cend	-13074
cern	-13075
cess	-13076
cher	-13077
come	-13078
crif	-13079
ebah	-13080
ebus	-13081
edst	-13082
epho	-13083
esse	-13084
fect	-13085
icer	-13086
ices	-13087
idal	-13088
ides	-13089
ieth	-13090
iful	-13091
iles	-13092
ills	-13093
inew	-13094
ioch	-13095
ions	-13096
irah	-13097
isch	-13098
lory	-13099
ofit	-13100
ones	-13101
orns	-13102
osed	-13103
owry	-13104
pect	-13105
phel	-13106
roop	-13107
rung	-13108
seer	-13109
shan	-13110
ugit	-13111
uhim	-13112
uise	-13113
uked	-13114
ulch	-13115
umah	-13116
ures	-13117
urse	-13118
vail	-13119
wife	-13120
zron	-13121
ंघकर	-13122
ंजीर	-13123
कबोर	-13124
केला	-13125
गुणा	-13126
टनों	-13127
ड़वे	-13128
ड़ाई	-13129
ड़ित	-13130
ढ़ाप	-13131
ढ़ों	-13132
ण्डल	-13133
तरने	-13134
तूरा	-13135
द्यम	-13136
धराई	-13137
धर्म	-13138
नदेन	-13139
नातन	-13140
न्डी	-13141
न्दे	-13142
न्हा	-13143
पूर्	-13144
फुल्	-13145
बड़ी	-13146
बन्ध	-13147
मारी	-13148
म्मा	-13149
याएल	-13150
यासी	-13151
रन्त	-13152
रहित	-13153
राना	-13154
रोखे	-13155
र्गा	-13156
र्बा	-13157
र्मा	-13158
लिया	-13159
ल्की	-13160
ल्दा	-13161
वान्	-13162
व्वी	-13163
शाएल	-13164
श्या	-13165
सुली	-13166
स्ते	-13167
हुरे	-13168
हेतू	-13169
ानवे	-13170
ितों	-13171
िहान	-13172
ीनवे	-13173
ूंगी	-13174
ूर्त	-13175
ूशाम	-13176
ेष्ठ	-13177
ोंआर	-13178
ौतों	-13179
्रोद	-13180
्वंश	-13181
ంటున	-13182
ండము	-13183
ంతటి	-13184
ంతము	-13185
ందలి	-13186
ంధ్ర	-13187
ంబడి	-13188
ఆకాశ	-13189
ఏలిన	-13190
కులు	-13191
కోలు	-13192
క్బో	-13193
ఖరము	-13194
గడగా	-13195
గనుక	-13196
గలము	-13197
గెలు	-13198
గ్గు	-13199
గ్ని	-13200
చమైన	-13201
చిరి	-13202
చును	-13203
చూడు	-13204
జనుల	-13205
జలము	-13206
జ్వా	-13207
టయైన	-13208
టిబు	-13209
టీసు	-13210
డనైన	-13211
డియు	-13212
డిలో	-13213
డివి	-13214
డుగు	-13215
డునై	-13216
తనతో	-13217
తాము	-13218
తివో	-13219
తులు	-13220
తులై	-13221
తూరా	-13222
తూషా	-13223
తేనే	-13224
త్రా	-13225
దగుట	-13226
దాలు	-13227
దాసీ	-13228
దాసు	-13229
దిరి	-13230
దోషు	-13231
ద్యు	-13232
ద్రో	-13233
ధ్యత	-13234
నమున	-13235
నముల	-13236
నాటి	-13237
నిగా	-13238
నిగి	-13239
నీయు	-13240
నేనే	-13241
పదము	-13242
పాను	-13243
పాలన	-13244
పును	-13245
పేరు	-13246
పేలు	-13247
పైని	-13248
ప్పక	-13249
బలము	-13250
బల్క	-13251
బాకు	-13252
బావి	-13253
బేలు	-13254
బ్బు	-13255
భయపడ	-13256
మధ్య	-13257
మయిన	-13258
మార్	-13259
మిదే	-13260
మెరు	-13261
మైతే	-13262
మ్మట	-13263
మ్మా	-13264
మ్మి	-13265
మ్యా	-13266
మ్రో	-13267
యాకో	-13268
యారు	-13269
యింట	-13270
యిని	-13271
యుడు	-13272
యువు	-13273
యేడవ	-13274
రండి	-13275
రచిన	-13276
రనగా	-13277
రాడి	-13278
రేమి	-13279
ర్చి	-13280
లచేత	-13281
లాడు	-13282
లిగి	-13283
లుకా	-13284
లువల	-13285
ల్కీ	-13286
వద్ద	-13287
వనగా	-13288
వారణ	-13289
వారా	-13290
వికి	-13291
విడి	-13292
వియు	-13293
విరి	-13294
వి్వ	-13295
వైతే	-13296
వైపు	-13297
వ్లూ	-13298
శాలి	-13299
షాము	-13300
ష్టు	-13301
ష్మా	-13302
సాని	-13303
సికి	-13304
స్తి	-13305
స్లూ	-13306
ారంభ	-13307
ావని	-13308
ాహ్న	-13309
ింది	-13310
ినది	-13311
ినను	-13312
ుజను	-13313
ూడను	-13314
ెదవా	-13315
ెలని	-13316
ేమను	-13317
ొకటి	-13318
ొరకు	-13319
ోనను	-13320
్వగా	-13321
ಂತ್ರ	-13322
ಂದಿರ	-13323
ಂಭಾಗ	-13324
ಅವನು	-13325
ಅವಳು	-13326
ಇವರು	-13327
ಇಸಾಕ	-13328
ಕನಾದ	-13329
ಕರಿಸ	-13330
ಕಾರಣ	-13331
ಕ್ತಿ	-13332
ಕ್ಷಣ	-13333
ಗನಾದ	-13334
ಗಹಾಕ	-13335
ಗಾಡು	-13336
ಗುಂದ	-13337
ಗ್ಗು	-13338
ಚಾರಕ	-13339
ಜ್ಜಾ	-13340
ಟೀಸ್	-13341
ಡುವಿ	-13342
ತ್ತೀ	-13343
ತ್ವದ	-13344
ದರೊಳ	-13345
ದಿಂಬ	-13346
ದೇವರ	-13347
ನಂತರ	-13348
ನಂತೆ	-13349
ನಮಗೆ	-13350
ನಾಗು	-13351
ನೀರು	-13352
ನೇನೋ	-13353
ನ್ನದ	-13354
ಪರಾಧ	-13355
ಫ್ರೇ	-13356
ಬಾರದ	-13357
ಬಿಲಿ	-13358
ಬೋರನ	-13359
ಮಗುವ	-13360
ಮಣ್ಣ	-13361
ಮಾಡದ	-13362
ಮಾರ್	-13363
ಮೂರು	-13364
ಮೇಲೆ	-13365
ಮ್ಮಾ	-13366
ಮ್ಲಾ	-13367
ಯಾಕೆ	-13368
ಯಿಸು	-13369
ಯೇಲ್	-13370
ಯ್ಯಾ	-13371
ರಾಮ್	-13372
ರಿದನ	-13373
ರಿಯು	-13374
ರಿಯೂ	-13375
ರೀಗಾ	-13376
ಲೇದ್	-13377
ಲ್ಲೂ	-13378
ಳವಾಯ	-13379
ಳಾಗಿ	-13380
ಳಿಸಿ	-13381
ವರ್ಯ	-13382
ವಾದಿ	-13383
ವೆಂಬ	-13384
ಷ್ಯದ	-13385
ಹಾಗರ	-13386
ಹಿಂದ	-13387
ಹೀಗೆ	-13388
ಹೇತನ	-13389
ಾಗದೆ	-13390
ಾಗಿಲ	-13391
ಾಡಲಿ	-13392
ಾತ್ತ	-13393
ಾತ್ಮ	-13394
ಾದವು	-13395
ಾರಂಭ	-13396
ಾಲೆಯ	-13397
ಿಟ್ಟ	-13398
ಿದವು	-13399
ಿದ್ಗ	-13400
ಿಯಾಗ	-13401
ಿರಂಗ	-13402
ಿರಲಿ	-13403
ೀಘ್ರ	-13404
ೆಗೆಯ	-13405
ೆದರು	-13406
ೆಯುವ	-13407
ೆರವೇ	-13408
ೆರಹನ	-13409
ೆಹೊಡ	-13410
ೇಚ್ಛ	-13411
ೋದನು	-13412
ೋನಿನ	-13413
್ತೆಯ	-13414
▁Ach	-13415
▁Are	-13416
▁Cur	-13417
▁Dam	-13418
▁Ell	-13419
▁Esh	-13420
▁Eve	-13421
▁Get	-13422
▁Hai	-13423
▁Han	-13424
▁Hem	-13425
▁His	-13426
▁Jab	-13427
▁Jah	-13428
▁Ked	-13429
▁Kir	-13430
▁Lie	-13431
▁Lud	-13432
▁Mag	-13433
▁Out	-13434
▁Pen	-13435
▁Put	-13436
▁Sam	-13437
▁Say	-13438
▁Two	-13439
▁Yea	-13440
▁add	-13441
▁arm	-13442
▁ash	-13443
▁bit	-13444
▁cut	-13445
▁dew	-13446
▁dim	-13447
▁dun	-13448
▁ele	-13449
▁fin	-13450
▁gut	-13451
▁hal	-13452
▁hon	-13453
▁jew	-13454
▁lea	-13455
▁led	-13456
▁len	-13457
▁mar	-13458
▁met	-13459
▁mor	-13460
▁oak	-13461
▁oil	-13462
▁pra	-13463
▁rid	-13464
▁sad	-13465
▁sow	-13466
▁swe	-13467
▁ver	-13468
▁wot	-13469
▁yea	-13470
▁अटल	-13471
▁आड़	-13472
▁आते	-13473
▁इधर	-13474
▁ईंट	-13475
▁उगे	-13476
▁उठे	-13477
▁उड़	-13478
▁ऋतु	-13479
▁कहो	-13480
▁कोठ	-13481
▁कौआ	-13482
▁गति	-13483
▁गदह	-13484
▁गीत	-13485
▁घेर	-13486
▁चुन	-13487
▁चोट	-13488
▁चौक	-13489
▁छिप	-13490
▁छोर	-13491
▁जवा	-13492
▁टहल	-13493
▁डूब	-13494
▁ताक	-13495
▁थका	-13496
▁दया	-13497
▁दाल	-13498
▁धनी	-13499
▁धूप	-13500
▁नहत	-13501
▁नोच	-13502
▁पधा	-13503
▁परी	-13504
▁पाई	-13505
▁पूछ	-13506
▁फला	-13507
▁फें	-13508
▁बलि	-13509
▁बिग	-13510
▁बिर	-13511
▁बोओ	-13512
▁भगो	-13513
▁भली	-13514
▁भेद	-13515
▁भोग	-13516
▁भ्र	-13517
▁महू	-13518
▁यिश	-13519
▁रचा	-13520
▁रपा	-13521
▁रोक	-13522
▁रोम	-13523
▁लता	-13524
▁लपे	-13525
▁लाए	-13526
▁लीं	-13527
▁लों	-13528
▁शुभ	-13529
▁शूआ	-13530
▁शोक	-13531
▁सपो	-13532
▁सफे	-13533
▁सही	-13534
▁सुख	-13535
▁सोच	-13536
▁स्थ	-13537
▁हजा	-13538
▁हटा	-13539
▁हदद	-13540
▁हदर	-13541
▁हेम	-13542
▁అడవ	-13543
▁అపా	-13544
▁అభి	-13545
▁అసా	-13546
▁అహో	-13547
▁ఆయు	-13548
▁ఆరవ	-13549
▁ఇంప	-13550
▁ఉడి	-13551
▁ఎంచ	-13552
▁ఏడ్	-13553
▁ఏది	-13554
▁కడి	-13555
▁కపట	-13556
▁కర్	-13557
▁కళ్	-13558
▁కవల	-13559
▁కాక	-13560
▁కాయ	-13561
▁కేక	-13562
▁కొక	-13563
▁క్ర	-13564
▁గడ్	-13565
▁గోయ	-13566
▁చూప	-13567
▁జమ్	-13568
▁జార	-13569
▁జీత	-13570
▁టను	-13571
▁ణము	-13572
▁తర్	-13573
▁తలవ	-13574
▁తీర	-13575
▁తెగ	-13576
▁నను	-13577
▁నియ	-13578
▁నిర	-13579
▁పగప	-13580
▁పార	-13581
▁పూట	-13582
▁ఫలవ	-13583
▁బండ	-13584
▁బరు	-13585
▁బలవ	-13586
▁బాబ	-13587
▁భూస	-13588
▁మామ	-13589
▁మూట	-13590
▁యేల	-13591
▁రము	-13592
▁రుల	-13593
▁రూప	-13594
▁వంచ	-13595
▁వంట	-13596
▁వాక	-13597
▁వాద	-13598
▁వుల	-13599
▁వెల	-13600
▁వేస	-13601
▁శాప	-13602
▁శేష	-13603
▁షూయ	-13604
▁సత్	-13605
▁సరే	-13606
▁సిత	-13607
▁సూచ	-13608
▁హాయ	-13609
▁హెస	-13610
▁ಅಬೀ	-13611
▁ಅಳು	-13612
▁ಆಡು	-13613
▁ಆದದ	-13614
▁ಆಶೆ	-13615
▁ಇಸಾ	-13616
▁ಈಹೊ	-13617
▁ಉದಯ	-13618
▁ಐದರ	-13619
▁ಐಶ್	-13620
▁ಓನಾ	-13621
▁ಕರೇ	-13622
▁ಕರ್	-13623
▁ಕಾಡ	-13624
▁ಕಾವ	-13625
▁ಕೂಲ	-13626
▁ಕೆರ	-13627
▁ಗಲಿ	-13628
▁ಗಳೂ	-13629
▁ಗಹಮ	-13630
▁ಗಾರ	-13631
▁ಗಿಡ	-13632
▁ಗೃಹ	-13633
▁ಗೋಡ	-13634
▁ಗ್ರ	-13635
▁ಚಳಿ	-13636
▁ಜಾರ	-13637
▁ಜ್ಞ	-13638
▁ಜ್ವ	-13639
▁ತರು	-13640
▁ತಹಷ	-13641
▁ತಾಳ	-13642
▁ತೋರ	-13643
▁ತೋವ	-13644
▁ದಾದ	-13645
▁ದೋತ	-13646
▁ದೋಷ	-13647
▁ನಂಬ	-13648
▁ನನ್	-13649
▁ಪರೀ	-13650
▁ಪಾದ	-13651
▁ಪೀಠ	-13652
▁ಬರು	-13653
▁ಬಿಳ	-13654
▁ಬೇಗ	-13655
▁ಬೇಲ	-13656
▁ಬೇಸ	-13657
▁ಭಾಷ	-13658
▁ಭೇದ	-13659
▁ಮನೋ	-13660
▁ಮರು	-13661
▁ಮಳೆ	-13662
▁ಮಾದ	-13663
▁ಮೂಗ	-13664
▁ಮೂಲ	-13665
▁ಯೊಳ	-13666
▁ರರು	-13667
▁ರೂಮ	-13668
▁ರೋಮ	-13669
▁ಲಾಭ	-13670
▁ಲೂಜ	-13671
▁ಲ್ಪ	-13672
▁ಳಾದ	-13673
▁ವವು	-13674
▁ವಾಗ	-13675
▁ವಾಯ	-13676
▁ವಾರ	-13677
▁ಶೋಧ	-13678
▁ಶ್ರ	-13679
▁ಸಂಚ	-13680
▁ಸುಲ	-13681
▁ಸೂಲ	-13682
▁ಸೇರ	-13683
▁ಹದಿ	-13684
▁ಹನು	-13685
▁ಹಸು	-13686
▁ಹುಷ	-13687
aketh	-13688
aleed	-13689
ammah	-13690
anges	-13691
ascus	-13692
chant	-13693
creet	-13694
edeth	-13695
emuel	-13696
hanan	-13697
icken	-13698
ickly	-13699
ieved	-13700
ileth	-13701
imrod	-13702
inder	-13703
iness	-13704
iphar	-13705
irgin	-13706
ision	-13707
isled	-13708
itted	-13709
ivity	-13710
izzah	-13711
ledge	-13712
lehem	-13713
lings	-13714
othan	-13715
ouses	-13716
pared	-13717
score	-13718
stand	-13719
syria	-13720
threw	-13721
throw	-13722
uiled	-13723
ujael	-13724
ulled	-13725
uppim	-13726
usael	-13727
क्कोत	-13728
क्रमी	-13729
क्षान	-13730
च्छिम	-13731
टकाया	-13732
ड़ेगा	-13733
नानवे	-13734
नेंगी	-13735
न्धली	-13736
पुरूष	-13737
पूर्ण	-13738
प्ताह	-13739
प्पीम	-13740
भिचार	-13741
म्बाई	-13742
रागार	-13743
लियाद	-13744
वालों	-13745
स्थान	-13746
स्रान	-13747
ित्तर	-13748
ियाना	-13749
िलाषी	-13750
ంగీని	-13751
ంచెనో	-13752
ంటేనే	-13753
ంతటను	-13754
ందమని	-13755
ందుకై	-13756
ందువు	-13757
కనాను	-13758
కొండు	-13759
క్రియ	-13760
గవిని	-13761
గిలిన	-13762
గునని	-13763
చుమని	-13764
చూచిన	-13765
చ్చని	-13766
టినని	-13767
ట్టయు	-13768
డైనను	-13769
డ్డున	-13770
తనికి	-13771
తనితో	-13772
త్లెహ	-13773
దనెను	-13774
దిమ్మ	-13775
దువని	-13776
దృష్ట	-13777
ద్దేశ	-13778
ధవ్యవ	-13779
ననియు	-13780
నిబంధ	-13781
పలికి	-13782
పెట్ట	-13783
పోవుట	-13784
ప్రభు	-13785
భార్య	-13786
మస్కు	-13787
మార్గ	-13788
మేగదా	-13789
మైనను	-13790
యకుము	-13791
యమమ్మ	-13792
యముతో	-13793
య్యను	-13794
ర్గాష	-13795
ర్పరి	-13796
లదిని	-13797
లువది	-13798
లోకపు	-13799
ళ్లలో	-13800
వంటలు	-13801
వతలకు	-13802
వతినై	-13803
వరనగా	-13804
వాడను	-13805
వాడనై	-13806
వాధీన	-13807
వ్వను	-13808
శరీరు	-13809
శీర్వ	-13810
సులైన	-13811
సొదొమ	-13812
స్తుల	-13813
స్త్ర	-13814
ించెన	-13815
ికర్త	-13816
ీరును	-13817
ీవుడై	-13818
ేయులై	-13819
్నాడు	-13820
్యవతి	-13821
్యోకు	-13822
్రమము	-13823
ಂಗೊಂಡ	-13824
ಇದೇನು	-13825
ಎತ್ತು	-13826
ಕತ್ತೆ	-13827
ಕರಿಗೆ	-13828
ಕಾಯಿನ	-13829
ಕಿದಾಗ	-13830
ಕುಮಾರ	-13831
ಗಾಲವೂ	-13832
ಗುಟ್ಟ	-13833
ಡಿಸಿದ	-13834
ತ್ಲೆಹ	-13835
ತ್ವವು	-13836
ದಲ್ಲೇ	-13837
ದಾಸೀನ	-13838
ದಿಗಳು	-13839
ದೆಲ್ಲ	-13840
ನಮ್ಮಿ	-13841
ನಾದರೂ	-13842
ನಾಹೋರ	-13843
ನಿಮಗೆ	-13844
ಪಡಿಸಿ	-13845
ಪ್ಪಿನ	-13846
ಬಂದವು	-13847
ಮಸ್ಕದ	-13848
ಮೃಗವು	-13849
ಮ್ಯರೂ	-13850
ಯಾಮಿನ	-13851
ಯ್ದನು	-13852
ರನಿಂದ	-13853
ರಿಗಳು	-13854
ರೆಂದೂ	-13855
ರ್ಥ್ಯ	-13856
ಲನ್ನೂ	-13857
ಲಾರಂಭ	-13858
ಲುಗಳು	-13859
ಲ್ಲರೂ	-13860
ಳುಗಳು	-13861
ವಂತನೂ	-13862
ವನಿಗೂ	-13863
ವನ್ನೇ	-13864
ವಾದರೂ	-13865
ವಾದವು	-13866
ವಾದಾಗ	-13867
ವಾಬ್ಯ	-13868
ವ್ಯಥೆ	-13869
ಶಿರಾಶ	-13870
ಷನಿಂದ	-13871
ಸಂದಿಯ	-13872
ಸಾರಿನ	-13873
ಹೂಯಾಯ	-13874
ಹೋದರು	-13875
ಹ್ಯರೂ	-13876
ಾಕ್ರಮ	-13877
ಾಗಿಯೇ	-13878
ಾಗ್ಯೂ	-13879
ಾನ್ಯರ	-13880
ಾಬೆಲ್	-13881
ಾರಿಗೆ	-13882
ಾಲ್ಕು	-13883
ಿಕೊಂಡ	-13884
ಿಗೆಗೂ	-13885
ಿನಂತೆ	-13886
ಿಬ್ಬರ	-13887
ಿಸಿತು	-13888
ೀಯೇಲ್	-13889
ುವಂತೆ	-13890
ೆಲೆಸಿ	-13891
ೆಲೋಹೇ	-13892
ೊಳಗಿನ	-13893
್ಚರ್ಯ	-13894
▁Also	-13895
▁Amra	-13896
▁Aner	-13897
▁Atad	-13898
▁Baal	-13899
▁Cher	-13900
▁Even	-13901
▁Girg	-13902
▁Have	-13903
▁Hori	-13904
▁Irad	-13905
▁Know	-13906
▁Lift	-13907
▁Make	-13908
▁Mesh	-13909
▁Nine	-13910
▁Omar	-13911
▁Only	-13912
▁Reph	-13913
▁Sabt	-13914
▁Saul	-13915
▁Succ	-13916
▁afar	-13917
▁bake	-13918
▁balm	-13919
▁bone	-13920
▁bund	-13921
▁burn	-13922
▁calf	-13923
▁dost	-13924
▁else	-13925
▁ewes	-13926
▁feeb	-13927
▁feel	-13928
▁fill	-13929
▁fine	-13930
▁foot	-13931
▁gift	-13932
▁gray	-13933
▁grow	-13934
▁harp	-13935
▁heat	-13936
▁heed	-13937
▁heel	-13938
▁hide	-13939
▁hunt	-13940
▁just	-13941
▁kids	-13942
▁kiss	-13943
▁lack	-13944
▁last	-13945
▁like	-13946
▁ling	-13947
▁mean	-13948
▁merc	-13949
▁milk	-13950
▁mind	-13951
▁noon	-13952
▁offe	-13953
▁past	-13954
▁phys	-13955
▁pilg	-13956
▁plag	-13957
▁prey	-13958
▁rank	-13959
▁requ	-13960
▁rise	-13961
▁salt	-13962
▁seas	-13963
▁serv	-13964
▁shed	-13965
▁shot	-13966
▁side	-13967
▁sole	-13968
▁toil	-13969
▁torn	-13970
▁unaw	-13971
▁wall	-13972
▁wear	-13973
▁week	-13974
▁weep	-13975
▁अकान	-13976
▁अगले	-13977
▁अनाज	-13978
▁अर्थ	-13979
▁आताद	-13980
▁आनेर	-13981
▁आराम	-13982
▁इसको	-13983
▁ईराद	-13984
▁उचित	-13985
▁उठता	-13986
▁उठने	-13987
▁उतरे	-13988
▁उपजे	-13989
▁उपाय	-13990
▁ऊंचा	-13991
▁एड़ी	-13992
▁एनैम	-13993
▁ओमार	-13994
▁करनी	-13995
▁कराई	-13996
▁काठी	-13997
▁कालह	-13998
▁कैसा	-13999
▁कैसी	-14000
▁खण्ड	-14001
▁खराई	-14002
▁खाता	-14003
▁खाते	-14004
▁खींच	-14005
▁खोदे	-14006
▁खोला	-14007
▁खोली	-14008
▁गदहा	-14009
▁गिने	-14010
▁गिरा	-14011
▁गिरे	-14012
▁गुणा	-14013
▁घेरे	-14014
▁चलें	-14015
▁चौथी	-14016
▁छड़ी	-14017
▁छिया	-14018
▁छुरी	-14019
▁जाके	-14020
▁जागा	-14021
▁जिन्	-14022
▁जीते	-14023
▁जैसे	-14024
▁जोड़	-14025
▁झटपट	-14026
▁डलवा	-14027
▁ढ़ाप	-14028
▁ताकि	-14029
▁ताड़	-14030
▁तैसी	-14031
▁तोले	-14032
▁दिला	-14033
▁दूना	-14034
▁देखे	-14035
▁दौड़	-14036
▁दौरा	-14037
▁धरती	-14038
▁धारा	-14039
▁धीरे	-14040
▁धुआं	-14041
▁धोकर	-14042
▁धोया	-14043
▁नाले	-14044
▁निन्	-14045
▁नियत	-14046
▁पंहु	-14047
▁पकाई	-14048
▁पछता	-14049
▁पण्ड	-14050
▁पन्द	-14051
▁पहली	-14052
▁पाएं	-14053
▁पुआल	-14054
▁पूरब	-14055
▁पूले	-14056
▁प्रच	-14057
▁बचने	-14058
▁बढ़े	-14059
▁बढ़ो	-14060
▁बरबस	-14061
▁बरीआ	-14062
▁बांट	-14063
▁बाएं	-14064
▁बारी	-14065
▁बालू	-14066
▁बासठ	-14067
▁बिगा	-14068
▁बेटा	-14069
▁बोली	-14070
▁भस्म	-14071
▁भेजी	-14072
▁मध्य	-14073
▁मरें	-14074
▁मानो	-14075
▁मारा	-14076
▁मिटा	-14077
▁मुहर	-14078
▁यत्न	-14079
▁यबूस	-14080
▁यहीं	-14081
▁रखें	-14082
▁रहित	-14083
▁रहीं	-14084
▁रामा	-14085
▁राशि	-14086
▁रेहन	-14087
▁रोता	-14088
▁लगाओ	-14089
▁लाता	-14090
▁वाली	-14091
▁वैद्	-14092
▁शकुन	-14093
▁शत्र	-14094
▁शब्द	-14095
▁शाखा	-14096
▁संकट	-14097
▁सतरह	-14098
▁समाई	-14099
▁समूह	-14100
▁समेट	-14101
▁सवार	-14102
▁ससुर	-14103
▁साथी	-14104
▁सिंच	-14105
▁सिवा	-14106
▁सीमा	-14107
▁सूखी	-14108
▁सोता	-14109
▁हमको	-14110
▁हीरा	-14111
▁हुईं	-14112
▁होवे	-14113
▁అతడి	-14114
▁అధిక	-14115
▁ఆఠదు	-14116
▁ఆరిన	-14117
▁ఆశ్చ	-14118
▁ఇందు	-14119
▁ఇటిక	-14120
▁ఇతడే	-14121
▁ఉత్త	-14122
▁ఉభయు	-14123
▁ఎడము	-14124
▁ఒకటి	-14125
▁కంటె	-14126
▁కటిక	-14127
▁కరుణ	-14128
▁కర్త	-14129
▁కఱ్ఱ	-14130
▁కానీ	-14131
▁కామె	-14132
▁కును	-14133
▁కురి	-14134
▁కౌగల	-14135
▁క్షీ	-14136
▁ఖడ్గ	-14137
▁ఖైదీ	-14138
▁గద్ద	-14139
▁గలది	-14140
▁గలవి	-14141
▁గిన్	-14142
▁గుంప	-14143
▁గోపు	-14144
▁గ్రహ	-14145
▁చల్ల	-14146
▁చాచి	-14147
▁చివర	-14148
▁చెడు	-14149
▁చేతప	-14150
▁చేని	-14151
▁చేసె	-14152
▁జీవు	-14153
▁జేయు	-14154
▁టిని	-14155
▁టిలో	-14156
▁డతడు	-14157
▁తగిన	-14158
▁తమలో	-14159
▁తరుమ	-14160
▁తల్ల	-14161
▁తారు	-14162
▁తాళి	-14163
▁తీరు	-14164
▁తెరవ	-14165
▁తెరి	-14166
▁తేరి	-14167
▁తోను	-14168
▁దక్క	-14169
▁దయను	-14170
▁దాగు	-14171
▁దాచి	-14172
▁దాటు	-14173
▁దేమి	-14174
▁దేవా	-14175
▁ననగా	-14176
▁నన్న	-14177
▁నప్ప	-14178
▁నహతు	-14179
▁నాడు	-14180
▁నికి	-14181
▁నీనె	-14182
▁నుంచ	-14183
▁నును	-14184
▁నూరే	-14185
▁నెను	-14186
▁నెబా	-14187
▁పగటి	-14188
▁పనలు	-14189
▁పరము	-14190
▁పరలో	-14191
▁పరిశ	-14192
▁పాడు	-14193
▁పును	-14194
▁పువ్	-14195
▁పెనూ	-14196
▁పేరట	-14197
▁పోసి	-14198
▁ప్రయ	-14199
▁ప్రవ	-14200
▁బయల్	-14201
▁బాగు	-14202
▁బేయే	-14203
▁భోజన	-14204
▁మంచు	-14205
▁మండి	-14206
▁మందల	-14207
▁మట్ట	-14208
▁మనతో	-14209
▁మన్న	-14210
▁మన్య	-14211
▁మరచి	-14212
▁మాని	-14213
▁మార్	-14214
▁మీదట	-14215
▁మీరి	-14216
▁మూసి	-14217
▁మేయు	-14218
▁యింక	-14219
▁యితర	-14220
▁యీడు	-14221
▁యెడమ	-14222
▁యెబూ	-14223
▁యైదు	-14224
▁యోమె	-14225
▁రమ్మ	-14226
▁రుని	-14227
▁రులు	-14228
▁రేవు	-14229
▁లోను	-14230
▁వంగి	-14231
▁వడ్డ	-14232
▁విరి	-14233
▁వెవర	-14234
▁వేదన	-14235
▁వేరై	-14236
▁శత్ర	-14237
▁షావే	-14238
▁షుని	-14239
▁సంచర	-14240
▁సబ్త	-14241
▁సర్ప	-14242
▁సారి	-14243
▁సెపో	-14244
▁స్వత	-14245
▁హతము	-14246
▁హదదు	-14247
▁హదరు	-14248
▁హీరా	-14249
▁ಅಡಗಿ	-14250
▁ಅಮ್ಮ	-14251
▁ಅರಸನ	-14252
▁ಅಲೆದ	-14253
▁ಅವಳಿ	-14254
▁ಆಗುವ	-14255
▁ಆಣೆಯ	-14256
▁ಆದರೂ	-14257
▁ಆಯುಧ	-14258
▁ಇಪ್ಪ	-14259
▁ಇರಿಸ	-14260
▁ಇಳಿಯ	-14261
▁ಇಷ್ಟ	-14262
▁ಈಕೆಯ	-14263
▁ಈರಾದ	-14264
▁ಊರಿನ	-14265
▁ಎಪ್ಪ	-14266
▁ಎಷ್ಟ	-14267
▁ಏರುವ	-14268
▁ಏಳೇಳ	-14269
▁ಒಂದರ	-14270
▁ಒಯ್ಯ	-14271
▁ಕಚ್ಚ	-14272
▁ಕನ್ಯ	-14273
▁ಕರುವ	-14274
▁ಕರೆದ	-14275
▁ಕಲ್ಪ	-14276
▁ಕಾಡು	-14277
▁ಕಾಯಿ	-14278
▁ಕಿರಿ	-14279
▁ಕುದು	-14280
▁ಕುರು	-14281
▁ಕೂಗು	-14282
▁ಕೂಷ್	-14283
▁ಕೆಲಹ	-14284
▁ಕೈಯೂ	-14285
▁ಕೊಡದ	-14286
▁ಕ್ರಯ	-14287
▁ಗಾಢನ	-14288
▁ಗಾದನ	-14289
▁ಗ್ಯೂ	-14290
▁ಚರ್ಮ	-14291
▁ಚಿಂತ	-14292
▁ಚೀಲದ	-14293
▁ಚೆಫೋ	-14294
▁ಜೆಬು	-14295
▁ಟೆಬಹ	-14296
▁ತಂಪೂ	-14297
▁ತಾತ್	-14298
▁ತಾಯಿ	-14299
▁ತೀರಿ	-14300
▁ತುಂಡ	-14301
▁ದಯೆದ	-14302
▁ದಾಟಿ	-14303
▁ದಿನಗ	-14304
▁ದೈವೋ	-14305
▁ದೋಣಿ	-14306
▁ಧನ್ಯ	-14307
▁ನಗುವ	-14308
▁ನಮಗೂ	-14309
▁ನಹತ್	-14310
▁ನಾವೆ	-14311
▁ನಿಗೂ	-14312
▁ನಿರ್	-14313
▁ನುಣು	-14314
▁ನೇಮಕ	-14315
▁ಪಕ್ಷ	-14316
▁ಪಡೆದ	-14317
▁ಪುರು	-14318
▁ಪ್ರಸ	-14319
▁ಬಂಜೆ	-14320
▁ಬಂಧು	-14321
▁ಬರಲಿ	-14322
▁ಬಳ್ಳ	-14323
▁ಬಿಗಿ	-14324
▁ಬಿಳು	-14325
▁ಮಗನೂ	-14326
▁ಮಟ್ಟ	-14327
▁ಮರಣದ	-14328
▁ಮಲಗು	-14329
▁ಮಾರಿ	-14330
▁ಮಾರು	-14331
▁ಮೇರೆ	-14332
▁ಮೊಳದ	-14333
▁ಯಾವದ	-14334
▁ಯೆಹೋ	-14335
▁ರಂತೆ	-14336
▁ರಗ್ಮ	-14337
▁ರಿಗೂ	-14338
▁ರೂಪವ	-14339
▁ಲೂಜ್	-14340
▁ಲೇವಿ	-14341
▁ಳಿಗೆ	-14342
▁ವಸತಿ	-14343
▁ವಾಕ್	-14344
▁ವಿವೇ	-14345
▁ವುಗಳ	-14346
▁ಶಾವೆ	-14347
▁ಶೂಗನ	-14348
▁ಶೆಬಾ	-14349
▁ಶೆಲಹ	-14350
▁ಶೇಲಹ	-14351
▁ಸಂಕಟ	-14352
▁ಸಣ್ಣ	-14353
▁ಸಬ್ತ	-14354
▁ಸಾಕು	-14355
▁ಸುಂದ	-14356
▁ಸೇರಿ	-14357
▁ಹಗಲು	-14358
▁ಹಗಲೂ	-14359
▁ಹವ್ವ	-14360
▁ಹಾಮನ	-14361
▁ಹಿಂಡ	-14362
▁ಹೇರಿ	-14363
▁ಹೊರು	-14364
asseth	-14365
ceived	-14366
egrity	-14367
eturah	-14368
inding	-14369
lenish	-14370
llency	-14371
oughly	-14372
rimage	-14373
strils	-14374
vernor	-14375
ंतालीस	-14376
जूबन्द	-14377
नेहारी	-14378
बल्कैन	-14379
भाइयों	-14380
मंत्री	-14381
ि्डयों	-14382
्रापेल	-14383
ందరపడి	-14384
ందుమని	-14385
ందువలన	-14386
కాలమున	-14387
కుండుట	-14388
కెట్లు	-14389
కొందము	-14390
క్కొని	-14391
క్కోతు	-14392
క్బోరు	-14393
క్షాను	-14394
గలవాడు	-14395
గురిని	-14396
గొట్టి	-14397
గ్రత్త	-14398
చమైనదా	-14399
చువరకు	-14400
చూడుడి	-14401
చెయ్యి	-14402
చేయుడి	-14403
చేసిరి	-14404
చ్చిరి	-14405
జంతువు	-14406
టకైనను	-14407
టితోను	-14408
ట్టియు	-14409
ట్టెలు	-14410
డగునని	-14411
డ్డిని	-14412
ఢనిద్ర	-14413
త్తుగా	-14414
దగుటయు	-14415
దినమున	-14416
దియునై	-14417
దుకును	-14418
ద్వారా	-14419
నాకును	-14420
నివాడు	-14421
నివారణ	-14422
నీవేమి	-14423
నున్నా	-14424
నేనతని	-14425
న్నారు	-14426
పదార్థ	-14427
పరచుకొ	-14428
పోకుండ	-14429
పోయెనో	-14430
పోవుదు	-14431
ప్పీము	-14432
ప్పును	-14433
బుచ్చు	-14434
మందియే	-14435
మార్తె	-14436
మార్లు	-14437
ముగాను	-14438
ముతోడు	-14439
ముమీది	-14440
ములచేత	-14441
ములోని	-14442
యములను	-14443
యిల్లు	-14444
యుండిన	-14445
యెత్తి	-14446
రుగురు	-14447
ర్పరచు	-14448
ర్మమున	-14449
లనుండి	-14450
లనైనను	-14451
లవారము	-14452
లాయెను	-14453
లిపోయి	-14454
లుండిన	-14455
ల్లును	-14456
వదూతలు	-14457
వద్దని	-14458
వాటిని	-14459
వారితో	-14460
వారిలో	-14461
వెళ్లి	-14462
షుకును	-14463
ారహితు	-14464
ించెడి	-14465
ించెదన	-14466
్రసాని	-14467
్రాంతు	-14468
ಂತಿರುವ	-14469
ಇಸಾಕನು	-14470
ಐಗುಪ್ತ	-14471
ಕನನ್ನು	-14472
ಗೊಡಿರಿ	-14473
ಗೊಸ್ಕರ	-14474
ಚ್ರೋನ್	-14475
ಡುತ್ತಾ	-14476
ಣವಾದವು	-14477
ಣೆಗಾಗಿ	-14478
ತಲಾಂತರ	-14479
ತಿಹೊಂದ	-14480
ತ್ತಿಯು	-14481
ದಿಟ್ಟು	-14482
ದೇವರಾದ	-14483
ಧಿಕವಾದ	-14484
ನದಲ್ಲಿ	-14485
ನಾಗಿಯೂ	-14486
ನಿಂದಲೂ	-14487
ನ್ನಾಳು	-14488
ಪಟ್ಟರು	-14489
ಪ್ಪೀಮ್	-14490
ಬೇಕೆಂದ	-14491
ಭೂಮಿಯು	-14492
ಮಾಡಿರಿ	-14493
ಮಾಡಿಸಿ	-14494
ರವನ್ನೂ	-14495
ರಾಗಿಯೂ	-14496
ಲ್ಪಡಲಿ	-14497
ಳವನ್ನು	-14498
ಳಿಗಿಂತ	-14499
ಳ್ಹಾನಾ	-14500
ವದನ್ನು	-14501
ವಲ್ಲದೆ	-14502
ವಿಚಾರಕ	-14503
ವಿದೆಯೋ	-14504
ವಿದ್ದು	-14505
ವೆತ್ತಿ	-14506
ಹಿಡಿದು	-14507
ಾಗಬೇಕು	-14508
ಾಗುವದು	-14509
ಾಗುವರು	-14510
ಾಡುತ್ತ	-14511
ಾತ್ತಾಪ	-14512
ಾನನ್ನೂ	-14513
ಾನ್ಯರು	-14514
ಿಕೊಂಡಿ	-14515
ಿದ್ಗಾಲ	-14516
ಿರಬೇಕು	-14517
ಿರುವಾಗ	-14518
ಿಲ್ಲದೆ	-14519
ಿಸಲಾಗಿ	-14520
ಿಸಿದರೆ	-14521
ುಗಳಿಂದ	-14522
ೂಲೂನನು	-14523
ೆಯುತ್ತ	-14524
ೆಯುವದು	-14525
ೊಬ್ಬರು	-14526
್ರಾಫೆಲ	-14527
▁Babel	-14528
▁Calah	-14529
▁Euphr	-14530
▁Gatam	-14531
▁Gomer	-14532
▁Hadad	-14533
▁Hadar	-14534
▁Haste	-14535
▁Hirah	-14536
▁Javan	-14537
▁Jebus	-14538
▁Lahai	-14539
▁Sidon	-14540
▁Swear	-14541
▁Tidal	-14542
▁Timna	-14543
▁Zepho	-14544
▁abode	-14545
▁bands	-14546
▁beget	-14547
▁bones	-14548
▁bough	-14549
▁brick	-14550
▁camel	-14551
▁chose	-14552
▁clave	-14553
▁couch	-14554
▁cruel	-14555
▁doing	-14556
▁dowry	-14557
▁dread	-14558
▁dress	-14559
▁faint	-14560
▁fugit	-14561
▁glory	-14562
▁grass	-14563
▁grown	-14564
▁habit	-14565
▁hadst	-14566
▁hairs	-14567
▁haven	-14568
▁heads	-14569
▁hills	-14570
▁horse	-14571
▁knife	-14572
▁laded	-14573
▁laden	-14574
▁least	-14575
▁lieth	-14576
▁lodge	-14577
▁lying	-14578
▁misch	-14579
▁moved	-14580
▁myrrh	-14581
▁never	-14582
▁north	-14583
▁nurse	-14584
▁occup	-14585
▁overs	-14586
▁purch	-14587
▁reach	-14588
▁ruled	-14589
▁seeth	-14590
▁sheaf	-14591
▁shear	-14592
▁sinew	-14593
▁sixth	-14594
▁skins	-14595
▁slain	-14596
▁slept	-14597
▁small	-14598
▁smoke	-14599
▁space	-14600
▁spare	-14601
▁speed	-14602
▁spent	-14603
▁stalk	-14604
▁steal	-14605
▁still	-14606
▁straw	-14607
▁stret	-14608
▁thous	-14609
▁troop	-14610
▁twins	-14611
▁vagab	-14612
▁visit	-14613
▁wells	-14614
▁wrath	-14615
▁अकबोर	-14616
▁अकेला	-14617
▁अनमोल	-14618
▁आनन्द	-14619
▁आरामी	-14620
▁उदासी	-14621
▁उद्यम	-14622
▁उन्ही	-14623
▁उपजाऊ	-14624
▁एमोरी	-14625
▁एल्ला	-14626
▁कटोरे	-14627
▁कतरने	-14628
▁कतूरा	-14629
▁कपड़ा	-14630
▁क्षमा	-14631
▁खेतों	-14632
▁खेदित	-14633
▁खोदते	-14634
▁गवाते	-14635
▁गाताम	-14636
▁गोमेर	-14637
▁गोयीम	-14638
▁घराना	-14639
▁चमड़े	-14640
▁चराते	-14641
▁चराने	-14642
▁चलेगा	-14643
▁चुपके	-14644
▁चूमने	-14645
▁छठवां	-14646
▁जताया	-14647
▁जन्मी	-14648
▁जाओगे	-14649
▁जानकर	-14650
▁जानती	-14651
▁जानूं	-14652
▁जामिन	-14653
▁जिनकी	-14654
▁ज्यों	-14655
▁झरोखे	-14656
▁झाड़ी	-14657
▁टंगवा	-14658
▁टिकने	-14659
▁टोकरी	-14660
▁ठहरकर	-14661
▁ठहराए	-14662
▁ठहरीं	-14663
▁डालने	-14664
▁डालें	-14665
▁ढिठाई	-14666
▁तिदाल	-14667
▁तीनों	-14668
▁तीसरा	-14669
▁दमिश्	-14670
▁दसवें	-14671
▁दहिनी	-14672
▁दहिने	-14673
▁दाखों	-14674
▁दुबली	-14675
▁देखनी	-14676
▁देखीं	-14677
▁देवता	-14678
▁दोतान	-14679
▁दोपहर	-14680
▁धनुर्	-14681
▁धूर्त	-14682
▁नब्बे	-14683
▁नित्य	-14684
▁नीनवे	-14685
▁नीन्द	-14686
▁पकड़ा	-14687
▁पक्की	-14688
▁पक्के	-14689
▁पड़ने	-14690
▁पराये	-14691
▁पसुली	-14692
▁पहुचे	-14693
▁पांति	-14694
▁पालते	-14695
▁पुरखा	-14696
▁पेरेस	-14697
▁प्रश्	-14698
▁फलदाई	-14699
▁फलाकर	-14700
▁फांसी	-14701
▁फिरता	-14702
▁फिरते	-14703
▁फूलें	-14704
▁बचाने	-14705
▁बचेगा	-14706
▁बछड़ा	-14707
▁बढ़ते	-14708
▁बढ़ने	-14709
▁बढ़ें	-14710
▁बताएं	-14711
▁बदलकर	-14712
▁बनाईं	-14713
▁बन्धा	-14714
▁बन्धी	-14715
▁बयासी	-14716
▁बलसान	-14717
▁बसाया	-14718
▁बहेतू	-14719
▁बादाम	-14720
▁बाबुल	-14721
▁बिताई	-14722
▁बेतले	-14723
▁भतीजा	-14724
▁भतीजे	-14725
▁भागते	-14726
▁भाग्य	-14727
▁भूखों	-14728
▁भौजाई	-14729
▁मनोहर	-14730
▁मारके	-14731
▁मारते	-14732
▁मुखडे	-14733
▁मृदंग	-14734
▁यावान	-14735
▁योग्य	-14736
▁रखेली	-14737
▁रोंआर	-14738
▁लगाकर	-14739
▁लहुरे	-14740
▁लादकर	-14741
▁लालसा	-14742
▁वनपशु	-14743
▁वर्षा	-14744
▁वसन्त	-14745
▁विवाह	-14746
▁शम्मा	-14747
▁शिबोन	-14748
▁शेकेल	-14749
▁श्वास	-14750
▁सत्ता	-14751
▁सनातन	-14752
▁समझने	-14753
▁सम्ला	-14754
▁सहायक	-14755
▁साढ़े	-14756
▁सिद्ध	-14757
▁सुनके	-14758
▁सुनने	-14759
▁सुनाई	-14760
▁सूझता	-14761
▁स्नेह	-14762
▁हव्वा	-14763
▁हाजिर	-14764
▁हूशाम	-14765
▁అందరి	-14766
▁అక్రమ	-14767
▁అగును	-14768
▁అగ్ని	-14769
▁అట్టి	-14770
▁అన్ని	-14771
▁అన్యు	-14772
▁అమాలే	-14773
▁అమ్రా	-14774
▁అరాము	-14775
▁అవమాన	-14776
▁అవును	-14777
▁ఆనేరు	-14778
▁ఆమెయే	-14779
▁ఆయనతో	-14780
▁ఇంకను	-14781
▁ఇట్టి	-14782
▁ఈరాదు	-14783
▁ఉప్పు	-14784
▁ఎట్లు	-14785
▁ఎత్తు	-14786
▁ఎరుగు	-14787
▁ఎల్లా	-14788
▁ఏటిలో	-14789
▁ఏడును	-14790
▁ఏమియు	-14791
▁ఒంటెల	-14792
▁ఒప్పక	-14793
▁ఓమారు	-14794
▁కట్టడ	-14795
▁కడవలో	-14796
▁కనిరి	-14797
▁కమ్మి	-14798
▁కస్లూ	-14799
▁కాపరి	-14800
▁కాపుర	-14801
▁కారని	-14802
▁కాలహు	-14803
▁కృపను	-14804
▁కొందు	-14805
▁కొమ్మ	-14806
▁గంపలు	-14807
▁గుహను	-14808
▁గోత్ర	-14809
▁గోనెల	-14810
▁చచ్చి	-14811
▁చీకటి	-14812
▁చెట్ల	-14813
▁చెరిప	-14814
▁జగడమా	-14815
▁జనులు	-14816
▁జరుగు	-14817
▁జోలిక	-14818
▁తక్కు	-14819
▁తరిమి	-14820
▁తింటి	-14821
▁తొడగూ	-14822
▁తోచిన	-14823
▁తోటను	-14824
▁తోటలో	-14825
▁దయచేస	-14826
▁దిగిన	-14827
▁దూడను	-14828
▁దూతనీ	-14829
▁దూతను	-14830
▁దేవతల	-14831
▁ద్వేష	-14832
▁నందున	-14833
▁నగలను	-14834
▁నడిగి	-14835
▁నడిచి	-14836
▁నడువగ	-14837
▁నన్ని	-14838
▁నరుడు	-14839
▁నవి్వ	-14840
▁నాసిక	-14841
▁నిండు	-14842
▁నింపి	-14843
▁నిజమే	-14844
▁నిన్న	-14845
▁నియ్య	-14846
▁నీవలన	-14847
▁నెరవే	-14848
▁నేనొక	-14849
▁నేలకు	-14850
▁పదునా	-14851
▁పదునే	-14852
▁పేరుల	-14853
▁బత్తె	-14854
▁బలమైన	-14855
▁బలహీన	-14856
▁భరింప	-14857
▁భాషను	-14858
▁భూలోక	-14859
▁మందిర	-14860
▁మడిమె	-14861
▁మతూషా	-14862
▁మత్తు	-14863
▁మనిరి	-14864
▁మహూయా	-14865
▁మాటకు	-14866
▁మింగి	-14867
▁మిజ్జ	-14868
▁మీదనే	-14869
▁ముట్ట	-14870
▁ముద్ర	-14871
▁ములను	-14872
▁ములలో	-14873
▁మృగము	-14874
▁మేతయు	-14875
▁మైనవి	-14876
▁మొన్న	-14877
▁మోయాబ	-14878
▁యనెను	-14879
▁యములో	-14880
▁యాత్ర	-14881
▁యావదా	-14882
▁యితని	-14883
▁యులకు	-14884
▁యూఫ్ర	-14885
▁యెంతో	-14886
▁యెవరు	-14887
▁యైనను	-14888
▁రయూను	-14889
▁రాకను	-14890
▁రాయమా	-14891
▁రెఫాయ	-14892
▁రోమము	-14893
▁లేకయు	-14894
▁లేరని	-14895
▁వట్టి	-14896
▁వాకిట	-14897
▁వాడైన	-14898
▁వారము	-14899
▁వారిన	-14900
▁వారుఆ	-14901
▁విడిప	-14902
▁విడువ	-14903
▁వినాయ	-14904
▁విభాగ	-14905
▁విశాల	-14906
▁వెడల్	-14907
▁వెదకి	-14908
▁వేటగా	-14909
▁వేళకు	-14910
▁శపించ	-14911
▁శవ్లూ	-14912
▁శీఘ్ర	-14913
▁షమ్మా	-14914
▁షేబను	-14915
▁సమక్ష	-14916
▁సరిగా	-14917
▁సించు	-14918
▁సూర్య	-14919
▁హత్తు	-14920
▁ಅಂತ್ಯ	-14921
▁ಅಡಿಗೆ	-14922
▁ಅಡ್ಡಿ	-14923
▁ಅತ್ತು	-14924
▁ಅನಾಹನ	-14925
▁ಅಪ್ಪಿ	-14926
▁ಅಬ್ರಾ	-14927
▁ಅಮಾಲೇ	-14928
▁ಅಯ್ಯಾ	-14929
▁ಅರಾಮನ	-14930
▁ಅರಿಯದ	-14931
▁ಅರಿಯೋ	-14932
▁ಅಲ್ಲೇ	-14933
▁ಅವಮಾನ	-14934
▁ಆಟಾದ್	-14935
▁ಆರಿಸಿ	-14936
▁ಆಲೈಸಿ	-14937
▁ಆಸನತ್	-14938
▁ಇದೆಯೋ	-14939
▁ಇರುವಿ	-14940
▁ಇಸಾಕ್	-14941
▁ಈಯಿತು	-14942
▁ಉಂಟಾದ	-14943
▁ಎಂಬದೇ	-14944
▁ಎಂಬಾಕ	-14945
▁ಎಚ್ಚೆ	-14946
▁ಎತ್ತರ	-14947
▁ಎತ್ತು	-14948
▁ಎನೋಷ್	-14949
▁ಎಲುಬೂ	-14950
▁ಎಲ್ಲರ	-14951
▁ಏಚೆರ್	-14952
▁ಏರಿತು	-14953
▁ಏಲೋನನ	-14954
▁ಒಣನೆಲ	-14955
▁ಒಬ್ಬನ	-14956
▁ಒಬ್ಬರ	-14957
▁ಓಮಾರ್	-14958
▁ಕಡೆಗೂ	-14959
▁ಕಣ್ಣು	-14960
▁ಕನ್ನಿ	-14961
▁ಕರುಣೆ	-14962
▁ಕಷ್ಟಪ	-14963
▁ಕಾಣುವ	-14964
▁ಕಾದೇಶ	-14965
▁ಕಿಟಕಿ	-14966
▁ಕಿತ್ತ	-14967
▁ಕಿರ್ಯ	-14968
▁ಕೀಲಿನ	-14969
▁ಕುಂದಿ	-14970
▁ಕೂಡಲೆ	-14971
▁ಕೆಟೂರ	-14972
▁ಕೆಡವಿ	-14973
▁ಕೆರೂಬ	-14974
▁ಕೆಲಸದ	-14975
▁ಕೇಳಲು	-14976
▁ಕೈಹಾಕ	-14977
▁ಕ್ರೂರ	-14978
▁ಗತಾಮ್	-14979
▁ಗಲೇದ್	-14980
▁ಗಿರಲಿ	-14981
▁ಗೋತ್ರ	-14982
▁ಚಿಂತೆ	-14983
▁ಚೀಲಗಳ	-14984
▁ಚೆಲ್ಲ	-14985
▁ಚೋಹರನ	-14986
▁ಜನಗಳು	-14987
▁ತಂಗಿಯ	-14988
▁ತಂದರು	-14989
▁ತಗ್ಗಿ	-14990
▁ತಗ್ಗು	-14991
▁ತಡೆದು	-14992
▁ತಿರಸ್	-14993
▁ತುಂಬಿ	-14994
▁ತೆಗೆಯ	-14995
▁ದಯೆತೋ	-14996
▁ದಳವಾಯ	-14997
▁ದಿಕ್ಕ	-14998
▁ದಿನವೇ	-14999
▁ದೂತರು	-15000
▁ದ್ದಾಗ	-15001
▁ದ್ವೇಷ	-15002
▁ಧೂಳಿನ	-15003
▁ನಕ್ಕು	-15004
▁ನದಿಯು	-15005
▁ನಲ್ಲಿ	-15006
▁ನಿಜವಾ	-15007
▁ನಿಜವೇ	-15008
▁ನಿಜವೋ	-15009
▁ನಿನವೆ	-15010
▁ನಿಮ್ರ	-15011
▁ನುಂಗಿ	-15012
▁ನೆರವೇ	-15013
▁ನೋಡಲು	-15014
▁ನೋಹನೂ	-15015
▁ಪರದೇಶ	-15016
▁ಪಾಪವು	-15017
▁ಪುಟ್ಟ	-15018
▁ಪೂರ್ಣ	-15019
▁ಪ್ರತಿ	-15020
▁ಬಂದವು	-15021
▁ಬಟ್ಟೆ	-15022
▁ಬರಮಾಡ	-15023
▁ಬಲವಂತ	-15024
▁ಬಲವಾದ	-15025
▁ಬಲಹೀನ	-15026
▁ಬಹುದು	-15027
▁ಬುದ್ಧ	-15028
▁ಬೆನ್ನ	-15029
▁ಬೊಗ್ಗ	-15030
▁ಭಯಂಕರ	-15031
▁ಭೂಮೃಗ	-15032
▁ಮಂತ್ರ	-15033
▁ಮನೆಗೂ	-15034
▁ಮಮ್ರೆ	-15035
▁ಮುಸುಕ	-15036
▁ಮೃಗಗಳ	-15037
▁ಮೊಬ್ಬ	-15038
▁ಯರಿಗೂ	-15039
▁ಯುದ್ಧ	-15040
▁ಯೆಫೆತ	-15041
▁ಯೊಕ್ಷ	-15042
▁ಯೋಬಾಬ	-15043
▁ರಕ್ತದ	-15044
▁ರಾಜ್ಯ	-15045
▁ರೆಫಾಯ	-15046
▁ಲೆಮೆಕ	-15047
▁ಲ್ಲದೆ	-15048
▁ಳಗಿಂದ	-15049
▁ಳನ್ನು	-15050
▁ಳನ್ನೂ	-15051
▁ವಂಚನೆ	-15052
▁ವನಿಗೂ	-15053
▁ವರಿಗೆ	-15054
▁ವೃದ್ಧ	-15055
▁ಶಮ್ಮಾ	-15056
▁ಶೀಘ್ರ	-15057
▁ಶೂರಿನ	-15058
▁ಶೇಮನು	-15059
▁ಸಮಯವು	-15060
▁ಸಮಸ್ತ	-15061
▁ಸಮ್ಲಾ	-15062
▁ಸಹಸ್ರ	-15063
▁ಸಾರಳೂ	-15064
▁ಸಾಲದೆ	-15065
▁ಸುಕ್ಕ	-15066
▁ಸುಮ್ಮ	-15067
▁ಸೇರಿದ	-15068
▁ಸೇರಿಸ	-15069
▁ಸೌಲನು	-15070
▁ಸ್ಥಾನ	-15071
▁ಹದದನು	-15072
▁ಹನೋಕನ	-15073
▁ಹಮೋರನ	-15074
▁ಹಾಮನು	-15075
▁ಹಿಂಡು	-15076
▁ಹುಡಿಕ	-15077
▁ಹೃದಯದ	-15078
▁ಹೆದರಿ	-15079
▁ಹೆಬ್ಬ	-15080
▁ಹೇಳೋಣ	-15081
▁ಹೊಂದಿ	-15082
▁ಹೊಗೆಯ	-15083
▁ಹೋಗವು	-15084
▁ಹೋಗೋಣ	-15085
▁ಹೋದಳು	-15086
cending	-15087
entiles	-15088
फुल्लित	-15089
बहुतायत	-15090
ल्हानान	-15091
वासियों	-15092
ంటినరము	-15093
ండ్లును	-15094
కాబట్టి	-15095
కాలమును	-15096
కొంటిని	-15097
గుదురని	-15098
గునట్లు	-15099
గూర్చిన	-15100
చుచున్న	-15101
చుటకును	-15102
చున్నవి	-15103
చేయుటకు	-15104
చేయుమని	-15105
జీయులను	-15106
జేసెదను	-15107
టిననెను	-15108
టిబుగ్గ	-15109
డునట్లు	-15110
తివనెను	-15111
తోఇదిగో	-15112
త్వమును	-15113
దిక్కున	-15114
దుమనిరి	-15115
ధిపతికి	-15116
నుండిరి	-15117
పుతట్టు	-15118
మంచిదని	-15119
మందున్న	-15120
మగుదుము	-15121
మనుష్యు	-15122
మీయులను	-15123
ముకలిగి	-15124
మైనదియు	-15125
మ్యాకాశ	-15126
వాడగును	-15127
వాడెవడు	-15128
వాడైనను	-15129
వారందరి	-15130
వాహకుని	-15131
వైనందున	-15132
ించినది	-15133
ించుటకై	-15134
ించుమని	-15135
ించెదరు	-15136
ినిగాను	-15137
ಅವನನ್ನು	-15138
ಅವಳನ್ನು	-15139
ಕುಮಾರರು	-15140
ಗಳಿಗಾಗಿ	-15141
ಗಳೆಲ್ಲಾ	-15142
ಗಿಡಕ್ಕೆ	-15143
ಗಿದ್ದರೆ	-15144
ಗುಂದಿತು	-15145
ಟ್ಟಿಗಳು	-15146
ದಾಗಿರುವ	-15147
ದಿಂಬಾಗಿ	-15148
ನ್ನಲ್ಲಾ	-15149
ನ್ನಾದರೂ	-15150
ಬನ್ನಿರಿ	-15151
ಬಿಟ್ಟವು	-15152
ಬೇಕೆಂದೂ	-15153
ಭಾಗಕ್ಕೂ	-15154
ಮಾಡಿದರೆ	-15155
ಮಾಡುವದು	-15156
ಯಾಕೋಬನು	-15157
ಯೋಸೇಫನು	-15158
ರೀಮಗನಾದ	-15159
ಲಿಲ್ಲವೋ	-15160
ಳಾಗಿದ್ದ	-15161
ಳೆಂಬವಳು	-15162
ವೇಲನಿಂದ	-15163
ಾಗಿದ್ದೀ	-15164
ಾಗುವೆವು	-15165
ಿಗಾಗಿಯೂ	-15166
ಿದ್ದಾನೋ	-15167
ಿಸಬಹುದೋ	-15168
ುವದಿಲ್ಲ	-15169
ೇಕಿಚ್ಚು	-15170
▁Achbor	-15171
▁Arioch	-15172
▁Beriah	-15173
▁Cursed	-15174
▁Dothan	-15175
▁Except	-15176
▁Galeed	-15177
▁Hanoch	-15178
▁Hereby	-15179
▁Hezron	-15180
▁Husham	-15181
▁Mizzah	-15182
▁Nahath	-15183
▁Nimrod	-15184
▁Raamah	-15185
▁Samlah	-15186
▁Shaveh	-15187
▁Spirit	-15188
▁abomin	-15189
▁appear	-15190
▁beside	-15191
▁border	-15192
▁bruise	-15193
▁caught	-15194
▁charge	-15195
▁choice	-15196
▁closed	-15197
▁coming	-15198
▁dearth	-15199
▁depart	-15200
▁desire	-15201
▁divine	-15202
▁double	-15203
▁either	-15204
▁elders	-15205
▁eleven	-15206
▁failed	-15207
▁feared	-15208
▁forbid	-15209
▁forget	-15210
▁hanged	-15211
▁itself	-15212
▁jewels	-15213
▁length	-15214
▁lodged	-15215
▁loveth	-15216
▁matter	-15217
▁meadow	-15218
▁moving	-15219
▁myself	-15220
▁nights	-15221
▁pilled	-15222
▁placed	-15223
▁places	-15224
▁praise	-15225
▁profit	-15226
▁proved	-15227
▁pulled	-15228
▁reason	-15229
▁repent	-15230
▁reward	-15231
▁riches	-15232
▁rolled	-15233
▁sacrif	-15234
▁secret	-15235
▁seemed	-15236
▁sevens	-15237
▁shrank	-15238
▁signet	-15239
▁smooth	-15240
▁sprung	-15241
▁strife	-15242
▁strive	-15243
▁subtil	-15244
▁tribes	-15245
▁trough	-15246
▁virgin	-15247
▁weaned	-15248
▁अंगरखे	-15249
▁अप्रिय	-15250
▁अमालेक	-15251
▁अर्योक	-15252
▁आयेंगे	-15253
▁इन्हीं	-15254
▁उतारके	-15255
▁उन्हीं	-15256
▁एश्कोल	-15257
▁कठौतों	-15258
▁कतराने	-15259
▁कुमारी	-15260
▁खलिहान	-15261
▁खाऊंगा	-15262
▁गन्धरस	-15263
▁गाड़के	-15264
▁गिर्गा	-15265
▁गोत्रा	-15266
▁घुटनों	-15267
▁चौड़ाई	-15268
▁जवानों	-15269
▁जाऊंगी	-15270
▁जुड़वे	-15271
▁झुकाया	-15272
▁टटोलते	-15273
▁टटोलने	-15274
▁ढूंढता	-15275
▁तुरन्त	-15276
▁दशमांश	-15277
▁निर्दो	-15278
▁पकड़कर	-15279
▁पच्छिम	-15280
▁परिवार	-15281
▁पशचात्	-15282
▁पहुंची	-15283
▁पांचों	-15284
▁पाऊंगा	-15285
▁पिलाकर	-15286
▁पिलाते	-15287
▁पीड़ित	-15288
▁पोतीपर	-15289
▁प्रकाश	-15290
▁फलेंगे	-15291
▁फुलाऊं	-15292
▁बजवाते	-15293
▁बनवाकर	-15294
▁बन्धुआ	-15295
▁बर्ताव	-15296
▁बातचीत	-15297
▁बुलाया	-15298
▁भगोड़ा	-15299
▁भण्डार	-15300
▁भाईयों	-15301
▁मिज्जा	-15302
▁मिलेगी	-15303
▁मुखड़े	-15304
▁रखूंगा	-15305
▁रहोबोत	-15306
▁राजाओं	-15307
▁रेंगते	-15308
▁लटकाया	-15309
▁लम्बाई	-15310
▁लांघकर	-15311
▁लेनदेन	-15312
▁लौन्डी	-15313
▁वेश्या	-15314
▁व्यापा	-15315
▁सत्तरह	-15316
▁सप्ताह	-15317
▁समानता	-15318
▁समुदाय	-15319
▁सम्भाल	-15320
▁सहायता	-15321
▁सियाना	-15322
▁हथियार	-15323
▁हिव्वी	-15324
▁అంగీని	-15325
▁అడవికి	-15326
▁అదంతయు	-15327
▁అనబడదు	-15328
▁అన్నపా	-15329
▁అన్యదే	-15330
▁అసాధ్య	-15331
▁అస్తమయ	-15332
▁ఇతనికి	-15333
▁ఉండిరి	-15334
▁ఉన్నదో	-15335
▁ఉన్నవి	-15336
▁ఎందుని	-15337
▁ఎదోమను	-15338
▁ఎవడును	-15339
▁ఎవరును	-15340
▁ఏలుటకు	-15341
▁కనానను	-15342
▁కనుగొన	-15343
▁కళ్లము	-15344
▁కానుపు	-15345
▁కాలువల	-15346
▁కిటికీ	-15347
▁కుమ్మర	-15348
▁కూడెను	-15349
▁కెతూరా	-15350
▁కొండకు	-15351
▁కొనిరి	-15352
▁కొనుము	-15353
▁కొన్నా	-15354
▁కోపపడి	-15355
▁గడిచిన	-15356
▁గనుకను	-15357
▁గర్భము	-15358
▁గలవాడు	-15359
▁గలవాడై	-15360
▁గాతాము	-15361
▁గెలిచి	-15362
▁గొడ్లు	-15363
▁గోనెలు	-15364
▁గోమెరు	-15365
▁చంపిరి	-15366
▁చర్మము	-15367
▁చలించు	-15368
▁చూచినా	-15369
▁చూచిమీ	-15370
▁చూచియు	-15371
▁చూచిరి	-15372
▁చెడ్డల	-15373
▁చెదిరి	-15374
▁చెప్పె	-15375
▁చెల్లె	-15376
▁చేతిని	-15377
▁చేపలను	-15378
▁జనపదము	-15379
▁జనమును	-15380
▁జనులలో	-15381
▁జాతిలో	-15382
▁జ్యోతు	-15383
▁తలగడగా	-15384
▁తలవంచి	-15385
▁తిదాలు	-15386
▁తినెను	-15387
▁తీగెలు	-15388
▁తూబల్క	-15389
▁తెరచిన	-15390
▁తెలిపె	-15391
▁తెలియక	-15392
▁తొలగదు	-15393
▁దమస్కు	-15394
▁దరుడైన	-15395
▁దహనబలి	-15396
▁దాసిగా	-15397
▁దించిన	-15398
▁దుష్టు	-15399
▁దృష్టి	-15400
▁దెదాను	-15401
▁ధనవంతు	-15402
▁ధర్మము	-15403
▁నలువది	-15404
▁నల్లని	-15405
▁నాయందు	-15406
▁నాయకుల	-15407
▁నిచ్చి	-15408
▁నిమ్ము	-15409
▁నిమ్రో	-15410
▁నిలుచు	-15411
▁నిలుపు	-15412
▁నుండని	-15413
▁నూటపది	-15414
▁నెరసిన	-15415
▁నేనును	-15416
▁పగటిని	-15417
▁పచ్చని	-15418
▁పడకుండ	-15419
▁పడద్రో	-15420
▁పరవాసి	-15421
▁పాతకము	-15422
▁పించిన	-15423
▁పుత్రు	-15424
▁పెద్దల	-15425
▁పెరిగి	-15426
▁పొందని	-15427
▁పోకుండ	-15428
▁పోరాడి	-15429
▁పోలేదు	-15430
▁పోవిడి	-15431
▁పోవుడి	-15432
▁పోవును	-15433
▁పోషించ	-15434
▁పోసెను	-15435
▁ప్రయాస	-15436
▁ప్రాంత	-15437
▁బాధ్యత	-15438
▁బాబెలు	-15439
▁బావికి	-15440
▁బావిని	-15441
▁బెయేర్	-15442
▁బెరీయా	-15443
▁బొచ్చు	-15444
▁భావముల	-15445
▁మంచిది	-15446
▁మందలకు	-15447
▁మగదియు	-15448
▁మగవాడు	-15449
▁మర్యాద	-15450
▁మీరేమి	-15451
▁ముడుచు	-15452
▁మునిగి	-15453
▁మూతిలో	-15454
▁మేకలలో	-15455
▁మ్రాను	-15456
▁యధార్థ	-15457
▁యాకోబూ	-15458
▁యాజకుల	-15459
▁యాపెతు	-15460
▁యావాను	-15461
▁యిట్లు	-15462
▁యుండిన	-15463
▁యెక్కడ	-15464
▁యెత్తు	-15465
▁యెరిగి	-15466
▁యేండ్ల	-15467
▁యేడును	-15468
▁యేడ్చి	-15469
▁యేలును	-15470
▁రక్తము	-15471
▁రాబోవు	-15472
▁రాములో	-15473
▁రాళ్లు	-15474
▁లెత్తి	-15475
▁లేయాకు	-15476
▁లేయాయు	-15477
▁లోతుతో	-15478
▁వరకును	-15479
▁వాడును	-15480
▁వాయువు	-15481
▁వారునీ	-15482
▁విగ్రహ	-15483
▁విత్తు	-15484
▁విప్పి	-15485
▁విలుకా	-15486
▁విశ్రమ	-15487
▁విషయము	-15488
▁వీరిని	-15489
▁వృత్తి	-15490
▁వృద్ధి	-15491
▁వెంబడి	-15492
▁వెళ్లక	-15493
▁వెళ్ళు	-15494
▁వేరుపర	-15495
▁వైద్యు	-15496
▁వ్యయమై	-15497
▁శరీరుల	-15498
▁శిఖరము	-15499
▁సంరక్ష	-15500
▁	-15501
e	-15502
ు	-15503
ನ	-15504
న	-15505
a	-15506
t	-15507
h	-15508
್	-15509
ು	-15510
ा	-15511
ి	-15512
े	-15513
n	-15514
ಿ	-15515
o	-15516
ದ	-15517
र	-15518
d	-15519
क	-15520
s	-15521
్	-15522
i	-15523
r	-15524
ರ	-15525
,	-15526
ా	-15527
ಾ	-15528
ೆ	-15529
न	-15530
ಗ	-15531
మ	-15532
ర	-15533
క	-15534
स	-15535
ವ	-15536
ह	-15537
ల	-15538
ಕ	-15539
త	-15540
l	-15541
.	-15542
ಲ	-15543
्	-15544
त	-15545
ತ	-15546
ప	-15547
వ	-15548
म	-15549
ద	-15550
ो	-15551
ಮ	-15552
ि	-15553
ी	-15554
ಯ	-15555
య	-15556
ಂ	-15557
ं	-15558
m	-15559
प	-15560
ె	-15561
డ	-15562
చ	-15563
f	-15564
u	-15565
ం	-15566
य	-15567
ಸ	-15568
ಳ	-15569
ే	-15570
w	-15571
ब	-15572
ल	-15573
ಹ	-15574
ಅ	-15575
y	-15576
ో	-15577
c	-15578
ु	-15579
ೇ	-15580
b	-15581
ಡ	-15582
ಬ	-15583
व	-15584
గ	-15585
द	-15586
స	-15587
ట	-15588
అ	-15589
उ	-15590
g	-15591
ీ	-15592
औ	-15593
ೂ	-15594
;	-15595
ೋ	-15596
ज	-15597
ग	-15598
p	-15599
ಟ	-15600
A	-15601
ू	-15602
।	-15603
ೊ	-15604
బ	-15605
अ	-15606
v	-15607
ొ	-15608
ै	-15609
-	-15610
ಪ	-15611
श	-15612
ಆ	-15613
:	-15614
भ	-15615
ಇ	-15616
ए	-15617
थ	-15618
హ	-15619
च	-15620
k	-15621
ೀ	-15622
ఆ	-15623
ూ	-15624
आ	-15625
శ	-15626
ख	-15627
ड	-15628
ై	-15629
I	-15630
ಎ	-15631
़	-15632
इ	-15633
फ	-15634
ಶ	-15635
ट	-15636
ష	-15637
ಷ	-15638
ಣ	-15639
జ	-15640
ई	-15641
ष	-15642
భ	-15643
ಚ	-15644
ఇ	-15645
?	-15646
ध	-15647
J	-15648
छ	-15649
ಫ	-15650
ಜ	-15651
झ	-15652
L	-15653
ಭ	-15654
ಒ	-15655
ौ	-15656
G	-15657
ధ	-15658
E	-15659
ళ	-15660
S	-15661
R	-15662
ಧ	-15663
'	-15664
T	-15665
ठ	-15666
ఏ	-15667
ण	-15668
ಏ	-15669
ृ	-15670
B	-15671
D	-15672
ఎ	-15673
ओ	-15674
O	-15675
ఫ	-15676
ಈ	-15677
घ	-15678
ఒ	-15679
ఉ	-15680
ೈ	-15681
H	-15682
P	-15683
ಥ	-15684
ృ	-15685
ऊ	-15686
ణ	-15687
ఈ	-15688
ढ	-15689
ಐ	-15690
ఱ	-15691
N	-15692
M	-15693
C	-15694
ೃ	-15695
ఐ	-15696
ಖ	-15697
ऐ	-15698
W	-15699
ಉ	-15700
థ	-15701
x	-15702
j	-15703
[...]
