<unk>	0
<s>	0
</s>	0
<0x00>	0
<0x01>	0
<0x02>	0
<0x03>	0
<0x04>	0
<0x05>	0
<0x06>	0
<0x07>	0
<0x08>	0
<0x09>	0
<0x0A>	0
<0x0B>	0
<0x0C>	0
<0x0D>	0
<0x0E>	0
<0x0F>	0
<0x10>	0
<0x11>	0
<0x12>	0
<0x13>	0
<0x14>	0
<0x15>	0
<0x16>	0
<0x17>	0
<0x18>	0
<0x19>	0
<0x1A>	0
<0x1B>	0
<0x1C>	0
<0x1D>	0
<0x1E>	0
<0x1F>	0
<0x20>	0
<0x21>	0
<0x22>	0
<0x23>	0
<0x24>	0
<0x25>	0
<0x26>	0
<0x27>	0
<0x28>	0
<0x29>	0
<0x2A>	0
<0x2B>	0
<0x2C>	0
<0x2D>	0
<0x2E>	0
<0x2F>	0
<0x30>	0
<0x31>	0
<0x32>	0
<0x33>	0
<0x34>	0
<0x35>	0
<0x36>	0
<0x37>	0
<0x38>	0
<0x39>	0
<0x3A>	0
<0x3B>	0
<0x3C>	0
<0x3D>	0
<0x3E>	0
<0x3F>	0
<0x40>	0
<0x41>	0
<0x42>	0
<0x43>	0
<0x44>	0
<0x45>	0
<0x46>	0
<0x47>	0
<0x48>	0
<0x49>	0
<0x4A>	0
<0x4B>	0
<0x4C>	0
<0x4D>	0
<0x4E>	0
<0x4F>	0
<0x50>	0
<0x51>	0
<0x52>	0
<0x53>	0
<0x54>	0
<0x55>	0
<0x56>	0
<0x57>	0
<0x58>	0
<0x59>	0
<0x5A>	0
<0x5B>	0
<0x5C>	0
<0x5D>	0
<0x5E>	0
<0x5F>	0
<0x60>	0
<0x61>	0
<0x62>	0
<0x63>	0
<0x64>	0
<0x65>	0
<0x66>	0
<0x67>	0
<0x68>	0
<0x69>	0
<0x6A>	0
<0x6B>	0
<0x6C>	0
<0x6D>	0
<0x6E>	0
<0x6F>	0
<0x70>	0
<0x71>	0
<0x72>	0
<0x73>	0
<0x74>	0
<0x75>	0
<0x76>	0
<0x77>	0
<0x78>	0
<0x79>	0
<0x7A>	0
<0x7B>	0
<0x7C>	0
<0x7D>	0
<0x7E>	0
<0x7F>	0
<0x80>	0
<0x81>	0
<0x82>	0
<0x83>	0
<0x84>	0
<0x85>	0
<0x86>	0
<0x87>	0
<0x88>	0
<0x89>	0
<0x8A>	0
<0x8B>	0
<0x8C>	0
<0x8D>	0
<0x8E>	0
<0x8F>	0
<0x90>	0
<0x91>	0
<0x92>	0
<0x93>	0
<0x94>	0
<0x95>	0
<0x96>	0
<0x97>	0
<0x98>	0
<0x99>	0
<0x9A>	0
<0x9B>	0
<0x9C>	0
<0x9D>	0
<0x9E>	0
<0x9F>	0
<0xA0>	0
<0xA1>	0
<0xA2>	0
<0xA3>	0
<0xA4>	0
<0xA5>	0
<0xA6>	0
<0xA7>	0
<0xA8>	0
<0xA9>	0
<0xAA>	0
<0xAB>	0
<0xAC>	0
<0xAD>	0
<0xAE>	0
<0xAF>	0
<0xB0>	0
<0xB1>	0
<0xB2>	0
<0xB3>	0
<0xB4>	0
<0xB5>	0
<0xB6>	0
<0xB7>	0
<0xB8>	0
<0xB9>	0
<0xBA>	0
<0xBB>	0
<0xBC>	0
<0xBD>	0
<0xBE>	0
<0xBF>	0
<0xC0>	0
<0xC1>	0
<0xC2>	0
<0xC3>	0
<0xC4>	0
<0xC5>	0
<0xC6>	0
<0xC7>	0
<0xC8>	0
<0xC9>	0
<0xCA>	0
<0xCB>	0
<0xCC>	0
<0xCD>	0
<0xCE>	0
<0xCF>	0
<0xD0>	0
<0xD1>	0
<0xD2>	0
<0xD3>	0
<0xD4>	0
<0xD5>	0
<0xD6>	0
<0xD7>	0
<0xD8>	0
<0xD9>	0
<0xDA>	0
<0xDB>	0
<0xDC>	0
<0xDD>	0
<0xDE>	0
<0xDF>	0
<0xE0>	0
<0xE1>	0
<0xE2>	0
<0xE3>	0
<0xE4>	0
<0xE5>	0
<0xE6>	0
<0xE7>	0
<0xE8>	0
<0xE9>	0
<0xEA>	0
<0xEB>	0
<0xEC>	0
<0xED>	0
<0xEE>	0
<0xEF>	0
<0xF0>	0
<0xF1>	0
<0xF2>	0
<0xF3>	0
<0xF4>	0
<0xF5>	0
<0xF6>	0
<0xF7>	0
<0xF8>	0
<0xF9>	0
<0xFA>	0
<0xFB>	0
<0xFC>	0
<0xFD>	0
<0xFE>	0
<0xFF>	0
th	-0
▁क	-1
▁th	-2
ನು	-3
ను	-4
nd	-5
▁a	-6
▁the	-7
ನ್	-8
ని	-9
▁h	-10
▁स	-11
▁ಅ	-12
▁s	-13
▁प	-14
▁and	-15
▁ನ	-16
▁म	-17
▁ह	-18
ಂದ	-19
▁w	-20
▁न	-21
▁అ	-22
er	-23
ము	-24
▁उ	-25
▁ಮ	-26
▁న	-27
और	-28
▁और	-29
▁o	-30
▁ಹ	-31
కు	-32
▁ಕ	-33
▁त	-34
ಲ್	-35
ನ್ನ	-36
▁A	-37
▁ప	-38
ರು	-39
in	-40
ಗೆ	-41
▁త	-42
▁వ	-43
▁b	-44
ಲ್ಲ	-45
to	-46
ಿದ	-47
▁ज	-48
ార	-49
▁ತ	-50
ನ್ನು	-51
▁उस	-52
re	-53
▁द	-54
या	-55
డు	-56
▁के	-57
▁of	-58
▁m	-59
▁ಅವ	-60
▁ब	-61
▁अ	-62
▁ಸ	-63
▁f	-64
▁And	-65
ed	-66
ెను	-67
▁ने	-68
లు	-69
▁మ	-70
रा	-71
▁ಆ	-72
▁చ	-73
్ర	-74
is	-75
▁క	-76
್ತ	-77
▁య	-78
at	-79
ಾಗ	-80
en	-81
▁मे	-82
▁व	-83
ಿಯ	-84
▁ल	-85
▁c	-86
▁ಬ	-87
▁ద	-88
ll	-89
▁d	-90
ಗಳ	-91
ou	-92
್ದ	-93
▁से	-94
त्	-95
ೆಯ	-96
▁u	-97
हा	-98
ों	-99
్ప	-100
▁ದ	-101
ిన	-102
▁ಇ	-103
రు	-104
am	-105
ar	-106
▁ఆ	-107
ಕ್	-108
ने	-109
▁को	-110
ಿಗೆ	-111
on	-112
ప్ప	-113
వు	-114
▁to	-115
ండ	-116
▁స	-117
▁he	-118
್ಟ	-119
್ರ	-120
▁भ	-121
ಲ್ಲಿ	-122
యు	-123
ಕ್ಕ	-124
▁అత	-125
▁य	-126
रे	-127
as	-128
▁wi	-129
ಾರ	-130
ತ್ತ	-131
▁में	-132
▁be	-133
▁है	-134
▁నీ	-135
an	-136
▁I	-137
▁ಯ	-138
ిం	-139
ಟ್ಟ	-140
▁उसक	-141
or	-142
▁कि	-143
▁in	-144
న్	-145
ಿಸ	-146
id	-147
ಾದ	-148
ಂಡ	-149
▁ಎ	-150
▁sa	-151
es	-152
దు	-153
ುವ	-154
ಿದ್ದ	-155
గా	-156
▁पर	-157
न्	-158
ట్	-159
▁ನಿ	-160
▁his	-161
▁నా	-162
రి	-163
ಿಂದ	-164
▁n	-165
ಾಡ	-166
▁l	-167
ah	-168
ರೆ	-169
▁ವ	-170
▁sh	-171
▁ग	-172
it	-173
्व	-174
లో	-175
▁अप	-176
▁ಅವನ	-177
ది	-178
▁इ	-179
▁un	-180
ಳು	-181
్త	-182
▁र	-183
వా	-184
ారు	-185
ता	-186
▁आ	-187
చి	-188
ड़	-189
im	-190
▁की	-191
కి	-192
कर	-193
▁g	-194
▁ಪ	-195
▁का	-196
▁unto	-197
▁p	-198
ಂದು	-199
--	-200
టి	-201
▁e	-202
▁that	-203
ac	-204
ing	-205
చు	-206
ಾಗಿ	-207
िय	-208
▁ha	-209
▁గ	-210
▁said	-211
el	-212
▁दे	-213
ान	-214
▁wh	-215
▁ए	-216
▁ಹೆ	-217
▁కు	-218
▁అతని	-219
om	-220
ైన	-221
ప్పు	-222
ಾಕ	-223
▁यह	-224
▁कहा	-225
్య	-226
▁L	-227
▁थ	-228
చ్	-229
र्	-230
క్	-231
▁तब	-232
ಿನ	-233
కొ	-234
తో	-235
లి	-236
िया	-237
ಾನ	-238
री	-239
▁కుమ	-240
▁मै	-241
गा	-242
वा	-243
▁हु	-244
od	-245
ld	-246
ರುವ	-247
లను	-248
▁చే	-249
▁him	-250
gh	-251
ve	-252
ೇಲ	-253
ವು	-254
▁ಅಂದ	-255
సి	-256
తి	-257
▁బ	-258
್ಯ	-259
▁తన	-260
▁చె	-261
ದು	-262
న్న	-263
ter	-264
▁सा	-265
▁ನಾ	-266
ೊಂಡ	-267
▁దే	-268
se	-269
▁ర	-270
ther	-271
▁ನನ್ನ	-272
▁फ	-273
ch	-274
ay	-275
▁च	-276
▁ತನ್ನ	-277
▁हो	-278
▁ದೇ	-279
ట్ట	-280
▁భ	-281
▁अपने	-282
▁ఇ	-283
ना	-284
all	-285
ರಿ	-286
▁पु	-287
▁t	-288
▁वह	-289
ಾಮ	-290
్రా	-291
▁ನಿನ್ನ	-292
ಾಯ	-293
ame	-294
▁was	-295
ద్	-296
▁ಒ	-297
▁ಆಗ	-298
▁me	-299
▁मैं	-300
ాను	-301
▁सो	-302
హో	-303
▁जो	-304
ನ್ನೂ	-305
▁for	-306
ला	-307
▁y	-308
ప్పుడు	-309
▁it	-310
au	-311
▁ते	-312
▁ని	-313
▁J	-314
्रा	-315
▁son	-316
▁G	-317
▁जा	-318
ಕ್ಕೆ	-319
ास	-320
గు	-321
▁कर	-322
ot	-323
▁:	-324
▁thou	-325
▁उसके	-326
ुझ	-327
▁my	-328
▁with	-329
ही	-330
मे	-331
▁S	-332
▁ప్ర	-333
▁కుమారు	-334
▁ನೀ	-335
▁इस	-336
ದರ	-337
ent	-338
ందు	-339
▁क्	-340
▁ಅವನು	-341
▁యె	-342
ir	-343
ಿದನು	-344
మి	-345
िर	-346
▁ಕು	-347
नी	-348
▁एक	-349
▁నే	-350
ంద	-351
▁thee	-352
का	-353
ದ್ದ	-354
▁ಅಬ	-355
▁ಸಂ	-356
ow	-357
▁Ab	-358
▁ಅಂದನು	-359
के	-360
▁ల	-361
ut	-362
ೇಳ	-363
त्रा	-364
▁thy	-365
▁ಮಾಡ	-366
ere	-367
▁भी	-368
खा	-369
డి	-370
▁ಯಾಕ	-371
▁se	-372
ర్	-373
ियों	-374
सा	-375
ಮ್	-376
▁జ	-377
▁అబ	-378
▁up	-379
▁చెప్ప	-380
ద్ద	-381
ರ್	-382
▁T	-383
▁ಮೇಲ	-384
▁E	-385
▁ಗ	-386
ారి	-387
ಕೊಂಡ	-388
▁तू	-389
ले	-390
▁ఏ	-391
▁is	-392
ाम	-393
ంత	-394
ver	-395
▁तो	-396
▁అతడు	-397
▁उन	-398
నెను	-399
మె	-400
▁ಏ	-401
▁फिर	-402
ದಲ್ಲಿ	-403
्वर	-404
▁her	-405
▁ಅಬ್ರ	-406
మును	-407
ಹೋ	-408
ಲ್ಲಾ	-409
▁she	-410
ಗೂ	-411
▁ಎಂದು	-412
ूं	-413
ళ్	-414
ಲಿ	-415
▁ಹೋ	-416
▁God	-417
▁पुत्रा	-418
ad	-419
le	-420
కొని	-421
▁ಪ್ರ	-422
ವರು	-423
▁ಕರ	-424
▁ले	-425
ನಿಗೆ	-426
ke	-427
▁था	-428
ವನ್ನು	-429
▁ನಾನು	-430
ండి	-431
श्वर	-432
▁Abr	-433
▁దేవు	-434
▁దా	-435
▁యా	-436
▁వె	-437
▁ಕೊ	-438
ब्रा	-439
ತ್ತು	-440
ల్	-441
▁అబ్రా	-442
ಮಾಡ	-443
▁all	-444
పు	-445
హా	-446
ght	-447
ನಗೆ	-448
ನಾದ	-449
ro	-450
ven	-451
ಕೆಯ	-452
▁ಜ	-453
▁they	-454
▁परमे	-455
▁परमेश्वर	-456
ಾವ	-457
▁ಮು	-458
▁गया	-459
्र	-460
▁बा	-461
ति	-462
▁दिया	-463
ಮ್ಮ	-464
हे	-465
▁రా	-466
చెను	-467
▁B	-468
▁shall	-469
ಂತ	-470
िये	-471
క్క	-472
▁వి	-473
▁them	-474
▁मेरे	-475
▁ಮೇಲೆ	-476
ंग	-477
म्	-478
చిన	-479
▁पास	-480
िन	-481
ोवा	-482
▁not	-483
▁यहोवा	-484
ತಿಯ	-485
▁Th	-486
▁या	-487
మీ	-488
ich	-489
ूब	-490
ಗಿ	-491
ಳ್	-492
ಾಸ	-493
ೋಬ	-494
▁will	-495
▁ಕರ್ತ	-496
OR	-497
▁ఎ	-498
▁ಭ	-499
ORD	-500
▁ಆದ	-501
▁LORD	-502
▁వారి	-503
▁ಲ	-504
హోవా	-505
బు	-506
▁ರ	-507
▁ye	-508
ನೆ	-509
▁ಹೊ	-510
ore	-511
▁fr	-512
▁सब	-513
▁పె	-514
▁which	-515
▁ಯಾಕೋಬ	-516
▁యెహోవా	-517
ob	-518
▁ಮಗ	-519
▁बे	-520
▁k	-521
ಳ್ಳ	-522
ಾಗಿದ್ದ	-523
కో	-524
▁ತಿ	-525
कूब	-526
▁याकूब	-527
తు	-528
ದೆ	-529
▁श	-530
ುಗಳ	-531
▁हुआ	-532
▁पि	-533
ಿಸಿ	-534
▁कु	-535
▁मुझ	-536
▁तेरे	-537
▁नि	-538
▁నేను	-539
ನೂ	-540
यों	-541
ొద్ద	-542
acob	-543
▁Jacob	-544
వి	-545
ష్	-546
ಗೋ	-547
▁fa	-548
▁ಹೇಳ	-549
▁came	-550
▁యాకో	-551
▁there	-552
ce	-553
ते	-554
मा	-555
దా	-556
▁ఒ	-557
నకు	-558
▁भा	-559
▁ನೋ	-560
▁యాకోబు	-561
चा	-562
▁వా	-563
ದಕ್ಕೆ	-564
▁ನೀನು	-565
ಗಡ	-566
ವರ	-567
ಾತ	-568
▁శ	-569
and	-570
al	-571
ಮಾರ	-572
▁ही	-573
▁కా	-574
్రి	-575
▁li	-576
▁रा	-577
▁ear	-578
▁ತಂದ	-579
▁ಅವನಿಗೆ	-580
ోయ	-581
▁H	-582
▁మా	-583
న్ను	-584
▁ದೇವರು	-585
st	-586
▁जब	-587
▁ಹು	-588
▁were	-589
▁किया	-590
▁लिये	-591
et	-592
fe	-593
ho	-594
▁ఆమె	-595
▁వచ్	-596
ನನ್ನು	-597
ur	-598
క్ష	-599
▁from	-600
▁ಕುಮಾರ	-601
▁ಈ	-602
ೆನು	-603
▁తె	-604
▁నీవు	-605
▁ಹೆಂಡ	-606
▁ಶ	-607
ain	-608
▁an	-609
▁ಅಬ್ರಹ	-610
ೂಮ	-611
ast	-612
ess	-613
ేరు	-614
▁ಬಳ	-615
aham	-616
▁नाम	-617
▁ಸಂಗಡ	-618
▁Abraham	-619
ಡಿ	-620
▁घ	-621
▁जि	-622
▁क्या	-623
▁इब्रा	-624
ती	-625
हीम	-626
మీద	-627
▁इब्राहीम	-628
ಗಳು	-629
▁ಅವರ	-630
▁ಭೂಮ	-631
త్త	-632
▁చూ	-633
ರೂ	-634
▁ఉ	-635
▁had	-636
▁upon	-637
▁వెళ్	-638
▁ಅಬ್ರಹಾಮ	-639
▁ख	-640
▁father	-641
స్	-642
నము	-643
▁go	-644
ವಾಗಿ	-645
▁देश	-646
ನೆಯ	-647
ించి	-648
▁day	-649
▁उत्	-650
▁అప్పుడు	-651
il	-652
ేలు	-653
▁Is	-654
▁मि	-655
▁उसको	-656
▁అబ్రాహా	-657
▁af	-658
నుండి	-659
श्	-660
red	-661
न्न	-662
ಡು	-663
▁हा	-664
▁మీ	-665
fore	-666
▁ಆಕೆಯ	-667
ड़ा	-668
▁తీ	-669
▁पिता	-670
▁earth	-671
స్త	-672
▁वे	-673
▁बेट	-674
మా	-675
నని	-676
ೆಗೆ	-677
▁on	-678
augh	-679
ట్టు	-680
▁ಭೂಮಿಯ	-681
శా	-682
ake	-683
లము	-684
ించు	-685
▁దేవుడు	-686
▁ಹೆಂಡತಿಯ	-687
ok	-688
▁छ	-689
▁భూ	-690
▁మరి	-691
▁ಅವರು	-692
చే	-693
▁హ	-694
కును	-695
▁ಹೆಸ	-696
ಿತ	-697
ace	-698
ight	-699
▁ಸಹೋ	-700
क्	-701
ली	-702
▁ము	-703
▁ಸ್	-704
hold	-705
▁చెప్పెను	-706
हां	-707
ట్టి	-708
ಂದರೆ	-709
▁have	-710
▁अपनी	-711
కా	-712
వల	-713
▁ఈ	-714
ell	-715
డైన	-716
వాత	-717
ార్య	-718
aughter	-719
▁स्	-720
▁కొ	-721
▁తండ	-722
▁వారు	-723
▁after	-724
▁daughter	-725
ಂಬ	-726
್ಚ	-727
ant	-728
▁as	-729
▁లే	-730
▁sons	-731
▁ನನಗೆ	-732
▁అబ్రాహాము	-733
ph	-734
ರುಷ	-735
▁तुझ	-736
▁पत्	-737
ಕೊಂಡು	-738
▁పేరు	-739
▁ಹುಟ್ಟ	-740
గి	-741
ನಾ	-742
्वी	-743
▁हैं	-744
రువాత	-745
▁R	-746
ren	-747
▁सु	-748
▁ಇಸ	-749
ಿಸುವ	-750
▁man	-751
నున్న	-752
▁this	-753
▁wife	-754
▁उत्प	-755
వే	-756
▁N	-757
▁r	-758
ars	-759
ల్ల	-760
▁దేశ	-761
▁call	-762
▁ವರುಷ	-763
▁ಸಹೋದರ	-764
ष्	-765
నా	-766
eth	-767
ved	-768
ండ్	-769
ಷ್ಯ	-770
ారము	-771
▁ದಿನ	-772
▁their	-773
▁తండ్రి	-774
ृथ	-775
▁ध	-776
యైన	-777
▁रह	-778
▁पृथ	-779
▁क्यों	-780
▁पृथ्वी	-781
▁उत्पन्न	-782
हीं	-783
▁मा	-784
▁you	-785
▁वर्	-786
▁అను	-787
▁ದೇಶ	-788
▁ಮನು	-789
hi	-790
ూడ	-791
est	-792
▁दिन	-793
▁land	-794
▁name	-795
▁went	-796
▁దాని	-797
ly	-798
ನಿ	-799
ಬ್	-800
ive	-801
▁प्र	-802
▁उसका	-803
▁భార్య	-804
ढ़	-805
नु	-806
▁भे	-807
▁ఒక	-808
very	-809
▁when	-810
▁తీసి	-811
▁భూమి	-812
▁years	-813
ెద	-814
నగా	-815
ರ್ವ	-816
ೇನೆ	-817
▁ಬೆ	-818
ದಲ್ಲ	-819
▁हुए	-820
▁called	-821
ंश	-822
లలో	-823
ీయు	-824
ಬ್ಬ	-825
▁al	-826
▁re	-827
▁పొ	-828
▁स्व	-829
▁वर्ष	-830
▁మరియు	-831
సా	-832
▁P	-833
ard	-834
ಲ್ಪ	-835
▁పి	-836
▁com	-837
▁hand	-838
▁उसकी	-839
▁ಮನುಷ್ಯ	-840
ab	-841
था	-842
▁साथ	-843
▁हुई	-844
ండెను	-845
कि	-846
ಚ್ಚ	-847
▁ಬೇ	-848
ార్త	-849
ಗಳನ್ನು	-850
दा	-851
లా	-852
ass	-853
▁ಯಾಕೋಬನು	-854
ep	-855
హు	-856
▁M	-857
ండు	-858
▁fl	-859
▁ತಂದೆಯ	-860
▁తరువాత	-861
మ్	-862
▁C	-863
నుక	-864
▁कह	-865
▁ला	-866
▁యు	-867
▁ಬಂದ	-868
▁ಹೊರ	-869
ೆಲ್ಲಾ	-870
ొద్దకు	-871
▁ಬಳಿಗೆ	-872
▁కుమార్త	-873
।।	-874
ಕ್ಷ	-875
ಡುವ	-876
▁sp	-877
▁पह	-878
▁out	-879
▁ऐ	-880
ువు	-881
ಷ್ಟ	-882
▁bl	-883
▁हम	-884
▁ಸೇ	-885
ूंगा	-886
క్కడ	-887
▁చేస	-888
ದನ್ನು	-889
▁గనుక	-890
ऊं	-891
లే	-892
▁br	-893
▁యే	-894
▁chi	-895
▁निक	-896
▁नहीं	-897
▁मेरी	-898
▁అతనికి	-899
▁కుమార్తె	-900
धि	-901
▁ష	-902
ಿತು	-903
▁Es	-904
▁अब	-905
▁दो	-906
▁ಏಸ	-907
▁ವಿ	-908
న్ని	-909
ಟ್ಟು	-910
▁beg	-911
▁जन्	-912
▁वंश	-913
▁సహో	-914
▁ಇಸಾಕ	-915
ంప	-916
దే	-917
ಾಣ	-918
ೆಲ	-919
ಿಯೂ	-920
▁pass	-921
▁पत्नी	-922
▁ಕರ್ತನು	-923
so	-924
ತಿ	-925
ine	-926
ion	-927
▁Sh	-928
▁ये	-929
▁जिस	-930
▁దిన	-931
ಟ್ಟನು	-932
▁मुझे	-933
▁ಇದ್ದ	-934
▁ಏಸಾವ	-935
▁ಮಕ್ಕ	-936
ంట	-937
ಣ್	-938
ಣ್ಣ	-939
ದನು	-940
▁పు	-941
▁are	-942
▁देख	-943
▁ఇస్	-944
▁ఏశా	-945
▁क्योंकि	-946
బడ	-947
యి	-948
aac	-949
▁बह	-950
ట్లు	-951
▁हूं	-952
▁Esau	-953
▁ತಕ್ಕ	-954
▁every	-955
▁ఇస్సా	-956
▁ఏశావు	-957
ಸ್	-958
ಾಲ	-959
టకు	-960
▁pl	-961
ುತ್ತ	-962
▁వాటి	-963
▁సహోద	-964
▁Isaac	-965
▁ಎಲ್ಲಾ	-966
ಕರ	-967
▁तु	-968
▁ಆಶ	-969
ములో	-970
సు	-971
▁W	-972
क्ष	-973
हाक	-974
▁fi	-975
▁hu	-976
▁ಅರ	-977
▁उन्	-978
▁कुछ	-979
▁ತರುವ	-980
▁इसहाक	-981
em	-982
ಕೊ	-983
ಪ್	-984
▁ಉ	-985
▁थे	-986
▁తి	-987
▁ser	-988
▁అని	-989
▁ಮಾತ	-990
▁देखा	-991
ಿಸಿದನು	-992
▁కనెను	-993
ak	-994
ूम	-995
వర	-996
▁ಚ	-997
ord	-998
▁Be	-999
▁सम	-1000
ಿದರು	-1001
▁say	-1002
ించెను	-1003
▁ಅವನನ್ನು	-1004
నే	-1005
ಾಗೆ	-1006
▁तक	-1007
▁थी	-1008
▁ಸ್ಥ	-1009
▁ಆದರೆ	-1010
शी	-1011
ूस	-1012
డల	-1013
ವನ	-1014
ಾಬ	-1015
▁ड	-1016
alt	-1017
ಪ್ಪ	-1018
▁గొ	-1019
▁bro	-1020
▁बकर	-1021
▁ಸಾರ	-1022
ದರಿಂದ	-1023
▁చేసి	-1024
▁ತರುವಾಯ	-1025
eb	-1026
▁?	-1027
▁ಕೈ	-1028
ater	-1029
ियां	-1030
ముగా	-1031
▁अधि	-1032
ndred	-1033
▁also	-1034
▁लिया	-1035
▁these	-1036
▁us	-1037
▁खा	-1038
▁अर्	-1039
▁ಹೋಗ	-1040
▁took	-1041
▁అందు	-1042
ట్టెను	-1043
▁begat	-1044
▁bless	-1045
▁child	-1046
ck	-1047
न्ध	-1048
▁जल	-1049
▁पी	-1050
ೀರ್ವ	-1051
▁जाए	-1052
▁ಇಗೋ	-1053
▁hath	-1054
▁तुझे	-1055
▁shalt	-1056
▁ಆಶೀರ್ವ	-1057
ओं	-1058
च्	-1059
ధి	-1060
ಬೇ	-1061
▁ओ	-1062
▁ಫ	-1063
are	-1064
ose	-1065
మని	-1066
▁st	-1067
▁पा	-1068
▁हाथ	-1069
▁నాకు	-1070
▁water	-1071
▁brother	-1072
▁ఇస్సాకు	-1073
स्	-1074
▁di	-1075
▁जी	-1076
ouse	-1077
▁bre	-1078
▁అది	-1079
▁సంత	-1080
▁house	-1081
▁తీసికొని	-1082
गी	-1083
गे	-1084
ೊಳ	-1085
▁ఫ	-1086
orn	-1087
बान	-1088
साव	-1089
▁गई	-1090
▁सौ	-1091
▁గు	-1092
నికి	-1093
▁भाई	-1094
▁एसाव	-1095
▁ಹಾಗೆ	-1096
ಿಯಲ್ಲಿ	-1097
▁ಆಕೆಯು	-1098
▁before	-1099
▁ಅಬ್ರಾಮ	-1100
जा	-1101
యా	-1102
ಂಗ	-1103
our	-1104
▁tw	-1105
▁लो	-1106
ound	-1107
▁bec	-1108
▁మాట	-1109
▁ತಿಳ	-1110
▁लाबान	-1111
रण	-1112
ాబ	-1113
▁घर	-1114
టికి	-1115
▁ऐसा	-1116
▁बना	-1117
▁रखा	-1118
▁वहां	-1119
▁నీకు	-1120
▁ತೆಗೆ	-1121
▁ನಮ್ಮ	-1122
ge	-1123
pt	-1124
रू	-1125
నీ	-1126
యె	-1127
ಂಟ	-1128
हों	-1129
ಾನ್	-1130
▁by	-1131
▁do	-1132
▁बी	-1133
vant	-1134
▁but	-1135
ब्राम	-1136
▁into	-1137
▁अपना	-1138
▁भेड़	-1139
▁ప్రతి	-1140
▁अब्राम	-1141
▁daughters	-1142
तर	-1143
ರೋ	-1144
ೆಕ	-1145
ade	-1146
ड़ी	-1147
యకు	-1148
ವಾದ	-1149
▁ar	-1150
▁उठ	-1151
చ్చి	-1152
లును	-1153
ರಿಂದ	-1154
▁ಮಂದ	-1155
▁ವಾಸ	-1156
▁जन्म	-1157
▁ಸ್ಥಳ	-1158
▁Abram	-1159
▁దినము	-1160
▁ನಿನಗೆ	-1161
▁hundred	-1162
▁ಕುಮಾರ್ತ	-1163
nt	-1164
दी	-1165
ल्	-1166
ನೀ	-1167
ach	-1168
పోయ	-1169
ింప	-1170
▁पू	-1171
▁లో	-1172
▁వే	-1173
▁స్	-1174
ause	-1175
reat	-1176
▁करे	-1177
▁संग	-1178
▁కని	-1179
▁ಕೇಳ	-1180
ించిన	-1181
▁ಅದಕ್ಕೆ	-1182
सी	-1183
గల	-1184
ోస	-1185
ೋಟ	-1186
ave	-1187
one	-1188
ूमि	-1189
▁हे	-1190
మందు	-1191
▁हमा	-1192
▁లాబ	-1193
▁made	-1194
ದಲ್ಲದೆ	-1195
▁behold	-1196
▁సహోదరు	-1197
ft	-1198
ಹನ	-1199
ಾಪ	-1200
ೂರ	-1201
రము	-1202
▁pr	-1203
▁रख	-1204
चात्	-1205
చ్చు	-1206
ದಿಂದ	-1207
ದ್ದು	-1208
ಿಸಿದ	-1209
▁आशी	-1210
▁रहे	-1211
ండ్లు	-1212
ಳನ್ನು	-1213
▁hast	-1214
▁ಮನೆಯ	-1215
▁saying	-1216
▁ಆಶೀರ್ವದ	-1217
▁ಅಬ್ರಹಾಮನು	-1218
टि	-1219
ित	-1220
ुफ	-1221
ದೇ	-1222
ara	-1223
sel	-1224
tle	-1225
्वा	-1226
ಾನೆ	-1227
▁am	-1228
▁दी	-1229
▁కన	-1230
▁dre	-1231
▁బ్ర	-1232
▁రాజ	-1233
▁ಲಾಬ	-1234
ation	-1235
▁అక్కడ	-1236
▁ಮಗನಾದ	-1237
▁లాబాను	-1238
ినప్పుడు	-1239
ूत	-1240
ೋಸ	-1241
ర్వ	-1242
▁గా	-1243
▁పో	-1244
▁ಹೀ	-1245
थात्	-1246
▁उनक	-1247
▁उसे	-1248
▁दास	-1249
▁रहा	-1250
ರನ್ನು	-1251
ಲಿಲ್ಲ	-1252
▁कारण	-1253
श्चात्	-1254
▁నన్ను	-1255
▁ಅಲ್ಲಿ	-1256
▁ತೆಗೆದು	-1257
▁अर्थात्	-1258
▁ಇದಲ್ಲದೆ	-1259
ಾಧ	-1260
नान	-1261
रूष	-1262
ೆಗಳ	-1263
▁eat	-1264
▁men	-1265
▁आया	-1266
▁శార	-1267
▁ಸೇವ	-1268
ಿಯನ್ನು	-1269
▁seven	-1270
एल	-1271
ಳಿ	-1272
eld	-1273
रों	-1274
డగు	-1275
ತನು	-1276
▁वि	-1277
▁ಕೂ	-1278
aban	-1279
▁सुन	-1280
▁ದಾಸ	-1281
▁days	-1282
▁సంతా	-1283
▁Laban	-1284
▁thing	-1285
▁ಲಾಬಾನ	-1286
ುಗಳನ್ನು	-1287
द्	-1288
प्	-1289
రా	-1290
్గ	-1291
ನೇ	-1292
ಲೂ	-1293
ಿರ	-1294
ೇಫ	-1295
ೋರ	-1296
▁v	-1297
▁gr	-1298
▁चा	-1299
▁ಬಿ	-1300
ದಕ್ಕ	-1301
ೋಸೇಫ	-1302
▁con	-1303
▁పోయ	-1304
▁ಸಂತ	-1305
▁give	-1306
▁seed	-1307
▁చూచి	-1308
ಿನಲ್ಲಿ	-1309
▁पुरूष	-1310
▁ಯೋಸೇಫ	-1311
▁ಹೆಸರಿ	-1312
▁उन्हों	-1313
▁children	-1314
▁కుమారులు	-1315
ఱ్	-1316
ೇಯ	-1317
▁ಐ	-1318
ंगे	-1319
ఱ్ఱ	-1320
ಂತೆ	-1321
ಕಾರ	-1322
▁Ph	-1323
▁dw	-1324
▁we	-1325
▁गए	-1326
▁ना	-1327
▁वा	-1328
▁ಕೆ	-1329
▁ರೆ	-1330
▁did	-1331
▁one	-1332
▁अनु	-1333
▁लगा	-1334
▁మంద	-1335
చున్న	-1336
▁bare	-1337
▁उनके	-1338
▁करने	-1339
▁भूमि	-1340
छा	-1341
शु	-1342
ంధ	-1343
్న	-1344
ೊದ	-1345
ree	-1346
थान	-1347
ీరు	-1348
ಮಾನ	-1349
▁ag	-1350
▁co	-1351
▁ती	-1352
▁ను	-1353
▁సమ	-1354
▁ಯೆ	-1355
ೊಂಡು	-1356
▁जीव	-1357
కారము	-1358
▁తెలి	-1359
▁ದೇವರ	-1360
▁again	-1361
▁ಅದನ್ನು	-1362
ोर	-1363
ಂಭ	-1364
ill	-1365
ित्	-1366
చెద	-1367
ಹನು	-1368
▁du	-1369
▁su	-1370
▁नग	-1371
▁పా	-1372
▁ಆಕ	-1373
ష్యు	-1374
ನನ್ನ	-1375
ನೀನು	-1376
▁చేయ	-1377
ought	-1378
▁well	-1379
▁स्त्	-1380
▁स्थान	-1381
▁అబ్రాము	-1382
▁ಕುಮಾರ್ತೆಯ	-1383
तु	-1384
ोट	-1385
యే	-1386
ేపు	-1387
▁de	-1388
▁lo	-1389
▁ओर	-1390
▁ಗು	-1391
▁ಯಜ	-1392
ount	-1393
वाले	-1394
ूसुफ	-1395
డును	-1396
▁now	-1397
▁बहु	-1398
▁सात	-1399
బట్టి	-1400
▁जाति	-1401
▁तेरी	-1402
▁प्रा	-1403
▁నీళ్	-1404
నుష్యు	-1405
▁यूसुफ	-1406
▁అతనితో	-1407
▁నిన్ను	-1408
ನ್ನೆಲ್ಲಾ	-1409
▁because	-1410
▁servant	-1411
▁భూమిమీద	-1412
▁కుమారుని	-1413
ul	-1414
త్	-1415
లె	-1416
ದಿ	-1417
ದ್	-1418
ಲು	-1419
ech	-1420
हेल	-1421
ణము	-1422
▁Wh	-1423
▁so	-1424
▁लौ	-1425
▁మి	-1426
▁जान	-1427
▁యిం	-1428
oseph	-1429
▁over	-1430
▁लेकर	-1431
▁చేయు	-1432
ಾಗಿರುವ	-1433
▁place	-1434
ಿದ್ದೇನೆ	-1435
▁Joseph	-1436
ौन	-1437
గో	-1438
ోవ	-1439
ಕು	-1440
ಾಹ	-1441
ೆರ	-1442
▁डा	-1443
▁बु	-1444
▁మన	-1445
ಮಾಡಿ	-1446
▁saw	-1447
▁लोग	-1448
▁ಒಂದು	-1449
▁dream	-1450
▁राहेल	-1451
▁వెళ్ల	-1452
▁Behold	-1453
▁వెళ్లి	-1454
▁మనుష్యు	-1455
▁ಆದದರಿಂದ	-1456
▁పెట్టెను	-1457
ne	-1458
ज्	-1459
ुं	-1460
ూర	-1461
▁ఊ	-1462
aid	-1463
ity	-1464
ड़े	-1465
नों	-1466
మైన	-1467
▁गा	-1468
▁తమ	-1469
▁సం	-1470
▁ಮೂ	-1471
చేసి	-1472
తిని	-1473
దికి	-1474
మెను	-1475
యేలు	-1476
▁flo	-1477
▁two	-1478
▁पहि	-1479
▁लड़	-1480
▁స్త	-1481
attle	-1482
ಕೊಳ್ಳ	-1483
▁good	-1484
▁ಪಟ್ಟ	-1485
▁पश्चात्	-1486
▁ನನ್ನನ್ನು	-1487
बा	-1488
ूह	-1489
ತನ	-1490
ವೇ	-1491
ಷ್	-1492
ಾಶ	-1493
▁ఓ	-1494
oth	-1495
पति	-1496
ిన్న	-1497
ಿಯಾದ	-1498
▁The	-1499
▁let	-1500
▁पशु	-1501
▁ಅದು	-1502
▁ವರೆ	-1503
▁तेरा	-1504
▁ನಿಮ್ಮ	-1505
▁ಮಾಡುವ	-1506
▁cattle	-1507
తే	-1508
పె	-1509
▁D	-1510
య్య	-1511
లకు	-1512
ನಗೂ	-1513
▁dr	-1514
▁mo	-1515
▁బా	-1516
▁రె	-1517
▁సా	-1518
▁चला	-1519
▁ನೋಡ	-1520
▁ಮುಖ	-1521
▁ಸ್ತ	-1522
లన్ని	-1523
▁करके	-1524
▁होगा	-1525
▁ತಮ್ಮ	-1526
▁ಹೀಗೆ	-1527
ಗಳಲ್ಲಿ	-1528
▁నాయకు	-1529
▁పిల్ల	-1530
▁ಪಟ್ಟಣ	-1531
▁ಯಜಮಾನ	-1532
oh	-1533
दि	-1534
दो	-1535
రో	-1536
ಭಿ	-1537
▁ठ	-1538
ath	-1539
oah	-1540
own	-1541
कार	-1542
ढ़ा	-1543
ంచి	-1544
ందల	-1545
కూడ	-1546
ಳುಹ	-1547
▁मर	-1548
▁తో	-1549
▁బయ	-1550
▁యి	-1551
▁ಜೀ	-1552
▁ಸು	-1553
▁ಹಿ	-1554
యెడల	-1555
ಸ್ಕರ	-1556
▁sto	-1557
▁नगर	-1558
▁ಯಾರ	-1559
▁Noah	-1560
▁come	-1561
▁king	-1562
▁तुम्	-1563
▁ಕುರಿ	-1564
▁ಮಾಡಿ	-1565
▁ಹೋಗಿ	-1566
ಲ್ಪಟ್ಟ	-1567
▁forth	-1568
▁సమస్త	-1569
▁ನಿನ್ನನ್ನು	-1570
డై	-1571
నో	-1572
బ్	-1573
యన	-1574
శీ	-1575
ాప	-1576
ొద	-1577
ಗು	-1578
ೊಡ	-1579
ves	-1580
न्द	-1581
सार	-1582
▁aw	-1583
కొను	-1584
దిగో	-1585
ోవహు	-1586
▁कोई	-1587
▁बीच	-1588
▁ರಾಹ	-1589
achel	-1590
ప్పుడ	-1591
▁then	-1592
▁राजा	-1593
▁ಆತನು	-1594
▁ಮುಂದ	-1595
▁स्वप्	-1596
▁నోవహు	-1597
▁ಹೆತ್ತ	-1598
▁Rachel	-1599
▁अधिपति	-1600
▁तुम्हा	-1601
▁వారిని	-1602
्ड	-1603
ಳೆ	-1604
▁Z	-1605
▁ऊ	-1606
ind	-1607
ned	-1608
ृष्	-1609
తడు	-1610
త్ర	-1611
ధ్య	-1612
వలన	-1613
▁at	-1614
▁ne	-1615
▁హా	-1616
టిని	-1617
త్తి	-1618
యెను	-1619
లేదు	-1620
హేలు	-1621
▁off	-1622
▁old	-1623
▁नूह	-1624
▁కలు	-1625
▁యోస	-1626
▁ಅರಸ	-1627
thren	-1628
ृष्टि	-1629
▁बेटी	-1630
▁सारा	-1631
ಕೊಂಡನು	-1632
▁వచ్చి	-1633
ಿದ್ದಾನೆ	-1634
▁రాహేలు	-1635
▁ಇಸಾಕನು	-1636
▁brought	-1637
▁बकरियों	-1638
▁brethren	-1639
ty	-1640
us	-1641
ನೋ	-1642
esh	-1643
▁ಒಡ	-1644
రిగి	-1645
▁hea	-1646
▁may	-1647
▁बात	-1648
▁ఆశీ	-1649
▁ಏಳು	-1650
araoh	-1651
▁city	-1652
▁make	-1653
▁pray	-1654
▁take	-1655
▁बहुत	-1656
▁లేచి	-1657
▁ಬಂದು	-1658
ations	-1659
▁फिरौन	-1660
▁ರಾಹೇಲ	-1661
▁ಹೊರಗೆ	-1662
ುವದಕ್ಕೆ	-1663
▁అప్పుడ	-1664
▁యోసేపు	-1665
▁ಅವರಿಗೆ	-1666
▁Pharaoh	-1667
▁blessed	-1668
▁ಯಾಕಂದರೆ	-1669
ud	-1670
दे	-1671
ీవ	-1672
ತ್	-1673
ವೂ	-1674
ale	-1675
బది	-1676
ర్భ	-1677
ూర్	-1678
్రీ	-1679
ೊಂದ	-1680
▁ab	-1681
▁वृ	-1682
▁शे	-1683
▁మే	-1684
▁ಸಮ	-1685
arah	-1686
ould	-1687
नुष्	-1688
ಿದಾಗ	-1689
ೆಕ್ಕ	-1690
▁उसी	-1691
▁जित	-1692
▁నివ	-1693
▁ಫರೋ	-1694
నట్లు	-1695
▁face	-1696
▁मेरा	-1697
▁ಇರುವ	-1698
▁ಕಳುಹ	-1699
▁field	-1700
▁प्राण	-1701
▁मनुष्	-1702
▁ಅಂದಳು	-1703
▁ಕರ್ತನ	-1704
▁ಕೊಟ್ಟ	-1705
▁ಪ್ರಕಾರ	-1706
िब	-1707
పర	-1708
ವಿ	-1709
ವೆ	-1710
हने	-1711
ంటె	-1712
దుట	-1713
ಿದು	-1714
▁Le	-1715
▁फल	-1716
▁लि	-1717
▁ಈಗ	-1718
▁ಬಹ	-1719
▁ಹೇ	-1720
ెనని	-1721
ಾತ್ರ	-1722
▁fir	-1723
▁ಅದರ	-1724
▁ಎಂಬ	-1725
బడెను	-1726
ರನ್ನೂ	-1727
▁gave	-1728
▁कनान	-1729
▁होकर	-1730
▁గర్భ	-1731
▁ಒಬ್ಬ	-1732
▁ಒಳ್ಳ	-1733
▁Sarah	-1734
▁lived	-1735
▁where	-1736
▁स्वाम	-1737
▁हमारे	-1738
▁చేసిన	-1739
▁ಎದ್ದು	-1740
▁ವರುಷದ	-1741
▁अनुसार	-1742
▁ಅವನಿಂದ	-1743
▁ಮಗನನ್ನು	-1744
ek	-1745
బా	-1746
ಗ್	-1747
ನಸ	-1748
ೆಮ	-1749
▁ಓ	-1750
ana	-1751
ण्ड	-1752
्या	-1753
కాశ	-1754
దని	-1755
ಾನು	-1756
ಾರ್	-1757
▁भर	-1758
▁యజ	-1759
▁షే	-1760
ైనను	-1761
ಗಳಾದ	-1762
▁समय	-1763
▁అయి	-1764
▁ಲೋಟ	-1765
▁ಹೋದ	-1766
▁away	-1767
▁తాను	-1768
▁ಆಕಾಶ	-1769
ಗಳನ್ನೂ	-1770
▁great	-1771
▁చిన్న	-1772
▁ಮತ್ತು	-1773
▁स्त्री	-1774
▁स्वप्न	-1775
▁నీళ్లు	-1776
▁యొద్దకు	-1777
▁ಹುಟ್ಟಿದ	-1778
▁ప్రకారము	-1779
ag	-1780
ट्	-1781
ेर	-1782
ael	-1783
een	-1784
els	-1785
ంది	-1786
రకు	-1787
ಇಗೋ	-1788
ೆಯೂ	-1789
▁बै	-1790
▁తొ	-1791
▁మృ	-1792
▁ಮರ	-1793
ness	-1794
ward	-1795
लिये	-1796
వాడు	-1797
ನಿಂದ	-1798
▁Lot	-1799
▁bet	-1800
▁wom	-1801
▁ಕಾನ	-1802
anaan	-1803
▁దాసు	-1804
▁ನೀರು	-1805
చ్చెను	-1806
ೆಯನ್ನು	-1807
▁గొఱ్ఱ	-1808
▁Canaan	-1809
▁ఆశీర్వ	-1810
▁వచ్చిన	-1811
▁వాటిని	-1812
if	-1813
एं	-1814
पा	-1815
್ಡ	-1816
ite	-1817
काश	-1818
ದ್ಧ	-1819
ವನು	-1820
▁Ad	-1821
▁fe	-1822
▁pe	-1823
ందరి	-1824
మాను	-1825
ನಿಗೂ	-1826
ಳಿಗೆ	-1827
▁our	-1828
▁लिआ	-1829
▁కూడ	-1830
▁ಕೈಯ	-1831
▁ಜೀವ	-1832
యున్న	-1833
యొద్ద	-1834
ವತ್ತು	-1835
ವನ್ನೂ	-1836
▁done	-1837
▁sent	-1838
▁निकल	-1839
▁మధ్య	-1840
యొద్దకు	-1841
▁इसलिये	-1842
▁स्वामी	-1843
▁తిరిగి	-1844
▁ಏಸಾವನು	-1845
ें	-1846
మో	-1847
షు	-1848
ಟು	-1849
▁ಊ	-1850
ted	-1851
दोम	-1852
धान	-1853
म्ब	-1854
గ్గ	-1855
లతో	-1856
▁le	-1857
▁దయ	-1858
▁బె	-1859
▁యీ	-1860
▁ಸಿ	-1861
ऊंगा	-1862
త్రి	-1863
శువు	-1864
సెను	-1865
ಕ್ಷಿ	-1866
ಟ್ಟಿ	-1867
ನಾಂಗ	-1868
ರಿಗಿ	-1869
ರಿಗೆ	-1870
▁ఆయన	-1871
▁కలి	-1872
▁ఫరో	-1873
▁ಕನಸ	-1874
▁ಕರೆ	-1875
▁ಗರ್	-1876
म्हने	-1877
మునకు	-1878
ನಿನ್ನ	-1879
ಬೆಕ್ಕ	-1880
▁betw	-1881
▁आशीष	-1882
▁కనిన	-1883
▁నివస	-1884
ಗೋಸ್ಕರ	-1885
▁flock	-1886
▁जीवित	-1887
▁ఆమెను	-1888
▁ಜನಾಂಗ	-1889
▁ಮುಂದೆ	-1890
▁ವರೆಗೆ	-1891
▁waters	-1892
▁అందుకు	-1893
▁రాత్రి	-1894
▁నాయకుడు	-1895
▁బ్రదికి	-1896
▁ಅವರನ್ನು	-1897
▁ದೇಶದಲ್ಲಿ	-1898
ri	-1899
ss	-1900
um	-1901
चे	-1902
छे	-1903
पे	-1904
हर	-1905
ोन	-1906
వ్	-1907
▁ఐ	-1908
ಗಳೂ	-1909
ತ್ಯ	-1910
ೊಳಗ	-1911
▁ऊं	-1912
▁चल	-1913
▁ಜನ	-1914
▁ಸಹ	-1915
ered	-1916
िबका	-1917
ನಾನು	-1918
▁But	-1919
▁put	-1920
▁काम	-1921
▁रात	-1922
▁ఆదా	-1923
▁ಕಂಡ	-1924
▁Then	-1925
▁down	-1926
▁even	-1927
▁आकाश	-1928
▁उनको	-1929
▁ఆకాశ	-1930
▁ಹೇಳಿ	-1931
▁रिबका	-1932
▁పశువు	-1933
▁వచ్చు	-1934
▁ಕೊಡುವ	-1935
▁ರಾತ್ರ	-1936
▁ಹೆಸರು	-1937
▁heaven	-1938
▁मनुष्य	-1939
▁చెప్పి	-1940
ಾಗಿದ್ದನು	-1941
▁साम्हने	-1942
▁ಕುಮಾರರು	-1943
▁ಮಾಡಿದ್ದ	-1944
▁ರೆಬೆಕ್ಕ	-1945
▁ತೆಗೆದುಕೊಂಡು	-1946
दम	-1947
पर	-1948
్మ	-1949
ೀಯ	-1950
గిన	-1951
డని	-1952
ష్ట	-1953
ಡಾರ	-1954
ಿಗೂ	-1955
▁बि	-1956
▁కల	-1957
▁జా	-1958
▁మూ	-1959
▁సు	-1960
ites	-1961
ందున	-1962
మ్ము	-1963
రును	-1964
ಬೇಕು	-1965
▁mas	-1966
▁आदम	-1967
▁वही	-1968
▁స్థ	-1969
▁ಅರ್	-1970
▁ಲೇಯ	-1971
▁ಹೊಲ	-1972
▁Leah	-1973
▁లోతు	-1974
▁ನಾವು	-1975
▁दोनों	-1976
▁वृक्ष	-1977
▁అయితే	-1978
▁ಗುಡಾರ	-1979
▁ಹೆಚ್ಚ	-1980
▁master	-1981
▁दृष्टि	-1982
▁సంతానము	-1983
▁तुम्हारे	-1984
▁ಹುಟ್ಟಿದರು	-1985
ोल	-1986
కె	-1987
డవ	-1988
మై	-1989
ೀಮ	-1990
▁j	-1991
ice	-1992
ink	-1993
र्भ	-1994
నను	-1995
ప్త	-1996
యిన	-1997
వార	-1998
ోను	-1999
ಧ್ಯ	-2000
ಪ್ತ	-2001
ರಲಿ	-2002
▁इन	-2003
ebek	-2004
వారు	-2005
ಿರುವ	-2006
▁Let	-2007
▁अच्	-2008
▁यदि	-2009
▁ಕುಡ	-2010
▁ಬಾವ	-2011
ಾಗಿಯೂ	-2012
ಾಯಿತು	-2013
ಿನಿಂದ	-2014
ಿಯಾಗಿ	-2015
▁died	-2016
▁खड़ा	-2017
▁गर्भ	-2018
▁पिला	-2019
▁ప్రా	-2020
▁మృతి	-2021
▁శారా	-2022
▁ಸತ್ತ	-2023
ebekah	-2024
▁दूंगा	-2025
▁ಬಂದನು	-2026
▁ತಿರಿಗಿ	-2027
▁Rebekah	-2028
▁చెప్పగా	-2029
▁ತಂದೆಯಾದ	-2030
gy	-2031
ng	-2032
op	-2033
ठा	-2034
नो	-2035
్ఞ	-2036
ೇನ	-2037
▁O	-2038
ish	-2039
ong	-2040
ure	-2041
ोटी	-2042
బంధ	-2043
ృద్	-2044
ದುಕ	-2045
ನಾಡ	-2046
ವಾಸ	-2047
▁ey	-2048
▁ro	-2049
▁अल	-2050
▁दि	-2051
▁ఓడ	-2052
▁కో	-2053
▁రి	-2054
▁సి	-2055
▁సే	-2056
▁ಬರ	-2057
gypt	-2058
इयों	-2059
త్తు	-2060
వందల	-2061
▁cam	-2062
▁pre	-2063
▁way	-2064
▁तुम	-2065
▁लूत	-2066
▁గుడ	-2067
▁నరు	-2068
▁ಗಂಡ	-2069
▁ಯಾವ	-2070
గుప్త	-2071
ಗುಪ್ತ	-2072
▁your	-2073
▁द्वा	-2074
▁सारी	-2075
▁అనగా	-2076
▁రిబ్	-2077
▁ಮಧ್ಯ	-2078
కొనెను	-2079
▁Egypt	-2080
▁flesh	-2081
▁found	-2082
▁night	-2083
▁जितने	-2084
▁నున్న	-2085
ಲ್ಲಿದ್ದ	-2086
▁యజమాను	-2087
▁స్త్రీ	-2088
▁ಕಾನಾನ್	-2089
▁ಮಕ್ಕಳು	-2090
▁ಮಾತನಾಡ	-2091
▁ఆశీర్వద	-2092
▁కాబట్టి	-2093
▁కుమారులను	-2094
pp	-2095
డ్	-2096
బొ	-2097
మే	-2098
ావ	-2099
ొక	-2100
▁F	-2101
▁झ	-2102
cei	-2103
ime	-2104
ంపి	-2105
ధిప	-2106
ಸ್ತ	-2107
ಿಯು	-2108
▁kn	-2109
▁మర	-2110
▁ಅಡ	-2111
వరకు	-2112
ತ್ತಿ	-2113
ರಿಗೂ	-2114
ಾಯೇಲ	-2115
ೃಷ್ಟ	-2116
ೆಂದು	-2117
ೊಂದು	-2118
▁bur	-2119
▁अबी	-2120
▁अलग	-2121
▁उठा	-2122
▁ऊपर	-2123
▁भाग	-2124
▁ಮೊದ	-2125
ither	-2126
చ్చిన	-2127
ಮಾಡುವ	-2128
▁duke	-2129
▁eyes	-2130
▁kind	-2131
▁tent	-2132
▁तम्ब	-2133
▁पीछे	-2134
▁మంచి	-2135
▁లేయా	-2136
▁ತಾನು	-2137
▁ಬರುವ	-2138
▁ಹಿಂದ	-2139
▁first	-2140
▁three	-2141
▁మాటలా	-2142
▁ಮಕ್ಕಳ	-2143
▁ಹೇಳಿದ	-2144
లన్నియు	-2145
▁ఐగుప్త	-2146
▁వెళ్లు	-2147
ట్టుకొని	-2148
▁ಲಾಬಾನನು	-2149
▁ಅಬ್ರಹಾಮನ	-2150
▁ತಕ್ಕೊಂಡು	-2151
ry	-2152
भु	-2153
್ಞ	-2154
दान	-2155
र्ग	-2156
लेक	-2157
हाज	-2158
ैसा	-2159
గగా	-2160
ನ್ಯ	-2161
ವೆಯ	-2162
▁if	-2163
▁रू	-2164
▁చు	-2165
గును	-2166
ల్లి	-2167
ొక్క	-2168
ಂಬಡಿ	-2169
▁ark	-2170
▁spe	-2171
▁तीन	-2172
▁అబీ	-2173
▁ಒಂಟ	-2174
▁ಓಡಿ	-2175
▁ಕಾಣ	-2176
▁ಕೊಡ	-2177
ರೆಲ್ಲ	-2178
▁hear	-2179
▁told	-2180
▁जहाज	-2181
▁जाकर	-2182
▁वाचा	-2183
▁ಇಲ್ಲ	-2184
▁ನೀವು	-2185
▁ಸೇವಕ	-2186
ceived	-2187
venant	-2188
ీయులను	-2189
▁dwell	-2190
▁heard	-2191
▁प्रभु	-2192
▁ಏಸಾವನ	-2193
▁ಹೋದನು	-2194
▁mother	-2195
▁చేసెను	-2196
▁దేవుని	-2197
▁మృతిబొ	-2198
▁ಐಗುಪ್ತ	-2199
▁ಒಡಂಬಡಿ	-2200
ಗಳಾಗಿದ್ದ	-2201
▁बेटियां	-2202
▁ವರುಷದವನ	-2203
▁ಹೇಳಿದ್ದ	-2204
▁covenant	-2205
▁ಅಬ್ರಾಮನು	-2206
▁therefore	-2207
▁కుమారుడగు	-2208
▁తండ్రియైన	-2209
▁ಹುಟ್ಟಿದನು	-2210
▁కుమార్తెలను	-2211
ంగ	-2212
చె	-2213
ಣಿ	-2214
ೆಬ	-2215
▁(	-2216
▁ट	-2217
elt	-2218
led	-2219
न्त	-2220
वती	-2221
ूदा	-2222
ర్ప	-2223
ಮೋರ	-2224
ಿರಿ	-2225
▁ठह	-2226
▁ಎರ	-2227
ండగా	-2228
టిలో	-2229
నీవు	-2230
ృక్ష	-2231
ಲಾಗಿ	-2232
▁art	-2233
▁pit	-2234
▁पहा	-2235
▁लगी	-2236
▁समे	-2237
▁అంత	-2238
▁ತಾಯ	-2239
▁ನಾನ	-2240
▁ಸಾಯ	-2241
▁ಹಾಕ	-2242
तियों	-2243
ట్టిన	-2244
ననెను	-2245
ములను	-2246
▁Abim	-2247
▁born	-2248
▁జనము	-2249
▁విని	-2250
▁ಅಬೀಮ	-2251
ಿಸಿದ್ದ	-2252
ೊಂದಿಗೆ	-2253
ೊಳಗಿಂದ	-2254
▁beast	-2255
▁నిబంధ	-2256
▁ಹೊರಟು	-2257
▁भाइयों	-2258
▁దేవుడైన	-2259
▁ಯಾರಂದರೆ	-2260
▁కుమారుడైన	-2261
▁ಅಬ್ರಹಾಮನಿಗೆ	-2262
ix	-2263
డా	-2264
దో	-2265
యై	-2266
ಬಿ	-2267
ಹೂ	-2268
ೋಮ	-2269
▁K	-2270
राई	-2271
మున	-2272
వతి	-2273
▁vo	-2274
▁యూ	-2275
▁లె	-2276
▁వం	-2277
▁ಮೇ	-2278
iver	-2279
ople	-2280
self	-2281
र्वा	-2282
దాని	-2283
పోయి	-2284
బడిన	-2285
మెలె	-2286
వారి	-2287
్ఞాప	-2288
▁set	-2289
▁ऊंट	-2290
▁वस्	-2291
▁ಒಂದ	-2292
▁ಕಾಯ	-2293
▁ಶೆಕ	-2294
elech	-2295
मेलेक	-2296
र्वाद	-2297
ಬ್ಬರು	-2298
▁life	-2299
▁thir	-2300
▁कहने	-2301
▁पहुं	-2302
▁पुत्	-2303
▁बेटे	-2304
▁यहां	-2305
▁समेत	-2306
▁ఒంటె	-2307
▁దాసి	-2308
▁యేడు	-2309
▁వీరు	-2310
▁ಅವಳು	-2311
▁ಕಣ್ಣ	-2312
▁ಕತ್ತ	-2313
▁ನೋಡಿ	-2314
▁bring	-2315
▁dwelt	-2316
▁spake	-2317
▁करेगा	-2318
▁తల్లి	-2319
▁యెదుట	-2320
▁ಆಕಾಶದ	-2321
▁ಸ್ತ್ರ	-2322
ಿಸುವೆನು	-2323
▁people	-2324
▁అతనిని	-2325
▁ಅಬೀಮೆಲ	-2326
▁गर्भवती	-2327
▁అబీమెలె	-2328
▁గుడారము	-2329
▁अबीमेलेक	-2330
▁आशीर्वाद	-2331
▁ದಿನದಲ್ಲಿ	-2332
▁Abimelech	-2333
▁ಯಾಕೋಬನಿಗೆ	-2334
ंख	-2335
ंट	-2336
ंड	-2337
तू	-2338
रह	-2339
ूल	-2340
బె	-2341
శ్	-2342
ೀರ	-2343
ೇಮ	-2344
ೋನ	-2345
ged	-2346
ken	-2347
तान	-2348
द्ध	-2349
ట్ల	-2350
త్స	-2351
లిప	-2352
లుప	-2353
సిన	-2354
ార్	-2355
ಮಗೆ	-2356
ಷ್ಮ	-2357
ಿದೆ	-2358
▁आए	-2359
▁कै	-2360
▁चु	-2361
▁दु	-2362
▁मन	-2363
nder	-2364
नेहा	-2365
ీయుల	-2366
ಕ್ಕೂ	-2367
ಗಾಗಿ	-2368
ಾಗುವ	-2369
▁mul	-2370
▁sis	-2371
▁आंख	-2372
▁बच्	-2373
▁लगे	-2374
▁सम्	-2375
▁దీవ	-2376
▁మీద	-2377
▁ಇವರ	-2378
▁ನಾಶ	-2379
ित्ती	-2380
ద్దరు	-2381
ದಿಲ್ಲ	-2382
ಿಯಿಂದ	-2383
▁comm	-2384
▁उनकी	-2385
▁करता	-2386
▁निकट	-2387
▁पड़ा	-2388
▁మీరు	-2389
ಿದ್ದನು	-2390
▁count	-2391
▁drink	-2392
▁voice	-2393
▁young	-2394
▁तम्बू	-2395
▁बान्ध	-2396
▁అనెను	-2397
▁ಗರ್ಭಿ	-2398
▁ಹೋಗುವ	-2399
▁camels	-2400
▁should	-2401
▁sister	-2402
▁చెప్పు	-2403
▁ಯಾಕೋಬನ	-2404
▁వెళ్లెను	-2405
▁ಆಕೆಯನ್ನು	-2406
▁ಅವುಗಳನ್ನು	-2407
▁ಹೆಂಡತಿಯಾದ	-2408
▁ಹೆಸರಿಟ್ಟನು	-2409
cc	-2410
ub	-2411
की	-2412
ञा	-2413
भी	-2414
मी	-2415
रो	-2416
జు	-2417
పో	-2418
ేమ	-2419
ತು	-2420
तना	-2421
ानी	-2422
స్థ	-2423
ಕಾಲ	-2424
▁Re	-2425
▁gi	-2426
▁छो	-2427
▁కి	-2428
▁గల	-2429
▁ది	-2430
▁ಕಡ	-2431
▁ದು	-2432
▁ಮಲ	-2433
▁ರೊ	-2434
aken	-2435
ving	-2436
ज्ञा	-2437
माएल	-2438
्याह	-2439
ండిన	-2440
న్నా	-2441
వత్స	-2442
ష్మా	-2443
ವುಗಳ	-2444
ೊಡ್ಡ	-2445
ೊಳ್ಳ	-2446
▁Ham	-2447
▁Ish	-2448
▁who	-2449
▁yet	-2450
▁लौट	-2451
▁हों	-2452
▁ఊరి	-2453
▁ಕೂಡ	-2454
మ్మని	-2455
ಟ್ಟಳು	-2456
▁Beth	-2457
▁What	-2458
▁know	-2459
▁lift	-2460
▁look	-2461
▁more	-2462
▁mult	-2463
▁tree	-2464
▁what	-2465
▁पक्ष	-2466
▁पूछा	-2467
▁बड़ी	-2468
▁लौंड	-2469
▁చేతి	-2470
▁పక్ష	-2471
▁పట్ట	-2472
▁ತಿಂದ	-2473
▁ಯೆಹೂ	-2474
▁ಹುಡು	-2475
ೇನಂದರೆ	-2476
▁taken	-2477
▁आज्ञा	-2478
▁ब्याह	-2479
▁ఇదిగో	-2480
▁కనాను	-2481
▁విస్త	-2482
▁ಅಂದರು	-2483
▁ಅವುಗಳ	-2484
▁ಕರೆದು	-2485
▁ಪಕ್ಷಿ	-2486
▁ಮಾಡಿದ	-2487
లోనుండి	-2488
▁ground	-2489
▁రిబ్కా	-2490
▁సంవత్స	-2491
▁between	-2492
▁पुत्रों	-2493
▁చెప్పిన	-2494
▁ತಕ್ಕೊಂಡ	-2495
▁ಹೆತ್ತಳು	-2496
▁మృతిబొంద	-2497
▁ಅಬೀಮೆಲೆಕ	-2498
▁ಸಹೋದರನಾದ	-2499
ಗಳಾಗಿದ್ದವು	-2500
▁conceived	-2501
▁అప్పుడతడు	-2502
▁ಮಧ್ಯದಲ್ಲಿ	-2503
li	-2504
मु	-2505
्य	-2506
టా	-2507
టు	-2508
ెర	-2509
ెల	-2510
ొమ	-2511
ome	-2512
ous	-2513
owl	-2514
काल	-2515
केम	-2516
र्श	-2517
लें	-2518
लों	-2519
ంపు	-2520
పడి	-2521
మంత	-2522
వది	-2523
వని	-2524
ದುರ	-2525
▁अव	-2526
▁దూ	-2527
▁ಊಟ	-2528
▁ಪಶ	-2529
odom	-2530
vent	-2531
డిచి	-2532
ములు	-2533
ొదొమ	-2534
ುಗಳು	-2535
▁For	-2536
▁any	-2537
▁bow	-2538
▁इश्	-2539
▁गाय	-2540
▁बता	-2541
▁నాశ	-2542
▁ಸಂಪ	-2543
చెదను	-2544
▁Cain	-2545
▁Ishm	-2546
▁dest	-2547
▁fowl	-2548
▁time	-2549
▁बहिन	-2550
▁बाहर	-2551
▁शकेम	-2552
▁తనకు	-2553
▁పురు	-2554
▁రాజు	-2555
▁రెండ	-2556
▁ಇಷ್ಮ	-2557
▁ಎಲ್ಲ	-2558
▁ಕೊಂಡ	-2559
▁ನಿಂತ	-2560
▁Sodom	-2561
▁लड़के	-2562
▁కన్ను	-2563
▁చూచిన	-2564
▁పొలము	-2565
▁యొద్ద	-2566
▁ಅಂದಾಗ	-2567
▁ದೊಡ್ಡ	-2568
▁ನಾವೆಯ	-2569
చుండెను	-2570
▁करूंगा	-2571
▁प्रधान	-2572
▁इश्माएल	-2573
▁बेटियों	-2574
▁ಕರ್ತನಾದ	-2575
▁ಮಾಡಿದನು	-2576
▁ಯೋಸೇಫನು	-2577
▁ಹೇಳಿದನು	-2578
▁భార్యయైన	-2579
aw	-2580
ंच	-2581
తూ	-2582
ಂಚ	-2583
ಷಯ	-2584
್ವ	-2585
roy	-2586
प्र	-2587
हें	-2588
డిగ	-2589
తుల	-2590
దేశ	-2591
ీను	-2592
్పు	-2593
ಂಟು	-2594
▁Ar	-2595
▁Ed	-2596
▁ke	-2597
▁no	-2598
▁sm	-2599
▁धा	-2600
▁मु	-2601
▁చో	-2602
▁హే	-2603
▁ಕೋ	-2604
▁ತು	-2605
ener	-2606
ised	-2607
క్కి	-2608
మి్మ	-2609
లికి	-2610
ಾರ್ಗ	-2611
ೃದ್ಧ	-2612
▁Jud	-2613
▁Now	-2614
▁see	-2615
▁str	-2616
▁आगे	-2617
▁दूस	-2618
▁పని	-2619
▁ಬಹಳ	-2620
▁ಸೊದ	-2621
ంతువు	-2622
డుగగా	-2623
త్తము	-2624
ధిపతి	-2625
ನನ್ನೂ	-2626
ನೆಂದು	-2627
▁both	-2628
▁lord	-2629
▁जहां	-2630
▁बन्ध	-2631
▁मिला	-2632
▁सदोम	-2633
▁ఉన్న	-2634
▁నాతో	-2635
▁ప్రభ	-2636
▁బావి	-2637
▁ಕೇಳಿ	-2638
▁ತಂದೆ	-2639
▁ದೇಶದ	-2640
▁ಬೇರೆ	-2641
▁ವಿಷಯ	-2642
▁ಹತ್ತ	-2643
ಲ್ಲಿಯೂ	-2644
▁among	-2645
▁gener	-2646
▁mount	-2647
▁wives	-2648
▁पशुओं	-2649
▁मार्ग	-2650
▁यहूदा	-2651
▁ఇష్మా	-2652
▁నుండి	-2653
▁ಒಳ್ಳೇ	-2654
▁ನಿನಗೂ	-2655
▁ಮಾರ್ಗ	-2656
erefore	-2657
ದ್ದರಿಂದ	-2658
▁దయచేసి	-2659
▁పోయెను	-2660
▁ಹೆಂಡತಿ	-2661
ಾಗಿದ್ದಾಗ	-2662
▁destroy	-2663
▁గర్భవతి	-2664
▁యేండ్లు	-2665
▁వచ్చెను	-2666
▁ಬಳಿಯಲ್ಲಿ	-2667
▁అబీమెలెకు	-2668
▁ಹೆಸರಿಟ್ಟಳು	-2669
ip	-2670
ठे	-2671
से	-2672
పి	-2673
లయ	-2674
ಕೋ	-2675
ise	-2676
ood	-2677
tur	-2678
uit	-2679
ुंह	-2680
्रह	-2681
చేత	-2682
ద్ర	-2683
వలె	-2684
వ్వ	-2685
శ్చ	-2686
్రమ	-2687
ಕ್ತ	-2688
ಗನು	-2689
ಬಾರ	-2690
ೆಯು	-2691
ೇಲ್	-2692
▁Ja	-2693
▁or	-2694
▁sw	-2695
▁आप	-2696
▁कब	-2697
▁चि	-2698
▁सि	-2699
▁జీ	-2700
▁భయ	-2701
▁వీ	-2702
▁ಮೆ	-2703
▁ಮೈ	-2704
ison	-2705
न्तु	-2706
स्था	-2707
దును	-2708
నేను	-2709
ప్పగ	-2710
ಯಿತು	-2711
ಷ್ಟು	-2712
▁acc	-2713
▁sou	-2714
▁యావ	-2715
▁సంప	-2716
oured	-2717
రువది	-2718
ಗಿದ್ದ	-2719
ರುತ್ತ	-2720
▁This	-2721
▁rose	-2722
▁same	-2723
▁दण्ड	-2724
▁मुंह	-2725
▁रहता	-2726
▁सारे	-2727
▁కలుగ	-2728
▁త్రా	-2729
▁వస్త	-2730
▁ಬದುಕ	-2731
ording	-2732
ಿಯನ್ನೂ	-2733
▁creat	-2734
▁fruit	-2735
▁retur	-2736
▁woman	-2737
▁जाएगा	-2738
▁मैदान	-2739
▁ప్రయా	-2740
▁యుండు	-2741
▁సొదొమ	-2742
▁ಇನ್ನೂ	-2743
▁ಪ್ರಾಣ	-2744
▁ಶೆಕೆಮ	-2745
ಕೆಯನ್ನು	-2746
▁द्वारा	-2747
▁నాశనము	-2748
▁నీకును	-2749
▁ಸಂತತಿಯ	-2750
▁పిల్లలను	-2751
▁ಮನೆಯಲ್ಲಿ	-2752
▁according	-2753
ie	-2754
sh	-2755
sw	-2756
ंस	-2757
जन	-2758
टी	-2759
बल	-2760
रै	-2761
षय	-2762
ृह	-2763
జే	-2764
రే	-2765
షయ	-2766
ెబ	-2767
ಧಿ	-2768
ಾಳ	-2769
cum	-2770
ers	-2771
ied	-2772
ser	-2773
तें	-2774
लवा	-2775
ामा	-2776
ोजन	-2777
ంచు	-2778
కని	-2779
ద్య	-2780
నైన	-2781
బడు	-2782
లైన	-2783
ెకె	-2784
ಂದೂ	-2785
ನೂರ	-2786
ಮಾಣ	-2787
ವಂತ	-2788
ಸ್ಥ	-2789
ಾನದ	-2790
ಿಸು	-2791
▁So	-2792
▁दा	-2793
▁बन	-2794
▁शा	-2795
▁ఇం	-2796
▁దొ	-2797
▁నూ	-2798
▁పర	-2799
▁మొ	-2800
▁ದಿ	-2801
▁ಪೂ	-2802
▁ಹೂ	-2803
cumc	-2804
iply	-2805
కిని	-2806
మారు	-2807
యీను	-2808
ార్గ	-2809
್ಞಾಪ	-2810
▁Nah	-2811
▁ang	-2812
▁तीस	-2813
▁नाश	-2814
▁बढ़	-2815
▁జ్య	-2816
▁నేల	-2817
▁పది	-2818
▁బంధ	-2819
▁మరల	-2820
▁మొద	-2821
▁ಅವಳ	-2822
▁ಕ್ರ	-2823
ఇదిగో	-2824
యముగా	-2825
ಡುತ್ತ	-2826
▁Adam	-2827
▁four	-2828
▁maid	-2829
▁morn	-2830
▁कुएं	-2831
▁रहने	-2832
▁विषय	-2833
▁होने	-2834
▁తప్ప	-2835
▁దగ్గ	-2836
▁బయలు	-2837
▁యూదా	-2838
▁ಕಟ್ಟ	-2839
▁ನನಗೂ	-2840
▁ನೋಹನ	-2841
▁ಮಂದಿ	-2842
ircumc	-2843
▁Judah	-2844
▁given	-2845
▁pitch	-2846
▁right	-2847
▁sheep	-2848
▁पहिले	-2849
▁बातें	-2850
▁लौंडी	-2851
▁నిశ్చ	-2852
▁పెట్ట	-2853
▁ಕೊಂಡು	-2854
▁ಸುನ್ನ	-2855
ಮಾಡಿದನು	-2856
ಲ್ಲಿರುವ	-2857
▁flocks	-2858
▁अवस्था	-2859
▁బయటికి	-2860
▁ಇಬ್ಬರು	-2861
▁ಮೇಲೆಯೂ	-2862
ಿಸಲ್ಪಟ್ಟ	-2863
▁morning	-2864
▁nations	-2865
▁ఐగుప్తు	-2866
▁దేశములో	-2867
▁ಕುಮಾರರೂ	-2868
▁multiply	-2869
▁ತಕ್ಕೊಳ್ಳ	-2870
▁ಮನುಷ್ಯನು	-2871
▁సంవత్సరము	-2872
▁generations	-2873
ui	-2874
ంభ	-2875
లీ	-2876
ళి	-2877
వత	-2878
ోజ	-2879
ಡೆ	-2880
ಮಿ	-2881
ಾಂ	-2882
ೃಗ	-2883
▁U	-2884
▁ई	-2885
▁ढ	-2886
ese	-2887
ies	-2888
ond	-2889
orr	-2890
होर	-2891
కము	-2892
కొన	-2893
ప్ర	-2894
మంద	-2895
ించ	-2896
▁Se	-2897
▁आज	-2898
▁रे	-2899
▁శయ	-2900
▁ಗಳ	-2901
▁ಬಂ	-2902
▁ಬದ	-2903
▁ಬಲ	-2904
▁ಭಯ	-2905
▁ಮಿ	-2906
arai	-2907
reep	-2908
ट्टी	-2909
ल्ला	-2910
ండ్ల	-2911
క్కు	-2912
ద్దు	-2913
నిమి	-2914
మంది	-2915
వేసి	-2916
స్తి	-2917
ರುಗಿ	-2918
ಾಕ್ಷ	-2919
ಾಡುವ	-2920
ೊಳಗೆ	-2921
▁pro	-2922
▁कुल	-2923
▁कैन	-2924
▁जिन	-2925
▁डाल	-2926
▁दिए	-2927
▁मार	-2928
▁తూర	-2929
▁వార	-2930
▁ಹಾಗ	-2931
echem	-2932
న్నతి	-2933
ప్పది	-2934
ప్పున	-2935
మాణము	-2936
ూర్చి	-2937
ೆಯಿಂದ	-2938
▁answ	-2939
▁east	-2940
▁five	-2941
▁keep	-2942
▁left	-2943
▁near	-2944
▁खतना	-2945
▁बकरी	-2946
▁माता	-2947
▁सारै	-2948
▁పారి	-2949
▁పొంద	-2950
▁మును	-2951
▁మూడు	-2952
▁విషయ	-2953
▁వేరు	-2954
▁షెకె	-2955
▁ನಾಲ್	-2956
▁ವಸ್ತ	-2957
▁ಸಾರಯ	-2958
ొప్పున	-2959
ಸವನ್ನು	-2960
ಿದ್ದರು	-2961
▁Sarai	-2962
▁These	-2963
▁creep	-2964
▁thine	-2965
▁दण्डव	-2966
▁नाहोर	-2967
▁మార్గ	-2968
▁ಇನ್ನು	-2969
▁ಇಸಾಕನ	-2970
▁ದೃಷ್ಟ	-2971
▁ಬಂದಾಗ	-2972
▁ಮಗಳಾದ	-2973
▁ಮೊದಲು	-2974
▁ಹುಡುಗ	-2975
▁toward	-2976
▁उन्हें	-2977
▁కలిగిన	-2978
▁తూర్పు	-2979
▁వారికి	-2980
▁ಅರಸನಾದ	-2981
▁ಗರ್ಭಿಣ	-2982
▁ದಿನಗಳು	-2983
▁ಪ್ರಮಾಣ	-2984
▁Ishmael	-2985
▁Shechem	-2986
▁భార్యను	-2987
▁సున్నతి	-2988
▁ಮನುಷ್ಯನ	-2989
▁ರಾಹೇಲಳು	-2990
▁ಸ್ಥಳಕ್ಕೆ	-2991
ircumcised	-2992
▁ಅಬ್ರಾಮನಿಗೆ	-2993
no	-2994
గ్	-2995
ಲೆ	-2996
ವಸ	-2997
ವೋ	-2998
ೋಣ	-2999
eba	-3000
ian	-3001
out	-3002
sed	-3003
til	-3004
uel	-3005
कट्	-3006
त्य	-3007
रान	-3008
ष्ट	-3009
ूर्	-3010
కను	-3011
క్త	-3012
త్య	-3013
లువ	-3014
వాహ	-3015
ಬ್ರ	-3016
ವಳು	-3017
ಹಾಕ	-3018
ಹೋರ	-3019
▁en	-3020
▁sl	-3021
▁यु	-3022
▁దు	-3023
▁బే	-3024
▁ಇರ	-3025
▁ಚಿ	-3026
▁ಫಲ	-3027
iled	-3028
దురు	-3029
పరచు	-3030
ಹೋಗಿ	-3031
ಾರಾನ	-3032
ುವದು	-3033
▁app	-3034
▁kne	-3035
▁rem	-3036
▁ఏలయ	-3037
▁నలు	-3038
▁బహు	-3039
▁భోజ	-3040
▁ಅಭಿ	-3041
▁ಬೆಳ	-3042
▁ಮಾಂ	-3043
रियों	-3044
ండ్లి	-3045
క్కడి	-3046
లకును	-3047
లమందు	-3048
వలెను	-3049
ారాను	-3050
▁pill	-3051
▁whom	-3052
▁इकट्	-3053
▁छोड़	-3054
▁बढ़ा	-3055
▁भेंट	-3056
▁అన్న	-3057
▁కొని	-3058
▁తోడై	-3059
▁పోవు	-3060
▁యింట	-3061
▁ಅರಾಮ	-3062
▁ಆದಾಮ	-3063
▁ಪ್ರಯ	-3064
▁ಮೂರು	-3065
▁ಸಮಾಧ	-3066
gether	-3067
voured	-3068
नेवाले	-3069
ేండ్లు	-3070
ಿಸಿದಾಗ	-3071
▁Nahor	-3072
▁light	-3073
▁might	-3074
▁under	-3075
▁अच्छा	-3076
▁जानता	-3077
▁ఆదాము	-3078
▁పక్షు	-3079
▁పెద్ద	-3080
▁రాజైన	-3081
▁శారయి	-3082
▁సంతాన	-3083
▁ನೋಹನು	-3084
▁ಮುಖ್ಯ	-3085
▁ಸಂತಾನ	-3086
▁ಸಾರಳು	-3087
ಿಸಿಕೊಂಡ	-3088
▁living	-3089
▁thence	-3090
▁परन्तु	-3091
▁प्रकार	-3092
▁मिट्टी	-3093
▁ఏలయనగా	-3094
▁సహోదరి	-3095
▁ಒಳ್ಳೆಯ	-3096
▁ವಸ್ತ್ರ	-3097
▁against	-3098
▁యావత్తు	-3099
▁ಕೊಟ್ಟನು	-3100
▁ಸ್ತ್ರೀಯ	-3101
▁servants	-3102
▁ప్రమాణము	-3103
▁ಇಷ್ಮಾಯೇಲ	-3104
▁ಮನುಷ್ಯರು	-3105
▁మనుష్యులు	-3106
▁ಕುಮಾರ್ತೆಯರೂ	-3107
▁ಹೆಂಡತಿಯನ್ನು	-3108
az	-3109
be	-3110
lt	-3111
थर	-3112
पज	-3113
पथ	-3114
ूर	-3115
గె	-3116
నె	-3117
ಂಶ	-3118
ಣೆ	-3119
ದಯ	-3120
ೋಗ	-3121
▁.	-3122
ate	-3123
ide	-3124
ked	-3125
pre	-3126
ron	-3127
श्च	-3128
िरा	-3129
ुओं	-3130
గిల	-3131
తిన	-3132
బడి	-3133
ేను	-3134
్యా	-3135
్రే	-3136
ಮ್ರ	-3137
ರಿಯ	-3138
ಲಿನ	-3139
ವೇಲ	-3140
ಸಾರ	-3141
ಹೋದ	-3142
ಾರೆ	-3143
ೆರೆ	-3144
ೋಮ್	-3145
▁po	-3146
▁कू	-3147
▁छू	-3148
▁जे	-3149
▁नी	-3150
▁చా	-3151
▁రు	-3152
▁ಅಗ	-3153
▁ಆರ	-3154
▁ಇಳ	-3155
▁ಎದ	-3156
▁ಚೊ	-3157
▁ದನ	-3158
▁ದೀ	-3159
▁ಹಸ	-3160
aked	-3161
ance	-3162
aran	-3163
ence	-3164
ning	-3165
తోను	-3166
లిచి	-3167
▁Eno	-3168
▁दूत	-3169
▁मान	-3170
▁शेम	-3171
▁అవి	-3172
▁త్ర	-3173
▁దూత	-3174
▁ಅವು	-3175
▁ಏನು	-3176
▁ಕಾಲ	-3177
▁ಕೆಲ	-3178
▁ತಗ್	-3179
▁ಬಲಿ	-3180
▁ಬಹು	-3181
▁ಯಾದ	-3182
▁ವ್ಯ	-3183
జ్ఞాప	-3184
ದಕ್ಕೂ	-3185
ಮಾಡಿದ	-3186
ಲನ್ನು	-3187
ವೃದ್ಧ	-3188
ಹೋದನು	-3189
ಿಸಲ್ಪ	-3190
▁Shem	-3191
▁bear	-3192
▁sure	-3193
▁डाला	-3194
▁पड़े	-3195
▁भोजन	-3196
▁सेवा	-3197
▁గాని	-3198
▁జలము	-3199
▁నాహో	-3200
▁నీతో	-3201
▁వేసి	-3202
▁ಅಂದು	-3203
▁ಇವರು	-3204
▁ಇವರೇ	-3205
▁ಒಂದೇ	-3206
▁ಒಪ್ಪ	-3207
▁ಪ್ರೀ	-3208
▁ಯಾಕೆ	-3209
▁ವಾಸವ	-3210
▁ಹೂಣಿ	-3211
డిగెను	-3212
తరువాత	-3213
పోయెను	-3214
▁hands	-3215
▁river	-3216
▁पहाड़	-3217
▁लोगों	-3218
▁అట్లు	-3219
▁ఆమెతో	-3220
▁కయీను	-3221
▁గొప్ప	-3222
▁తెలియ	-3223
▁యింటి	-3224
▁వృక్ష	-3225
▁ಒಟ್ಟು	-3226
▁ಕಾಯಿನ	-3227
▁ಚೊಚ್ಚ	-3228
▁ಫರೋಹನ	-3229
▁ಬೆಟ್ಟ	-3230
▁ಸಿಕ್ಕ	-3231
▁ಹಿಂದೆ	-3232
▁lifted	-3233
▁looked	-3234
▁తెలిసి	-3235
▁పెట్టు	-3236
▁ಒಂಟೆಗಳ	-3237
▁ಪ್ರತ್ಯ	-3238
▁ಸಹೋದರನ	-3239
▁command	-3240
▁दण्डवत्	-3241
▁నప్పుడు	-3242
▁పెండ్లి	-3243
▁ముప్పది	-3244
▁యుండెను	-3245
▁answered	-3246
▁together	-3247
▁దేశమునకు	-3248
▁ಕೊಡುವೆನು	-3249
▁प्राणियों	-3250
▁నిశ్చయముగా	-3251
▁circumcised	-3252
▁ದೃಷ್ಟಿಯಲ್ಲಿ	-3253
▁ಒಡಂಬಡಿಕೆಯನ್ನು	-3254
ef	-3255
ig	-3256
of	-3257
ंझ	-3258
वे	-3259
టక	-3260
డె	-3261
దయ	-3262
ుల	-3263
ಂಪ	-3264
ಕಲ	-3265
ಕೆ	-3266
ಲೀ	-3267
ಲೇ	-3268
▁ధ	-3269
ang	-3270
ber	-3271
igh	-3272
ist	-3273
ney	-3274
ull	-3275
vil	-3276
ंगी	-3277
ज्य	-3278
तेल	-3279
म्भ	-3280
राम	-3281
र्थ	-3282
र्व	-3283
हान	-3284
्री	-3285
ంటి	-3286
డిన	-3287
తని	-3288
ముల	-3289
రహు	-3290
ర్ష	-3291
సము	-3292
ింద	-3293
ಗುವ	-3294
ಾಮ್	-3295
ಾರು	-3296
ಾಳೆ	-3297
ೋನ್	-3298
▁tr	-3299
▁आई	-3300
▁घा	-3301
▁डर	-3302
▁धन	-3303
▁शि	-3304
▁सक	-3305
▁అర	-3306
▁పై	-3307
▁సృ	-3308
▁ಆಳ	-3309
▁ಉಳ	-3310
▁ಕೇ	-3311
▁ನದ	-3312
▁ನನ	-3313
▁ಮಹ	-3314
▁ರೂ	-3315
▁ಹರ	-3316
born	-3317
ment	-3318
न्दर	-3319
न्दी	-3320
श्चय	-3321
ండ్ర	-3322
కుండ	-3323
ఫలము	-3324
రుగు	-3325
లుగు	-3326
లువు	-3327
వాని	-3328
ಕೆಯು	-3329
ಗ್ಗೆ	-3330
▁can	-3331
▁six	-3332
▁ten	-3333
▁छोट	-3334
▁दाख	-3335
▁धर्	-3336
▁भला	-3337
▁शपथ	-3338
▁समा	-3339
▁हाज	-3340
▁కను	-3341
▁గదా	-3342
▁భావ	-3343
▁ಎರಡ	-3344
▁ಜನರ	-3345
▁ತೆರ	-3346
▁ತೋಟ	-3347
▁ದ್ರ	-3348
▁ನಾದ	-3349
▁ವಂಶ	-3350
arden	-3351
ather	-3352
ೆತ್ತಿ	-3353
▁jour	-3354
▁कहला	-3355
▁खाया	-3356
▁देकर	-3357
▁रेंग	-3358
▁वैसा	-3359
▁కట్ట	-3360
▁కాపు	-3361
▁ద్రా	-3362
▁నిమి	-3363
▁పంపి	-3364
▁పాతి	-3365
▁పోయి	-3366
▁వెను	-3367
▁శయని	-3368
▁ಅರ್ಥ	-3369
▁ಇಸ್ರ	-3370
▁ಕಂಡು	-3371
▁ತಪ್ಪ	-3372
▁ಹೋಗು	-3373
selves	-3374
terpre	-3375
ಿಸುತ್ತ	-3376
▁bread	-3377
▁chief	-3378
▁eight	-3379
▁other	-3380
▁sight	-3381
▁until	-3382
▁whose	-3383
▁उत्तर	-3384
▁पत्थर	-3385
▁बन्दी	-3386
▁ఆస్తి	-3387
▁తెల్ల	-3388
▁దేవుడ	-3389
▁రెండు	-3390
▁ನಾಹೋರ	-3391
▁ನೋಡುವ	-3392
▁ಪೂರ್ವ	-3393
▁ಬಾವಿಯ	-3394
▁ಲೋಟನು	-3395
▁ಹೆರುವ	-3396
▁ಹೇಳುವ	-3397
యుండెను	-3398
▁garden	-3399
▁thirty	-3400
▁चित्ती	-3401
▁निश्चय	-3402
▁ఉండెను	-3403
▁కలుగజే	-3404
▁దానికి	-3405
▁దినమున	-3406
▁బయలుదే	-3407
▁వస్త్ర	-3408
▁వారితో	-3409
▁ಕುಮಾರರ	-3410
▁ಚೊಚ್ಚಲ	-3411
▁ಪ್ರೀತಿ	-3412
▁ಯಜಮಾನನ	-3413
▁ಸತ್ತನು	-3414
▁ಹತ್ತಿರ	-3415
▁ಹೆತ್ತು	-3416
ించుకొని	-3417
▁journey	-3418
▁కుమారుల	-3419
▁చొప్పున	-3420
▁దినములు	-3421
▁ద్రాక్ష	-3422
▁ಕಳುಹಿಸಿ	-3423
▁ಜನಾಂಗಗಳ	-3424
▁ದ್ರಾಕ್ಷ	-3425
▁ಯೆಹೂದನು	-3426
▁interpre	-3427
▁ಅಭಿವೃದ್ಧ	-3428
▁ಮಾಡುವೆನು	-3429
▁firstborn	-3430
▁గర్భవతియై	-3431
▁నిమిత్తము	-3432
▁చూచినప్పుడు	-3433
▁ವರುಷಗಳಾಗಿದ್ದವು	-3434
▁ವರುಷದವನಾಗಿದ್ದಾಗ	-3435
छी	-3436
णा	-3437
लय	-3438
लह	-3439
పా	-3440
బో	-3441
భి	-3442
వె	-3443
వై	-3444
ీఠ	-3445
ಳಯ	-3446
ಹು	-3447
▁ಖ	-3448
ear	-3449
rew	-3450
str	-3451
tar	-3452
कों	-3453
चकर	-3454
न्य	-3455
लाद	-3456
చ్చ	-3457
డిద	-3458
దము	-3459
వకు	-3460
వేళ	-3461
ష్ఠ	-3462
ಫ್ರ	-3463
▁--	-3464
▁Am	-3465
▁ता	-3466
▁पे	-3467
▁फा	-3468
▁बल	-3469
▁री	-3470
▁ली	-3471
▁सच	-3472
▁ఎవ	-3473
▁కే	-3474
▁చి	-3475
▁దీ	-3476
▁భా	-3477
▁శర	-3478
▁ದೊ	-3479
▁ಬಡ	-3480
▁ಬಾ	-3481
ared	-3482
enty	-3483
erah	-3484
onth	-3485
टिका	-3486
క్షి	-3487
డుచు	-3488
తివి	-3489
తును	-3490
య్యి	-3491
ెదను	-3492
ಡಿರಿ	-3493
ನಾಗಿ	-3494
ವನಾದ	-3495
▁Eph	-3496
▁ano	-3497
▁dep	-3498
▁div	-3499
▁fam	-3500
▁sle	-3501
▁ऐसी	-3502
▁घात	-3503
▁भेज	-3504
▁सन्	-3505
▁ఎదో	-3506
▁కటా	-3507
▁చని	-3508
▁చెర	-3509
▁తోట	-3510
▁నూట	-3511
▁ముఖ	-3512
▁విన	-3513
▁ಅದೇ	-3514
▁ಏರಿ	-3515
▁ನೂರ	-3516
▁ಬಾಧ	-3517
▁ಬೇತ	-3518
▁ಮೃಗ	-3519
▁ವಿಶ	-3520
▁ಸ್ವ	-3521
ssess	-3522
vants	-3523
ంచెను	-3524
ంటిని	-3525
ండిరి	-3526
కమును	-3527
కొరకు	-3528
నకును	-3529
బడును	-3530
ృద్ధి	-3531
ెదనని	-3532
ಕಾಲವೂ	-3533
ಗಳಿಗೆ	-3534
ಗಿರುವ	-3535
ಟ್ಟರು	-3536
ಲ್ಲದೆ	-3537
▁Edom	-3538
▁find	-3539
▁knew	-3540
▁tell	-3541
▁than	-3542
▁very	-3543
▁word	-3544
▁उठकर	-3545
▁किसी	-3546
▁तराई	-3547
▁पानी	-3548
▁बड़ा	-3549
▁मरने	-3550
▁मांस	-3551
▁मिद्	-3552
▁विदा	-3553
▁वेदी	-3554
▁ఒక్క	-3555
▁చేతు	-3556
▁జాతి	-3557
▁జ్యే	-3558
▁నీతి	-3559
▁యెడల	-3560
▁వాని	-3561
▁ಅಲ್ಲ	-3562
▁ಇರಲಿ	-3563
▁ಎದುರ	-3564
▁ಕಲ್ಲ	-3565
▁ನಿಗೆ	-3566
▁ಮತ್ತ	-3567
▁ಹೆಸರ	-3568
ందరిని	-3569
మాయెను	-3570
మి్మది	-3571
ವರೆಲ್ಲ	-3572
ಿದ್ದವು	-3573
▁Haran	-3574
▁altar	-3575
▁forty	-3576
▁month	-3577
▁plain	-3578
▁speak	-3579
▁stood	-3580
▁उठाकर	-3581
▁जन्तु	-3582
▁दिनों	-3583
▁पक्षी	-3584
▁बेतेल	-3585
▁राज्य	-3586
▁हारान	-3587
▁होंगे	-3588
▁వెనుక	-3589
▁సేవకు	-3590
▁ಮುಖಂಡ	-3591
▁ಮುಚ್ಚ	-3592
▁ಲೇಯಳು	-3593
▁ಸ್ತಂಭ	-3594
▁ಹಾರಾನ	-3595
▁ಹೆಣ್ಣ	-3596
▁ಹೋದರು	-3597
కొనుటకు	-3598
క్కడికి	-3599
లోనున్న	-3600
▁things	-3601
▁बाटिका	-3602
▁అడుగగా	-3603
▁జంతువు	-3604
▁తెచ్చి	-3605
▁దానిని	-3606
▁నాకును	-3607
▁విడిచి	-3608
▁విస్తర	-3609
▁హారాను	-3610
▁ಪಟ್ಟಣದ	-3611
▁ಪ್ರತಿಯ	-3612
▁ಪ್ರಯಾಣ	-3613
▁ಪ್ರವಾಸ	-3614
▁ಬರುತ್ತ	-3615
▁ರಾತ್ರಿ	-3616
servants	-3617
▁country	-3618
▁dreamed	-3619
▁possess	-3620
▁అప్పుడా	-3621
▁పుట్టిన	-3622
▁ಅಲ್ಲಿಂದ	-3623
▁ಕರಕೊಂಡು	-3624
▁ದೇಶಕ್ಕೆ	-3625
▁ಸುನ್ನತಿ	-3626
▁returned	-3627
▁చేసికొని	-3628
▁బయలుదేరి	-3629
▁యజమానుని	-3630
▁ಹೆಸರನ್ನು	-3631
▁ఇష్మాయేలు	-3632
▁పట్టుకొని	-3633
▁ಭೂಮಿಯಲ್ಲಿ	-3634
▁ರೆಬೆಕ್ಕಳು	-3635
▁ಸ್ಥಳದಲ್ಲಿ	-3636
▁ಹೆಸರಾಯಿತು	-3637
▁ಆಶೀರ್ವದಿಸಿ	-3638
ap	-3639
मो	-3640
रन	-3641
ाव	-3642
కే	-3643
గొ	-3644
తమ	-3645
నై	-3646
age	-3647
apt	-3648
ats	-3649
cer	-3650
kes	-3651
ort	-3652
xce	-3653
गृह	-3654
चार	-3655
द्र	-3656
भों	-3657
मुच	-3658
लीस	-3659
वता	-3660
కార	-3661
కిన	-3662
పము	-3663
ర్త	-3664
ర్మ	-3665
వేశ	-3666
ీవు	-3667
ದಾದ	-3668
ಲ್ಯ	-3669
ಿಂತ	-3670
ಿಯೋ	-3671
ೇಳೆ	-3672
▁An	-3673
▁Ch	-3674
▁My	-3675
▁cl	-3676
▁अद	-3677
▁खे	-3678
▁गि	-3679
▁दस	-3680
▁पल	-3681
▁फु	-3682
▁सी	-3683
▁ఆహ	-3684
▁ఇశ	-3685
▁తా	-3686
▁తు	-3687
▁పగ	-3688
▁బి	-3689
▁మె	-3690
▁ದೂ	-3691
▁ಪು	-3692
▁ಹದ	-3693
agar	-3694
ated	-3695
eous	-3696
erad	-3697
ough	-3698
rael	-3699
ग्रह	-3700
राने	-3701
ంతయు	-3702
త్తర	-3703
దువు	-3704
యందు	-3705
యును	-3706
లాగు	-3707
విని	-3708
స్సు	-3709
ార్థ	-3710
ృద్ధ	-3711
ಾಗಲಿ	-3712
ಾವಳಿ	-3713
ುದ್ಧ	-3714
ೆಗಳು	-3715
ೆರಡು	-3716
▁cur	-3717
▁die	-3718
▁wor	-3719
▁अना	-3720
▁आकर	-3721
▁आने	-3722
▁तथा	-3723
▁पका	-3724
▁बैल	-3725
▁युग	-3726
▁ఆవు	-3727
▁జీవ	-3728
▁దాస	-3729
▁మూడ	-3730
▁మేక	-3731
▁ಅಂಗ	-3732
▁ಕಾರ	-3733
▁ಕೆಳ	-3734
▁ಕೋಪ	-3735
▁ತ್ತ	-3736
▁ದನು	-3737
▁ಬಂಧ	-3738
▁ಬೇಟ	-3739
▁ಮಗನ	-3740
▁ಮನೆ	-3741
▁ಮೇಯ	-3742
▁ಮೈದ	-3743
▁ವಿಧ	-3744
ering	-3745
క్షము	-3746
క్ష్య	-3747
చ్చెద	-3748
తట్టు	-3749
యినను	-3750
యొక్క	-3751
వాహము	-3752
ీయులు	-3753
్రోను	-3754
ಳುತ್ತ	-3755
ಹನಿಗೆ	-3756
ಿಕೊಂಡ	-3757
▁Heth	-3758
▁capt	-3759
▁ears	-3760
▁fled	-3761
▁herd	-3762
▁kine	-3763
▁lest	-3764
▁meet	-3765
▁nine	-3766
▁pres	-3767
▁soul	-3768
▁एदोम	-3769
▁करें	-3770
▁क्रो	-3771
▁धन्य	-3772
▁परदे	-3773
▁पांच	-3774
▁सभों	-3775
▁समान	-3776
▁होता	-3777
▁ఉండు	-3778
▁తిని	-3779
▁వందల	-3780
▁వాడు	-3781
▁ಅರ್ಪ	-3782
▁ತುಂಬ	-3783
▁ನಮಗೆ	-3784
▁ನಿಂದ	-3785
▁ನೀತಿ	-3786
▁ವೇಳೆ	-3787
▁ಸಾಯಂ	-3788
▁ಸ್ವರ	-3789
▁ಹಾಗರ	-3790
▁ಹಿಂತ	-3791
▁ಹೇತನ	-3792
▁ಹೊಂದ	-3793
▁Hagar	-3794
▁depar	-3795
▁flood	-3796
▁ईश्वर	-3797
▁निकाल	-3798
▁रहेगा	-3799
▁सचमुच	-3800
▁ఇశ్రా	-3801
▁జాతుల	-3802
▁తమ్ము	-3803
▁దేశము	-3804
▁పట్టణ	-3805
▁బ్రది	-3806
▁వెలుప	-3807
▁ಅದಕ್ಕ	-3808
▁ಇಟ್ಟು	-3809
▁ಇತ್ತು	-3810
▁ಕೆಟ್ಟ	-3811
▁ಕೊಲ್ಲ	-3812
▁ತಾಯಿಯ	-3813
▁ದಾಸಿಯ	-3814
▁ಮಾತ್ರ	-3815
▁ಸುತ್ತ	-3816
▁ಹಾಗೆಯ	-3817
venture	-3818
నప్పుడు	-3819
ಕೊಳ್ಳುವ	-3820
ಪ್ಪತ್ತು	-3821
ವಾಗಿರುವ	-3822
▁Bethel	-3823
▁gather	-3824
▁pillar	-3825
▁हाजिरा	-3826
▁నిబంధన	-3827
▁పుచ్చు	-3828
▁పెట్టి	-3829
▁ప్రాకు	-3830
▁ಕೈಯಿಂದ	-3831
▁ಫರೋಹನು	-3832
▁ಬದಲಾಗಿ	-3833
▁ರೊಟ್ಟಿ	-3834
▁ಲಾಬಾನನ	-3835
▁ಸಹೋದರರ	-3836
ನ್ನೆತ್ತಿ	-3837
▁another	-3838
▁himself	-3839
▁thereof	-3840
▁अनुग्रह	-3841
▁वस्त्रा	-3842
▁కాపురము	-3843
▁జ్యేష్ఠ	-3844
▁దేశమందు	-3845
▁ಕನಸನ್ನು	-3846
▁ಕಾನಾನ್ಯ	-3847
▁ಕೈಯಲ್ಲಿ	-3848
▁ಫಲವನ್ನು	-3849
ಿಸುವದಕ್ಕೆ	-3850
▁blessing	-3851
▁बन्दीगृह	-3852
▁కటాక్షము	-3853
▁ಕರ್ತನಿಗೆ	-3854
▁Therefore	-3855
▁commanded	-3856
▁righteous	-3857
▁యాకోబునకు	-3858
eradventure	-3859
▁themselves	-3860
▁కుమారునికి	-3861
▁ಅಬೀಮೆಲೆಕನು	-3862
▁ಪ್ರತಿಯೊಂದು	-3863
▁కుమార్తెయైన	-3864
ct	-3865
ol	-3866
sp	-3867
टा	-3868
ठी	-3869
लू	-3870
लौ	-3871
ीन	-3872
యమ	-3873
్ష	-3874
ತೂ	-3875
ಫೆ	-3876
ಶ್	-3877
ಾಟ	-3878
ಾಷ	-3879
ೃಪ	-3880
ೇಕ	-3881
aim	-3882
ash	-3883
ead	-3884
ful	-3885
ods	-3886
pen	-3887
uch	-3888
वें	-3889
ूरी	-3890
ोली	-3891
ంతు	-3892
గాక	-3893
గ్ర	-3894
డగా	-3895
డవి	-3896
దిన	-3897
ద్ధ	-3898
మ్మ	-3899
శావ	-3900
ెబా	-3901
ಂಗಿ	-3902
ಗಾರ	-3903
ಚಾರ	-3904
ದೇಶ	-3905
ದ್ರ	-3906
ಧಿಕ	-3907
ಬೇಡ	-3908
ರನು	-3909
ಲೆಯ	-3910
ವಾಗ	-3911
ಾನನ	-3912
ಿದ್	-3913
ೆಯೇ	-3914
ೈದು	-3915
ೊಂಭ	-3916
ೋನನ	-3917
್ಡಬ	-3918
▁If	-3919
▁ch	-3920
▁ho	-3921
▁im	-3922
▁चौ	-3923
▁जन	-3924
▁मत	-3925
▁रो	-3926
▁ఎఫ	-3927
▁గో	-3928
▁తే	-3929
▁పడ	-3930
▁మహ	-3931
▁రూ	-3932
▁ಆಜ	-3933
▁ಏಳ	-3934
▁ಕಿ	-3935
▁ತನ	-3936
ased	-3937
lder	-3938
त्ति	-3939
न्तर	-3940
र्शन	-3941
గాను	-3942
దియు	-3943
వాడై	-3944
ಂಡಿತ	-3945
ಕಲಾದ	-3946
▁Gom	-3947
▁cle	-3948
▁gar	-3949
▁har	-3950
▁lay	-3951
▁nam	-3952
▁ran	-3953
▁sec	-3954
▁sub	-3955
▁इसी	-3956
▁उतर	-3957
▁करो	-3958
▁कूच	-3959
▁गड़	-3960
▁चढ़	-3961
▁चले	-3962
▁बार	-3963
▁भोर	-3964
▁मूल	-3965
▁वरन	-3966
▁అభి	-3967
▁ఎదు	-3968
▁ఏడు	-3969
▁కనా	-3970
▁క్ర	-3971
▁క్ష	-3972
▁తిన	-3973
▁పంప	-3974
▁లను	-3975
▁సంగ	-3976
▁సృజ	-3977
▁హమో	-3978
▁హాగ	-3979
▁ಇವೇ	-3980
▁ಕೃಪ	-3981
▁ತೊಡ	-3982
▁ಬಾಗ	-3983
▁ಮರದ	-3984
eding	-3985
పోయిన	-3986
లమును	-3987
లైనను	-3988
వచ్చు	-3989
ರಲ್ಲಿ	-3990
ಳನ್ನೂ	-3991
ಾಯೇಲ್	-3992
▁Beer	-3993
▁Thus	-3994
▁door	-3995
▁exce	-3996
▁fift	-3997
▁here	-3998
▁male	-3999
▁mine	-4000
▁open	-4001
▁reig	-4002
▁sake	-4003
▁slay	-4004
▁wilt	-4005
▁उनका	-4006
▁खम्भ	-4007
▁छोटे	-4008
▁जाने	-4009
▁जीवन	-4010
▁जैसा	-4011
▁ठहरा	-4012
▁ठहरे	-4013
▁धारी	-4014
▁बन्द	-4015
▁रीति	-4016
▁वहीं	-4017
▁सांझ	-4018
▁ఎందు	-4019
▁నియమ	-4020
▁బెయే	-4021
▁షేము	-4022
▁హాము	-4023
▁ಎಫ್ರ	-4024
▁ಕರೆಯ	-4025
▁ತಗ್ಗ	-4026
▁ತನಗೆ	-4027
▁ಬೆಳಿ	-4028
▁ಬೇಡಿ	-4029
▁ಮಗನೇ	-4030
▁ಮುಂಚ	-4031
▁ಯಾಗಿ	-4032
▁ವಾಗಿ	-4033
▁ಸಾರಳ	-4034
▁ಸಾರಿ	-4035
▁ಸೇವೆ	-4036
గెత్తి	-4037
న్నిధి	-4038
వేసెను	-4039
ಿಸಿದರು	-4040
▁Hamor	-4041
▁dukes	-4042
▁stone	-4043
▁चालीस	-4044
▁दर्शन	-4045
▁निकली	-4046
▁बच्चे	-4047
▁वंशाव	-4048
▁वस्तु	-4049
▁हमारी	-4050
▁నేలను	-4051
▁ప్రేమ	-4052
▁బ్రదు	-4053
▁ముందు	-4054
▁రెండవ	-4055
▁వృద్ధ	-4056
▁ಅಂದರೆ	-4057
▁ಅಡ್ಡಬ	-4058
▁ಕಡೆಗೆ	-4059
▁ಖಂಡಿತ	-4060
▁ದಿನಗಳ	-4061
▁ನಿಂತು	-4062
▁ವರೆಗೂ	-4063
▁Israel	-4064
▁twenty	-4065
▁पहुंचा	-4066
▁सुन्दर	-4067
▁అధిపతి	-4068
▁అయినను	-4069
▁కొలువు	-4070
▁చెయ్యి	-4071
▁నలుబది	-4072
▁ప్రవేశ	-4073
▁బంధువు	-4074
▁స్థలము	-4075
▁ತಂದೆಗೆ	-4076
▁ತಂದೆಯು	-4077
▁ತಿಳಿದು	-4078
▁ಬಡಕಲಾದ	-4079
▁ಭೂಮಿಯು	-4080
▁ಮಗನಿಗೆ	-4081
▁ಸೇವಕನು	-4082
▁created	-4083
▁garment	-4084
▁hearken	-4085
▁neither	-4086
▁younger	-4087
▁దగ్గరకు	-4088
▁నుండెను	-4089
▁ప్రతిగా	-4090
▁ప్రభువు	-4091
▁ప్రాణము	-4092
▁సన్నిధి	-4093
▁ದಾಸಿಯಾದ	-4094
▁ನೋಡಿದನು	-4095
▁ಬಹಳವಾಗಿ	-4096
▁ಮುಖಂಡರು	-4097
▁ಮೂವತ್ತು	-4098
▁ಯಜಮಾನನು	-4099
▁ವಂಶಾವಳಿ	-4100
▁ಹೋಗುತ್ತ	-4101
▁favoured	-4102
▁offering	-4103
▁पिलानेहा	-4104
▁తొమి్మది	-4105
▁రాహేలును	-4106
▁ಏಸಾವನಿಗೆ	-4107
▁ಬೆಳಿಗ್ಗೆ	-4108
▁ಭೂಮಿಯನ್ನು	-4109
▁ಮಕ್ಕಳನ್ನು	-4110
▁रेंगनेवाले	-4111
▁అక్కడనుండి	-4112
▁అబ్రాహాముతో	-4113
▁మృతిబొందెను	-4114
▁ಗರ್ಭಿಣಿಯಾಗಿ	-4115
▁ಹೇಳಿದ್ದೇನಂದರೆ	-4116
▁ಕುಮಾರ್ತೆಯರನ್ನು	-4117
iz	-4118
va	-4119
को	-4120
धा	-4121
बे	-4122
हू	-4123
తా	-4124
పడ	-4125
మొ	-4126
రె	-4127
ిర	-4128
ಲೋ	-4129
ಸಿ	-4130
ಹೊ	-4131
ೀಠ	-4132
ixt	-4133
len	-4134
ott	-4135
urn	-4136
त्प	-4137
नार	-4138
नोक	-4139
मेक	-4140
रवा	-4141
ाना	-4142
िश्	-4143
ैले	-4144
ంచె	-4145
తము	-4146
యగు	-4147
రను	-4148
ృష్	-4149
్వర	-4150
ಪ್ರ	-4151
ಭಾಗ	-4152
ರಿಗ	-4153
ರಿನ	-4154
ರೀರ	-4155
ರುಗ	-4156
ರೋಧ	-4157
ಲಾರ	-4158
ವನೇ	-4159
ಿಯೇ	-4160
ೃದಯ	-4161
ೆನೆ	-4162
ೇನು	-4163
ೇವೆ	-4164
▁El	-4165
▁Go	-4166
▁In	-4167
▁We	-4168
▁आठ	-4169
▁झु	-4170
▁तौ	-4171
▁बद	-4172
▁बर	-4173
▁కూ	-4174
▁జల	-4175
▁శే	-4176
▁హి	-4177
▁ಗಿ	-4178
▁ಗೆ	-4179
▁ಗೊ	-4180
▁ದಯ	-4181
▁ನೂ	-4182
▁ಪರ	-4183
▁ಮೊ	-4184
▁ಹಗ	-4185
amah	-4186
ided	-4187
maid	-4188
ried	-4189
rove	-4190
vour	-4191
ल्हा	-4192
కంటె	-4193
కెను	-4194
గురు	-4195
గ్గర	-4196
తేలు	-4197
స్థు	-4198
ಕರ್ತ	-4199
ಚ್ಚೆ	-4200
ತಕ್ಕ	-4201
ನಾವು	-4202
ನ್ನಿ	-4203
ಮಾಡು	-4204
ಿಗೆಯ	-4205
ೆಮೆಕ	-4206
್ಯರೂ	-4207
▁Bec	-4208
▁Heb	-4209
▁ass	-4210
▁bir	-4211
▁dam	-4212
▁lad	-4213
▁law	-4214
▁कभी	-4215
▁चाह	-4216
▁दूं	-4217
▁नदी	-4218
▁रही	-4219
▁शाप	-4220
▁समझ	-4221
▁समु	-4222
▁हाम	-4223
▁అనా	-4224
▁ఇది	-4225
▁ఉండ	-4226
▁చంప	-4227
▁జను	-4228
▁పాన	-4229
▁వంశ	-4230
▁విం	-4231
▁హనో	-4232
▁ಅನಾ	-4233
▁ಇದೇ	-4234
▁ತೋರ	-4235
▁ನಿನ	-4236
▁ಮೊಳ	-4237
▁ಶೇಮ	-4238
▁ಹನೋ	-4239
amech	-4240
లలోను	-4241
ల్లను	-4242
వచ్చి	-4243
వలసిన	-4244
వాడైన	-4245
వృక్ష	-4246
శావళి	-4247
్యోను	-4248
ದೆಂದು	-4249
ನ್ಯಾಯ	-4250
ಬಾರದು	-4251
ರವಾಗಿ	-4252
ವುಳ್ಳ	-4253
ಾನದಾಯ	-4254
ಿರುಗಿ	-4255
▁Thou	-4256
▁appe	-4257
▁bury	-4258
▁butl	-4259
▁evil	-4260
▁meat	-4261
▁only	-4262
▁shew	-4263
▁wine	-4264
▁अत्य	-4265
▁आंखे	-4266
▁कहां	-4267
▁कहीं	-4268
▁जाऊं	-4269
▁जाता	-4270
▁जाना	-4271
▁तत्प	-4272
▁देने	-4273
▁नराम	-4274
▁पूरा	-4275
▁बनाई	-4276
▁रहते	-4277
▁रोटी	-4278
▁सम्प	-4279
▁स्वर	-4280
▁हनोक	-4281
▁हमोर	-4282
▁ఇయ్య	-4283
▁కూర్	-4284
▁కొండ	-4285
▁చెడ్	-4286
▁తనతో	-4287
▁తిను	-4288
▁త్వర	-4289
▁నీకి	-4290
▁నేనే	-4291
▁లెమె	-4292
▁విశా	-4293
▁సంపా	-4294
▁స్వర	-4295
▁హేతు	-4296
▁ಅಪ್ಪ	-4297
▁ಇವನು	-4298
▁ಎರಡು	-4299
▁ಕಾಣಿ	-4300
▁ಕೊಡು	-4301
▁ಗಂಡಸ	-4302
▁ಗಂಡು	-4303
▁ತೆನೆ	-4304
▁ದಿವಸ	-4305
▁ನಾನೇ	-4306
▁ಮಗನು	-4307
▁ಮಮ್ರ	-4308
▁ಯೆಫೆ	-4309
▁ರೆಗೂ	-4310
▁ಶರೀರ	-4311
▁ಹಮೋರ	-4312
▁ಹರಿದ	-4313
▁ಹೃದಯ	-4314
క్కిలి	-4315
గూర్చి	-4316
చున్నా	-4317
చేసెను	-4318
నిమిది	-4319
న్నాడు	-4320
లెత్తి	-4321
వలెనని	-4322
ించిరి	-4323
ించుము	-4324
ವಾಗಿಯೂ	-4325
ವಾಯಿತು	-4326
ಿಕೊಂಡು	-4327
ೆಯಲ್ಲಿ	-4328
▁angel	-4329
▁bowed	-4330
▁goats	-4331
▁heart	-4332
▁अच्छी	-4333
▁पूर्व	-4334
▁बनैले	-4335
▁बुलवा	-4336
▁लेमेक	-4337
▁కప్పగ	-4338
▁తట్టు	-4339
▁నరుని	-4340
▁నీళ్ల	-4341
▁మందలు	-4342
▁వెండి	-4343
▁శరీరు	-4344
▁సంతతి	-4345
▁సాగిల	-4346
▁స్తంభ	-4347
▁ಆಕೆಗೆ	-4348
▁ಆದದ್ದ	-4349
▁ಇಳಿದು	-4350
▁ಕಟ್ಟಿ	-4351
▁ತಿಂದು	-4352
▁ತಿನ್ನ	-4353
▁ಪಶುಗಳ	-4354
▁ರೊಟ್ಟ	-4355
▁ವಿರೋಧ	-4356
▁ಸತ್ತು	-4357
▁ಸೃಷ್ಟ	-4358
▁ಹತ್ತು	-4359
ట్లనెను	-4360
మునుండి	-4361
ೆಗಳನ್ನು	-4362
▁Lamech	-4363
▁damsel	-4364
▁prison	-4365
▁second	-4366
▁surely	-4367
▁अधिकार	-4368
▁जाएंगे	-4369
▁परदेशी	-4370
▁पहाड़ी	-4371
▁बान्धी	-4372
▁सन्तान	-4373
▁దాసులు	-4374
▁నాహోరు	-4375
▁పురుషు	-4376
▁ప్రయాణ	-4377
▁బేతేలు	-4378
▁ಆಜ್ಞಾಪ	-4379
▁ಕೊಂಡನು	-4380
▁ತಿನ್ನು	-4381
▁ಮಂದೆಗಳ	-4382
▁ಸಂಪತ್ತ	-4383
▁ಹಾಗೆಯೇ	-4384
▁Because	-4385
▁betwixt	-4386
▁divided	-4387
▁evening	-4388
▁reigned	-4389
▁अत्यन्त	-4390
▁बकरियां	-4391
▁वंशावली	-4392
▁అడిగెను	-4393
▁దాసియైన	-4394
▁పొలములో	-4395
▁యిద్దరు	-4396
▁ಅಬ್ರಾಮನ	-4397
▁ಅವಳನ್ನು	-4398
▁ಕಣ್ಣುಗಳ	-4399
▁ನೀತಿವಂತ	-4400
▁ಮಾತನ್ನು	-4401
ಿಸಿದ್ದಾನೆ	-4402
▁departed	-4403
▁fruitful	-4404
▁handmaid	-4405
▁धारीवाले	-4406
▁కుమారుడా	-4407
▁తెల్లవార	-4408
▁మిక్కిలి	-4409
▁యాకోబును	-4410
▁యెహోవాకు	-4411
▁exceeding	-4412
▁interpret	-4413
▁మనుష్యుడు	-4414
▁మనుష్యుని	-4415
▁యావత్తును	-4416
▁వెలుపలికి	-4417
▁चित्तीवाले	-4418
▁तत्पश्चात्	-4419
▁మృతిబొందిన	-4420
▁ಸುನ್ನತಿಮಾಡ	-4421
▁ಹೆಂಡತಿಯಾಗಿ	-4422
▁ఆశీర్వదించి	-4423
▁కన్నులెత్తి	-4424
▁ಮನುಷ್ಯನನ್ನು	-4425
▁ಆಶೀರ್ವದಿಸಿದನು	-4426
▁ವರುಷದವನಾಗಿದ್ದನು	-4427
ax	-4428
sb	-4429
चन	-4430
जद	-4431
टक	-4432
धु	-4433
फल	-4434
वी	-4435
शल	-4436
शा	-4437
िल	-4438
చూ	-4439
ీన	-4440
ಕದ	-4441
ಪಡ	-4442
ಮಾ	-4443
ಯಿ	-4444
ಸು	-4445
▁Y	-4446
▁ఖ	-4447
▁ಧ	-4448
ack	-4449
hah	-4450
ith	-4451
mam	-4452
ner	-4453
oin	-4454
ove	-4455
ush	-4456
ंगा	-4457
दाच	-4458
पेत	-4459
मधु	-4460
मुख	-4461
हेर	-4462
ेबा	-4463
ोरी	-4464
ంగీ	-4465
గదా	-4466
చార	-4467
చేయ	-4468
టకై	-4469
టిక	-4470
డవు	-4471
పరు	-4472
వైన	-4473
ష్త	-4474
ಂತರ	-4475
ಗಾವ	-4476
ತ್ರ	-4477
ನಿನ	-4478
ರ್ಷ	-4479
ಲ್ಕ	-4480
ಲ್ಹ	-4481
ಿಲಿ	-4482
ೆವು	-4483
▁fo	-4484
▁ki	-4485
▁खो	-4486
▁गद	-4487
▁दौ	-4488
▁नर	-4489
▁पच	-4490
▁फै	-4491
▁बू	-4492
▁भय	-4493
▁यो	-4494
▁అన	-4495
▁ఏద	-4496
▁చీ	-4497
▁తల	-4498
▁ఫల	-4499
▁మగ	-4500
▁శప	-4501
▁ಏಲ	-4502
▁ಜಲ	-4503
▁ದೆ	-4504
▁ಬೀ	-4505
▁ಮನ	-4506
▁ಶವ	-4507
▁ಸೂ	-4508
adan	-4509
ages	-4510
aram	-4511
cked	-4512
gged	-4513
jour	-4514
llow	-4515
oney	-4516
ring	-4517
uild	-4518
कारी	-4519
ड़के	-4520
तूएल	-4521
त्ता	-4522
रेलू	-4523
वासी	-4524
కేమి	-4525
ద్దన	-4526
పోవు	-4527
యీరు	-4528
ఱ్ఱా	-4529
లుగల	-4530
లేమి	-4531
ల్లా	-4532
ಲನೆಯ	-4533
ವಿಾಪ	-4534
ಾದರೂ	-4535
ಾನನು	-4536
ಾರಿನ	-4537
ಿದ್ಧ	-4538
ಿರಿಯ	-4539
ಿಸಲಿ	-4540
ೆಲ್ಲ	-4541
▁Bil	-4542
▁Who	-4543
▁end	-4544
▁rep	-4545
▁ven	-4546
▁एली	-4547
▁कहे	-4548
▁ज्य	-4549
▁नाई	-4550
▁पति	-4551
▁परा	-4552
▁पाए	-4553
▁मजद	-4554
▁मिल	-4555
▁रखे	-4556
▁वचन	-4557
▁ఉదయ	-4558
▁కడవ	-4559
▁పరు	-4560
▁మాం	-4561
▁సమా	-4562
▁హెబ	-4563
▁ಆದರ	-4564
▁ಒಂಭ	-4565
▁ತಿಂ	-4566
▁ಮುಗ	-4567
▁ಸೇಯ	-4568
▁ಸೇರ	-4569
ckled	-4570
orrah	-4571
pheth	-4572
sband	-4573
sheba	-4574
तियां	-4575
नियों	-4576
प्रलय	-4577
वताओं	-4578
्राएल	-4579
ందుకు	-4580
కొందు	-4581
పిల్ల	-4582
యునైన	-4583
లిపీఠ	-4584
ದೇವರು	-4585
ದ್ದನ್	-4586
ರ್ಷೆಬ	-4587
ಷ್ಟಿಯ	-4588
ಿಂದಲೂ	-4589
ಿದ್ದು	-4590
ೆಯಾಗಿ	-4591
▁Anah	-4592
▁Lord	-4593
▁Seir	-4594
▁That	-4595
▁dead	-4596
▁gate	-4597
▁head	-4598
▁laid	-4599
▁seen	-4600
▁such	-4601
▁till	-4602
▁wind	-4603
▁अहेर	-4604
▁कदाच	-4605
▁कब्र	-4606
▁चढ़ा	-4607
▁जनने	-4608
▁जिसे	-4609
▁तेरह	-4610
▁देता	-4611
▁पाकर	-4612
▁बड़े	-4613
▁मोटी	-4614
▁सकता	-4615
▁सुना	-4616
▁हित्	-4617
▁होगी	-4618
▁అభివ	-4619
▁కాదు	-4620
▁గురు	-4621
▁గొమొ	-4622
▁చూపు	-4623
▁బిల్	-4624
▁బెతూ	-4625
▁మనము	-4626
▁మాకు	-4627
▁మేము	-4628
▁మేలు	-4629
▁యాపె	-4630
▁రక్త	-4631
▁విను	-4632
▁సర్వ	-4633
▁సేనా	-4634
▁ಇನ್ನ	-4635
▁ಉತ್ತ	-4636
▁ಎಂಟು	-4637
▁ಎದೋಮ	-4638
▁ಒಡೆಯ	-4639
▁ಕ್ರಿ	-4640
▁ಗರ್ಭ	-4641
▁ನದಿಯ	-4642
▁ನೋಡು	-4643
▁ಫಿಲಿ	-4644
▁ಮಾಡು	-4645
▁ರಕ್ತ	-4646
▁ಲೇಯಳ	-4647
▁ಹನೋಕ	-4648
▁ಹೊಲದ	-4649
mament	-4650
र्शेबा	-4651
టికిని	-4652
న్నియు	-4653
పెట్టు	-4654
లోనికి	-4655
ార్యము	-4656
ಕೊಂಡರು	-4657
ನ್ನಾಗಿ	-4658
▁Enoch	-4659
▁Padan	-4660
▁Terah	-4661
▁blood	-4662
▁build	-4663
▁fifty	-4664
▁loved	-4665
▁money	-4666
▁names	-4667
▁peace	-4668
▁serve	-4669
▁stead	-4670
▁whole	-4671
▁words	-4672
▁ऊंटों	-4673
▁गायें	-4674
▁घरेलू	-4675
▁दासों	-4676
▁द्वार	-4677
▁बतूएल	-4678
▁बनाया	-4679
▁येपेत	-4680
▁सुनकर	-4681
▁हमारा	-4682
▁ఒకవేళ	-4683
▁కాలము	-4684
▁గాకని	-4685
▁గాడిద	-4686
▁చెరసా	-4687
▁జ్ఞాప	-4688
▁తెరహు	-4689
▁తెలుప	-4690
▁త్రాగ	-4691
▁నుండు	-4692
▁పద్దన	-4693
▁పరదేశ	-4694
▁పిలువ	-4695
▁పుత్ర	-4696
▁ప్రభు	-4697
▁స్థిర	-4698
▁ಆಯಿತು	-4699
▁ಕುಡಿಯ	-4700
▁ಕೊಂದು	-4701
▁ಗೊಮೋರ	-4702
▁ತಿಳಿದ	-4703
▁ತೊಡೆಯ	-4704
▁ಬಿಲ್ಹ	-4705
▁ಬೆತ್ತ	-4706
▁ಬೇತೇಲ	-4707
▁ಮುಂಚೆ	-4708
▁ಮುಟ್ಟ	-4709
▁ಮುದುಕ	-4710
▁ಲೆಮೆಕ	-4711
▁ವಿಶಾಲ	-4712
▁ಸವಿಾಪ	-4713
▁ಸೊದೋಮ	-4714
చున్నది	-4715
దేండ్లు	-4716
ದಕ್ಕಿಂತ	-4717
ದಲ್ಲಿಯೂ	-4718
ನಾಗಿದ್ದ	-4719
▁Ephron	-4720
▁digged	-4721
▁served	-4722
▁strang	-4723
▁within	-4724
▁इकट्ठा	-4725
▁चिल्ला	-4726
▁दाखमधु	-4727
▁निकलकर	-4728
▁मजदूरी	-4729
▁रहूंगा	-4730
▁सम्मुख	-4731
▁सृष्टि	-4732
▁हित्ती	-4733
▁ఇరువది	-4734
▁గొఱ్ఱల	-4735
▁నాలుగు	-4736
▁బలిపీఠ	-4737
▁భూమిని	-4738
▁వానికి	-4739
▁శేయీరు	-4740
▁షెకెము	-4741
▁ಅಬ್ರಹಾ	-4742
▁ಇದನ್ನು	-4743
▁ಎರಡನೆಯ	-4744
▁ನಿಲ್ಲಿ	-4745
▁ಪದ್ದನ್	-4746
▁ಪಾನದಾಯ	-4747
▁ಬಿಟ್ಟು	-4748
చున్నాను	-4749
యున్నాను	-4750
ಡುತ್ತೇನೆ	-4751
ಿದ್ದರಿಂದ	-4752
ಿಸಿಕೊಂಡು	-4753
▁Bethuel	-4754
▁Japheth	-4755
▁captain	-4756
▁husband	-4757
▁kindred	-4758
▁pitcher	-4759
▁अधिकारी	-4760
▁इस्राएल	-4761
▁कदाचित्	-4762
▁जलप्रलय	-4763
▁बन्धुओं	-4764
▁అనుకొని	-4765
▁ఇచ్చెను	-4766
▁ఎనిమిది	-4767
▁ఎఫ్రోను	-4768
▁చేయుటకు	-4769
▁తెచ్చిన	-4770
▁నొద్దకు	-4771
▁బెయేర్ష	-4772
▁ముందుగా	-4773
▁వంశావళి	-4774
▁ಕೇಳಿದನು	-4775
▁ತನಗಿದ್ದ	-4776
▁ನೀರನ್ನು	-4777
▁ನೋಡಿದಾಗ	-4778
▁ಬಳಿಯಿಂದ	-4779
▁ಬೇರ್ಷೆಬ	-4780
▁ಮೊದಲನೆಯ	-4781
▁Egyptian	-4782
▁Gomorrah	-4783
▁appeared	-4784
▁creeping	-4785
▁gathered	-4786
▁mountain	-4787
▁speckled	-4788
▁पक्षियों	-4789
▁बेर्शेबा	-4790
▁కుమారుడు	-4791
▁గొమొఱ్ఱా	-4792
▁జ్ఞాపకము	-4793
▁నివసించు	-4794
▁బ్రదికిన	-4795
▁యాకోబుతో	-4796
▁వారివారి	-4797
▁సహోదరుని	-4798
▁ಆಶೀರ್ವಾದ	-4799
▁ಇಪ್ಪತ್ತು	-4800
▁ಇಸಾಕನಿಗೆ	-4801
▁ನಾಶಮಾಡುವ	-4802
▁ಬದುಕಿದನು	-4803
▁ಹರಿದಾಡುವ	-4804
ಿಸಿದ್ದರಿಂದ	-4805
▁firmament	-4806
▁ఇశ్రాయేలు	-4807
▁ఇస్సాకును	-4808
▁సేనాధిపతి	-4809
▁ನಾಲ್ವತ್ತು	-4810
▁ಫಿಲಿಷ್ಟಿಯ	-4811
▁ಮಾಂಸವನ್ನು	-4812
▁ವಿಷಯದಲ್ಲಿ	-4813
▁ಹಿಂತಿರುಗಿ	-4814
▁possession	-4815
▁కనినతరువాత	-4816
▁ಪ್ರತ್ಯುತ್ತ	-4817
▁ಯೋಸೇಫನನ್ನು	-4818
▁ಸಂತತಿಯನ್ನು	-4819
▁సంవత్సరములు	-4820
▁ರಾತ್ರಿಯಲ್ಲಿ	-4821
▁Peradventure	-4822
▁దినములన్నియు	-4823
eg	-4824
ff	-4825
wn	-4826
ईर	-4827
कब	-4828
ब्	-4829
हल	-4830
ुक	-4831
ूप	-4832
కర	-4833
చో	-4834
తీ	-4835
దీ	-4836
పొ	-4837
లన	-4838
వీ	-4839
ెమ	-4840
ಜ್	-4841
ದೊ	-4842
ುಖ	-4843
▁;	-4844
▁ಟ	-4845
aph	-4846
cah	-4847
ces	-4848
esc	-4849
ile	-4850
ilt	-4851
not	-4852
nto	-4853
qui	-4854
soe	-4855
thr	-4856
क्ख	-4857
ढ़ी	-4858
दास	-4859
धित	-4860
बलि	-4861
बिल	-4862
बेर	-4863
लूम	-4864
वान	-4865
టను	-4866
తరు	-4867
తూష	-4868
న్య	-4869
మను	-4870
రని	-4871
లహు	-4872
వాస	-4873
ారా	-4874
ిలి	-4875
ూరు	-4876
ెలు	-4877
ొర్	-4878
ోతు	-4879
ಜಂತ	-4880
ಪೀಠ	-4881
ಬಹು	-4882
ಬೆಲ	-4883
ಶ್ಚ	-4884
ಹಾರ	-4885
ಾಡಿ	-4886
ೆಲೆ	-4887
▁अध	-4888
▁आओ	-4889
▁घट	-4890
▁ति	-4891
▁नौ	-4892
▁पक	-4893
▁सू	-4894
▁ఉప	-4895
▁జన	-4896
▁డె	-4897
▁ద్	-4898
▁నె	-4899
▁బల	-4900
▁మమ	-4901
▁ಉದ	-4902
▁ಗವ	-4903
▁ಗೋ	-4904
▁ಚು	-4905
▁ತಲ	-4906
▁ತೂ	-4907
▁ನಡ	-4908
▁ಯೊ	-4909
▁ಶಪ	-4910
▁ಹಣ	-4911
alah	-4912
amre	-4913
elah	-4914
erar	-4915
held	-4916
ines	-4917
oken	-4918
outh	-4919
pped	-4920
rose	-4921
क्ति	-4922
त्तर	-4923
नेवा	-4924
न्या	-4925
मोरा	-4926
म्रे	-4927
र्ती	-4928
र्दे	-4929
र्बल	-4930
लाकर	-4931
लौठे	-4932
ल्का	-4933
ండని	-4934
కాను	-4935
కారు	-4936
గ్రహ	-4937
డుగు	-4938
బోవు	-4939
మియు	-4940
మీరు	-4941
ర్చు	-4942
లుపు	-4943
ల్లు	-4944
ళ్లు	-4945
ಕ್ಷಣ	-4946
ಗಿಂತ	-4947
ಡೆದು	-4948
ದ್ದಿ	-4949
ನೂರು	-4950
ಳಿಗೂ	-4951
ಶ್ಚಯ	-4952
ಿಯನೂ	-4953
ಿಯರೂ	-4954
ುದ್ರ	-4955
ೈನೂರ	-4956
ೊಬ್ಬ	-4957
▁Din	-4958
▁Eli	-4959
▁She	-4960
▁air	-4961
▁del	-4962
▁fem	-4963
▁lit	-4964
▁obe	-4965
▁ple	-4966
▁sil	-4967
▁sin	-4968
▁wal	-4969
▁आदा	-4970
▁उपज	-4971
▁किस	-4972
▁गरा	-4973
▁चरा	-4974
▁चार	-4975
▁ढेर	-4976
▁दें	-4977
▁निय	-4978
▁मही	-4979
▁मोल	-4980
▁यही	-4981
▁यों	-4982
▁सके	-4983
▁सिर	-4984
▁ఇదే	-4985
▁ఎలీ	-4986
▁ఏలు	-4987
▁కొన	-4988
▁గాక	-4989
▁గెర	-4990
▁చాల	-4991
▁జరి	-4992
▁తిం	-4993
▁నది	-4994
▁పడి	-4995
▁బలి	-4996
▁వ్య	-4997
▁సము	-4998
▁ಅಡವ	-4999
▁ಇವು	-5000
▁ಗೆರ	-5001
▁ಜಾತ	-5002
▁ದಯೆ	-5003
▁ದಾಟ	-5004
▁ಮೂರ	-5005
▁ರುವ	-5006
▁ವಾದ	-5007
▁ಸಂಬ	-5008
▁ಸೆರ	-5009
ained	-5010
ilies	-5011
ilist	-5012
र्थना	-5013
्रीति	-5014
దగ్గర	-5015
దాయకు	-5016
ించెద	-5017
ూయేలు	-5018
ಪಟ್ಟು	-5019
ಿದ್ದೀ	-5020
ುವಂತೆ	-5021
ೆಲಹನು	-5022
್ಞಾಪಕ	-5023
▁Abel	-5024
▁Adah	-5025
▁Unto	-5026
▁cast	-5027
▁coat	-5028
▁comp	-5029
▁dust	-5030
▁ever	-5031
▁fell	-5032
▁live	-5033
▁send	-5034
▁अधिक	-5035
▁कहकर	-5036
▁कहना	-5037
▁कुशल	-5038
▁खाने	-5039
▁चोरी	-5040
▁छोटी	-5041
▁तौभी	-5042
▁दीना	-5043
▁देगा	-5044
▁दोनो	-5045
▁निका	-5046
▁नीचे	-5047
▁फाटक	-5048
▁बुरा	-5049
▁भागा	-5050
▁रहें	-5051
▁लड़क	-5052
▁लोहू	-5053
▁सेईर	-5054
▁అర్ప	-5055
▁ఎట్ల	-5056
▁ఏబది	-5057
▁కనాన	-5058
▁కాను	-5059
▁గుంట	-5060
▁చంపి	-5061
▁తమతమ	-5062
▁దాసీ	-5063
▁నాకి	-5064
▁పర్వ	-5065
▁ఫిలి	-5066
▁మచ్చ	-5067
▁మనవి	-5068
▁మూడవ	-5069
▁మేపు	-5070
▁రప్ప	-5071
▁వేటా	-5072
▁హేబె	-5073
▁ಅರಿಯ	-5074
▁ಅವರಿ	-5075
▁ಆಹಾರ	-5076
▁ಉಂಟು	-5077
▁ಕೂಡಿ	-5078
▁ಕೈಗೆ	-5079
▁ಗುರು	-5080
▁ತೋಟದ	-5081
▁ನಾನೂ	-5082
▁ಬಣ್ಣ	-5083
▁ಬೆಳಕ	-5084
▁ಮಣ್ಣ	-5085
▁ಮಲಗಿ	-5086
▁ಹದಿನ	-5087
soever	-5088
vailed	-5089
చుండగా	-5090
టిలోను	-5091
ట్టిరి	-5092
డాయెను	-5093
ತ್ತೈದು	-5094
ಿದ್ದರೆ	-5095
▁Gerar	-5096
▁Mamre	-5097
▁above	-5098
▁arose	-5099
▁asses	-5100
▁burnt	-5101
▁cover	-5102
▁death	-5103
▁eaten	-5104
▁grace	-5105
▁kings	-5106
▁mouth	-5107
▁third	-5108
▁women	-5109
▁अन्तर	-5110
▁अमोरा	-5111
▁गड़हे	-5112
▁घराने	-5113
▁चारों	-5114
▁जन्मा	-5115
▁दुष्ट	-5116
▁दूसरे	-5117
▁पलिश्	-5118
▁मम्रे	-5119
▁मालूम	-5120
▁हाबिल	-5121
▁ఆలాగు	-5122
▁ఎదుర్	-5123
▁ఎదోము	-5124
▁కలుగు	-5125
▁కొంచె	-5126
▁క్షేమ	-5127
▁జలప్ర	-5128
▁మమ్రే	-5129
▁యున్న	-5130
▁సంపాద	-5131
▁సిద్ధ	-5132
▁హాగరు	-5133
▁ಕುಪ್ಪ	-5134
▁ಚಿಕ್ಕ	-5135
▁ದುಷ್ಟ	-5136
▁ನಂದರೆ	-5137
▁ನನ್ನು	-5138
▁ನ್ಯಾಯ	-5139
▁ಬಾಧ್ಯ	-5140
▁ಬೇಟೆಯ	-5141
▁ಮಚ್ಚೆ	-5142
▁ಮೈದಾನ	-5143
▁ಸಂತತಿ	-5144
▁ಸಿದ್ಧ	-5145
▁ಹೇಬೆಲ	-5146
ననుకొని	-5147
వచ్చెను	-5148
ింపబడిన	-5149
ృష్టికి	-5150
ಧಿಕವಾಗಿ	-5151
ವಾಗಿದ್ದ	-5152
▁Bilhah	-5153
▁became	-5154
▁butler	-5155
▁cannot	-5156
▁female	-5157
▁little	-5158
▁manner	-5159
▁nation	-5160
▁opened	-5161
▁passed	-5162
▁sevent	-5163
▁silver	-5164
▁sojour	-5165
▁spoken	-5166
▁stolen	-5167
▁wicked	-5168
▁कहलाता	-5169
▁छोड़कर	-5170
▁प्राणी	-5171
▁प्रीति	-5172
▁फुर्ती	-5173
▁बिल्हा	-5174
▁मिद्दी	-5175
▁मिल्का	-5176
▁मुर्दे	-5177
▁समाचार	-5178
▁समुद्र	-5179
▁ఉన్నది	-5180
▁గురుతు	-5181
▁గెరారు	-5182
▁త్రవ్వ	-5183
▁ప్రత్య	-5184
▁భక్ష్య	-5185
▁లోతును	-5186
▁విషయమై	-5187
▁సముద్ర	-5188
▁ಅಪ್ಪಣೆ	-5189
▁ಆಳಿದನು	-5190
▁ಇದ್ದನು	-5191
▁ಇದ್ದರು	-5192
▁ಎಂಬವರು	-5193
▁ಐವತ್ತು	-5194
▁ಕ್ರಿಮಿ	-5195
▁ಜೀವಜಂತ	-5196
▁ಜ್ಞಾಪಕ	-5197
▁ಬಲಿಪೀಠ	-5198
▁ಯೋಸೇಫನ	-5199
▁ರಾಹೇಲಳ	-5200
▁ಸಮುದ್ರ	-5201
▁ಸೊದೋಮ್	-5202
▁ಸ್ತ್ರೀ	-5203
▁ಸ್ವಲ್ಪ	-5204
▁ಹಸುಗಳು	-5205
ಗಳಲ್ಲಿಯೂ	-5206
ದಲ್ಲಿದ್ದ	-5207
▁therein	-5208
▁venison	-5209
▁wherein	-5210
▁क्रोधित	-5211
▁जातियों	-5212
▁पहिलौठे	-5213
▁అనువారు	-5214
▁కాజ్ఞాప	-5215
▁కార్యము	-5216
▁నాయకులు	-5217
▁పట్టణము	-5218
▁పిల్లలు	-5219
▁ఫిలిష్త	-5220
▁బ్రదుకు	-5221
▁భార్యయు	-5222
▁మాటలాడు	-5223
▁ಅದರಲ್ಲಿ	-5224
▁ಅಲ್ಲಿಗೆ	-5225
▁ಒಂಭೈನೂರ	-5226
▁ಕೊಟ್ಟಳು	-5227
▁ತೆನೆಗಳು	-5228
▁ನೋಡಲಾಗಿ	-5229
▁ಮೇಲಿದ್ದ	-5230
▁ಸೊದೋಮಿನ	-5231
▁creature	-5232
▁creepeth	-5233
▁families	-5234
▁सम्पत्ति	-5235
▁గొఱ్ఱలను	-5236
▁దేవునికి	-5237
▁నిబంధనను	-5238
▁పశువులను	-5239
▁పానదాయకు	-5240
▁బెతూయేలు	-5241
▁సహోదరుడు	-5242
▁ದೇಶವನ್ನು	-5243
▁ಪ್ರವಾಸಿಯ	-5244
ಗಳನ್ನೆಲ್ಲಾ	-5245
ಮಾಡುವದಕ್ಕೆ	-5246
▁Wherefore	-5247
▁journeyed	-5248
▁प्रार्थना	-5249
▁हित्तियों	-5250
▁అబ్రాముతో	-5251
▁అబ్రామును	-5252
▁ద్రాక్షార	-5253
▁పరుగెత్తి	-5254
▁ದ್ರಾಕ್ಷಾರ	-5255
▁ಮಂದೆಯನ್ನು	-5256
▁ಯೋಸೇಫನಿಗೆ	-5257
▁ಲಾಬಾನನಿಗೆ	-5258
ದ್ದನ್ನೆಲ್ಲಾ	-5259
▁కుమార్తెలు	-5260
▁పెట్టబడెను	-5261
▁బెయేర్షెబా	-5262
▁భక్ష్యకారు	-5263
▁యొద్దనుండి	-5264
▁ಕುಮಾರ್ತೆಗಳ	-5265
▁ಯಾಕೋಬನನ್ನು	-5266
▁ವಂಶಾವಳಿಗಳು	-5267
▁అబ్రాహామును	-5268
▁తప్పించుకొని	-5269
▁వచ్చినప్పుడు	-5270
▁చెప్పినప్పుడు	-5271
▁ಕಣ್ಣುಗಳನ್ನೆತ್ತಿ	-5272
▁ಪ್ರತ್ಯುತ್ತರವಾಗಿ	-5273
bs	-5274
ug	-5275
अर	-5276
खे	-5277
षा	-5278
हु	-5279
ीक	-5280
ेन	-5281
ంచ	-5282
జ్	-5283
సె	-5284
హన	-5285
ుజ	-5286
ోగ	-5287
ಂಜ	-5288
ಚಿ	-5289
ಬಲ	-5290
ರಕ	-5291
ಹರ	-5292
ೀನ	-5293
ೇಖ	-5294
▁ಳ	-5295
abl	-5296
ark	-5297
eed	-5298
for	-5299
ire	-5300
itt	-5301
kin	-5302
lib	-5303
men	-5304
oar	-5305
oke	-5306
pah	-5307
sto	-5308
ued	-5309
yri	-5310
ंगर	-5311
ंगल	-5312
च्छ	-5313
टोल	-5314
भिन	-5315
मान	-5316
मेर	-5317
लाम	-5318
वास	-5319
ुफा	-5320
ందర	-5321
డను	-5322
ణ్య	-5323
త్వ	-5324
పడు	-5325
ఫజు	-5326
మగు	-5327
యము	-5328
యొక	-5329
రోయ	-5330
ల్ప	-5331
ైదా	-5332
ಕೋಲ	-5333
ಡಿಮ	-5334
ಣ್ಯ	-5335
ತೂಷ	-5336
ಥ್ಯ	-5337
ನನು	-5338
ಬಂದ	-5339
ರ್ಣ	-5340
ಸೆಯ	-5341
ಾಡು	-5342
ಾತಃ	-5343
ಾತ್	-5344
ಾರಿ	-5345
ೇಮ್	-5346
್ಯರ	-5347
▁Al	-5348
▁Ha	-5349
▁He	-5350
▁It	-5351
▁gu	-5352
▁उज	-5353
▁उप	-5354
▁कट	-5355
▁छु	-5356
▁ज्	-5357
▁झग	-5358
▁थो	-5359
▁दू	-5360
▁फू	-5361
▁लू	-5362
▁शु	-5363
▁ఆర	-5364
▁ఇక	-5365
▁గి	-5366
▁జి	-5367
▁పీ	-5368
▁బొ	-5369
▁వై	-5370
▁హో	-5371
▁ಎಬ	-5372
▁ಒಳ	-5373
▁ಕ್	-5374
▁ಜಿ	-5375
▁ರು	-5376
▁ವರ	-5377
akes	-5378
etch	-5379
ield	-5380
inet	-5381
lled	-5382
phaz	-5383
read	-5384
road	-5385
tain	-5386
uben	-5387
नाना	-5388
बामा	-5389
भूमि	-5390
मबलि	-5391
रामी	-5392
ल्पा	-5393
वाली	-5394
होली	-5395
िनती	-5396
ूबेन	-5397
्याय	-5398
ంటిన	-5399
చేయు	-5400
టవలన	-5401
తాను	-5402
దేవు	-5403
నాను	-5404
నితో	-5405
బేను	-5406
మీయు	-5407
లముల	-5408
లెను	-5409
ల్కా	-5410
వేయు	-5411
ಂದಿನ	-5412
ಗಡೆಯ	-5413
ಗಳಿನ	-5414
ಟುಂಬ	-5415
ತಿಗೆ	-5416
ನಮ್ಮ	-5417
ುವರು	-5418
ೂರ್ಯ	-5419
▁Aho	-5420
▁Mah	-5421
▁Mil	-5422
▁age	-5423
▁bak	-5424
▁des	-5425
▁est	-5426
▁fat	-5427
▁inh	-5428
▁jud	-5429
▁kis	-5430
▁lam	-5431
▁mer	-5432
▁mid	-5433
▁own	-5434
▁pur	-5435
▁ram	-5436
▁sat	-5437
▁sep	-5438
▁whe	-5439
▁wit	-5440
▁आपस	-5441
▁कोख	-5442
▁कौन	-5443
▁खाई	-5444
▁चली	-5445
▁छूट	-5446
▁जल्	-5447
▁टुक	-5448
▁ठीक	-5449
▁दीश	-5450
▁दूर	-5451
▁बास	-5452
▁बेच	-5453
▁मतू	-5454
▁रखी	-5455
▁लाल	-5456
▁शेत	-5457
▁साम	-5458
▁అటు	-5459
▁ఆడు	-5460
▁ఏబె	-5461
▁కోప	-5462
▁కోస	-5463
▁గుహ	-5464
▁చార	-5465
▁తొడ	-5466
▁దహన	-5467
▁దొం	-5468
▁నడి	-5469
▁నెల	-5470
▁పరి	-5471
▁పలి	-5472
▁పలు	-5473
▁బంగ	-5474
▁భాష	-5475
▁భూజ	-5476
▁మోస	-5477
▁యెవ	-5478
▁యొక	-5479
▁సోయ	-5480
▁ಆಗಿ	-5481
▁ಆದಾ	-5482
▁ಇದೆ	-5483
▁ಇಳು	-5484
▁ಉಂಟ	-5485
▁ಎನೋ	-5486
▁ಎಲೀ	-5487
▁ಏದೆ	-5488
▁ಐದು	-5489
▁ಕಾಪ	-5490
▁ಚೋಗ	-5491
▁ದಹನ	-5492
▁ದೀಶ	-5493
▁ದೇವ	-5494
▁ದ್ದ	-5495
▁ನನು	-5496
▁ನಿಜ	-5497
▁ಪಾಪ	-5498
▁ಬನು	-5499
▁ಭಾಷ	-5500
▁ರೂಪ	-5501
▁ಸಮಯ	-5502
▁ಹಾಮ	-5503
क्खिन	-5504
ढ़ापे	-5505
प्रोन	-5506
रियां	-5507
కూడదు	-5508
టకును	-5509
తినని	-5510
దునని	-5511
ద్యోగ	-5512
మందలి	-5513
ాయెను	-5514
ింపగా	-5515
ేండ్ల	-5516
ಕ್ಷಿಣ	-5517
ಗಳಿಂದ	-5518
ದಿಕ್ಕ	-5519
ಬಿಟ್ಟ	-5520
ಮಾಡಲಿ	-5521
ಮಿತ್ತ	-5522
ಲಲ್ಲಿ	-5523
ಿತ್ತು	-5524
ಿಯನಾದ	-5525
▁Come	-5526
▁Dish	-5527
▁Eber	-5528
▁Meth	-5529
▁Seth	-5530
▁When	-5531
▁Zoar	-5532
▁back	-5533
▁been	-5534
▁cave	-5535
▁fear	-5536
▁fore	-5537
▁full	-5538
▁gold	-5539
▁grie	-5540
▁heap	-5541
▁herb	-5542
▁many	-5543
▁none	-5544
▁ring	-5545
▁अंगर	-5546
▁अन्ध	-5547
▁इसका	-5548
▁इसके	-5549
▁एबेर	-5550
▁करते	-5551
▁गदहे	-5552
▁गरार	-5553
▁गुफा	-5554
▁चरवा	-5555
▁चाहे	-5556
▁चिन्	-5557
▁चुरा	-5558
▁जंगल	-5559
▁जाएं	-5560
▁ज्यो	-5561
▁टटोल	-5562
▁दिखा	-5563
▁धर्म	-5564
▁पचास	-5565
▁बच्च	-5566
▁बैठा	-5567
▁भाषा	-5568
▁भीतर	-5569
▁महान	-5570
▁मानी	-5571
▁रखता	-5572
▁लगीं	-5573
▁लेना	-5574
▁सोअर	-5575
▁सोते	-5576
▁स्वा	-5577
▁అడవి	-5578
▁ఆహార	-5579
▁ఎవరి	-5580
▁చూచు	-5581
▁నుండ	-5582
▁నేడు	-5583
▁పైకి	-5584
▁పొడల	-5585
▁ప్రజ	-5586
▁ప్రస	-5587
▁మైదా	-5588
▁యేమి	-5589
▁విడి	-5590
▁వెంట	-5591
▁స్వా	-5592
▁ಅಣ್ಣ	-5593
▁ಅತ್ಯ	-5594
▁ಅರುವ	-5595
▁ಆರಾಧ	-5596
▁ಕೃಪೆ	-5597
▁ಕ್ರಮ	-5598
▁ಗುಂಪ	-5599
▁ದೊರೆ	-5600
▁ಪಲ್ಯ	-5601
▁ಪ್ರಭ	-5602
▁ಬಳಿಯ	-5603
▁ಮಗಳು	-5604
▁ಮಗುವ	-5605
▁ಮಾಂಸ	-5606
▁ಯಾಕೋ	-5607
▁ಯಾರು	-5608
▁ರೂಬೇ	-5609
▁ಸಂಬಳ	-5610
▁ಸೆರೆ	-5611
▁ಹನ್ನ	-5612
ablish	-5613
stance	-5614
ందరును	-5615
త్తనము	-5616
దానిని	-5617
న్నులు	-5618
వానికి	-5619
ష్టమైన	-5620
ీయుడైన	-5621
ಕೊಂಡಳು	-5622
ಗಾವಲಿನ	-5623
ರೆಲ್ಲಾ	-5624
ವರನ್ನು	-5625
▁Dinah	-5626
▁about	-5627
▁being	-5628
▁clean	-5629
▁could	-5630
▁didst	-5631
▁early	-5632
▁fetch	-5633
▁goods	-5634
▁laugh	-5635
▁naked	-5636
▁ninet	-5637
▁prosp	-5638
▁remem	-5639
▁south	-5640
▁sware	-5641
▁thigh	-5642
▁touch	-5643
▁एलीपज	-5644
▁कनानी	-5645
▁खम्भा	-5646
▁गाभिन	-5647
▁गिलाद	-5648
▁तड़के	-5649
▁दूसरी	-5650
▁देखकर	-5651
▁देखता	-5652
▁धर्मी	-5653
▁नगरों	-5654
▁निकले	-5655
▁न्याय	-5656
▁पहुंच	-5657
▁बताया	-5658
▁बनाकर	-5659
▁बनाना	-5660
▁बातों	-5661
▁बिनती	-5662
▁महीने	-5663
▁मिलें	-5664
▁रूबेन	-5665
▁सोचकर	-5666
▁అందుక	-5667
▁అరణ్య	-5668
▁ఆవులు	-5669
▁ఉత్తర	-5670
▁ఎక్కడ	-5671
▁కట్టు	-5672
▁కనబడు	-5673
▁కాపరు	-5674
▁కుప్ప	-5675
▁గవిని	-5676
▁చెల్ల	-5677
▁దగ్గర	-5678
▁నామీద	-5679
▁పిలిప	-5680
▁పొట్ట	-5681
▁పోయిన	-5682
▁భోజ్య	-5683
▁మాటలు	-5684
▁ముఖము	-5685
▁యొక్క	-5686
▁లెక్క	-5687
▁విచార	-5688
▁వ్యాప	-5689
▁సంగతి	-5690
▁హమోరు	-5691
▁ಇಂದಿನ	-5692
▁ಎಲ್ಲಿ	-5693
▁ಕಾರ್ಯ	-5694
▁ಕೆಳಗೆ	-5695
▁ಕೊಳ್ಳ	-5696
▁ದಲ್ಲಿ	-5697
▁ನಿಮಗೆ	-5698
▁ನೀರಿನ	-5699
▁ಪ್ರಳಯ	-5700
▁ಬಂದರು	-5701
▁ಮಂದೆಯ	-5702
▁ಮಿಲ್ಕ	-5703
▁ಮೆತೂಷ	-5704
▁ಯೆಹೂದ	-5705
▁ವನ್ನು	-5706
▁ವಿಚಾರ	-5707
▁ಸೂರ್ಯ	-5708
▁ಸ್ಥಳದ	-5709
▁ಹಿತ್ತ	-5710
libamah	-5711
straked	-5712
కమునుపు	-5713
చ్చెదను	-5714
బట్టియు	-5715
మంతటిని	-5716
యేండ్లు	-5717
ಮಾಡಿದರು	-5718
ಾಗಿತ್ತು	-5719
ಿಸಲಿಲ್ಲ	-5720
ೊಂಭತ್ತು	-5721
▁Milcah	-5722
▁Reuben	-5723
▁abroad	-5724
▁become	-5725
▁buried	-5726
▁savour	-5727
▁wilder	-5728
▁इकट्ठे	-5729
▁एप्रोन	-5730
▁ठहराया	-5731
▁दक्खिन	-5732
▁बुलाकर	-5733
▁होमबलि	-5734
▁అరువది	-5735
▁ఆజ్ఞాప	-5736
▁ఉద్యోగ	-5737
▁ఎలీఫజు	-5738
▁కూర్చు	-5739
▁కొనెను	-5740
▁క్రింద	-5741
▁గూర్చి	-5742
▁చేసిరి	-5743
▁తోడైయు	-5744
▁త్రాగు	-5745
▁నీవును	-5746
▁ప్రదేశ	-5747
▁భోజనము	-5748
▁మనస్సు	-5749
▁మరియొక	-5750
▁ముద్దు	-5751
▁రూబేను	-5752
▁లెమెకు	-5753
▁వారిలో	-5754
▁వినెను	-5755
▁శారాను	-5756
▁ಆದಾಮನು	-5757
▁ಇಟ್ಟನು	-5758
▁ಕುಟುಂಬ	-5759
▁ಕುರಿಗಳ	-5760
▁ಕೊಟ್ಟು	-5761
▁ಚುಕ್ಕೆ	-5762
▁ತಿರುಗಿ	-5763
▁ದಕ್ಷಿಣ	-5764
▁ಪ್ರಾತಃ	-5765
▁ಬಂಧುಗಳ	-5766
▁ಮುದ್ದಿ	-5767
▁ಮೂರನೆಯ	-5768
▁ವದಕ್ಕೆ	-5769
▁ಸಾರಯಳು	-5770
▁ಹೆಣ್ಣು	-5771
होलीबामा	-5772
మీదనుండి	-5773
వాడాయెను	-5774
ಕೊಳ್ಳಿರಿ	-5775
ಲ್ಲೆಲ್ಲಾ	-5776
ಾಗಿದ್ದರು	-5777
ಿಸಲ್ಪಡುವ	-5778
▁Eliphaz	-5779
▁Philist	-5780
▁builded	-5781
▁deliver	-5782
▁pitched	-5783
▁thither	-5784
▁without	-5785
▁पकानेहा	-5786
▁वृक्षों	-5787
▁అందుచేత	-5788
▁ఇప్పుడు	-5789
▁ఎట్లనగా	-5790
▁చిన్నది	-5791
▁దీవించు	-5792
▁నోవహును	-5793
▁పద్దనరా	-5794
▁ప్రార్థ	-5795
▁విస్తార	-5796
▁వెళ్లిన	-5797
▁సహోదరుల	-5798
▁ಅರ್ಪಕ್ಷ	-5799
▁ಐಗುಪ್ತದ	-5800
▁ಕರೆಯಲ್ಪ	-5801
▁ಕಾಯಿನನು	-5802
▁ಕೇಳಿದಾಗ	-5803
▁ತಿಂಗಳಿನ	-5804
▁ದಿನಗಳಾದ	-5805
▁ದೇವರಿಗೆ	-5806
▁ನಿಮಿತ್ತ	-5807
▁ನಿಲ್ಲಿಸ	-5808
▁ಪ್ರಾಣವು	-5809
▁ಮೇಲಿರುವ	-5810
▁ವರುಷಗಳು	-5811
▁ಶವವನ್ನು	-5812
▁ಹೀಗಿರುವ	-5813
ವನ್ನೆಲ್ಲಾ	-5814
▁presence	-5815
▁stranger	-5816
▁जन्मभूमि	-5817
▁అక్కడికి	-5818
▁కలుగజేసి	-5819
▁చనిపోయిన	-5820
▁తండ్రికి	-5821
▁తండ్రితో	-5822
▁తమ్ముడైన	-5823
▁దినములలో	-5824
▁నివసించి	-5825
▁పొడలైనను	-5826
▁యెహోవాను	-5827
▁యోసేపును	-5828
▁రాజాయెను	-5829
▁విత్తనము	-5830
▁ಅಪ್ಪಣೆಕೊ	-5831
▁ಇಸ್ರಾಯೇಲ	-5832
▁ಕೊಂದುಹಾಕ	-5833
▁ನಮ್ಮನ್ನು	-5834
▁ಮುಖ್ಯಸ್ಥ	-5835
▁ಮೈಗಾವಲಿನ	-5836
▁ಯಜಮಾನನಾದ	-5837
▁ಹಿಂದಕ್ಕೆ	-5838
▁ಹೊಲದಲ್ಲಿ	-5839
▁establish	-5840
▁hearkened	-5841
▁substance	-5842
▁स्त्रियों	-5843
▁ఐగుప్తీయు	-5844
▁నాయొద్దకు	-5845
▁ప్రత్యక్ష	-5846
▁మచ్చలైనను	-5847
▁మార్గములో	-5848
▁వారిద్దరు	-5849
▁విస్తరింప	-5850
▁సంతానమును	-5851
▁సహోదరుడైన	-5852
▁ಅಭಿವೃದ್ಧಿ	-5853
▁ಅರ್ಥವನ್ನು	-5854
▁ಇಷ್ಮಾಯೇಲನ	-5855
▁ಇಸ್ರಾಯೇಲ್	-5856
▁ಖಂಡಿತವಾಗಿ	-5857
▁ಜೀವಜಂತುಗಳ	-5858
▁ದಿನವಾಯಿತು	-5859
▁ಪಟ್ಟಣಕ್ಕೆ	-5860
▁ರೊಟ್ಟಿಗಾರ	-5861
▁ವಿರೋಧವಾಗಿ	-5862
▁ಸಾಯಂಕಾಲವೂ	-5863
▁Aholibamah	-5864
▁wilderness	-5865
▁జలప్రవాహము	-5866
▁నివసించెను	-5867
▁ಗಳಾಗಿದ್ದವು	-5868
▁ಜ್ಞಾಪಕಮಾಡಿ	-5869
▁ತಗ್ಗಿನಲ್ಲಿ	-5870
▁ದಿನಗಳೆಲ್ಲಾ	-5871
▁ಬೇಡಿಕೊಂಡನು	-5872
▁exceedingly	-5873
▁ringstraked	-5874
▁ಆದದ್ದೇನಂದರೆ	-5875
▁ಕುಮಾರ್ತೆಯರು	-5876
▁ಮಾಡಿದ್ದರಿಂದ	-5877
▁అబ్రాహామునకు	-5878
▁తొమి్మదివందల	-5879
▁ಕೊಟ್ಟಿದ್ದಾನೆ	-5880
▁ವಾಸವಾಗಿದ್ದನು	-5881
▁ಹೆಚ್ಚಿಸುವೆನು	-5882
uz	-5883
ंज	-5884
आं	-5885
धर	-5886
पट	-5887
मत	-5888
ये	-5889
यो	-5890
शे	-5891
ुल	-5892
ఃఖ	-5893
తన	-5894
మయ	-5895
లూ	-5896
వో	-5897
ూయ	-5898
ెన	-5899
ಃಖ	-5900
ಚ್	-5901
ಫಜ	-5902
ank	-5903
ape	-5904
ibe	-5905
imn	-5906
izz	-5907
lot	-5908
mah	-5909
ust	-5910
ंति	-5911
ंसी	-5912
एगा	-5913
क्त	-5914
चान	-5915
तनी	-5916
नोश	-5917
बाल	-5918
मरण	-5919
मोन	-5920
रेद	-5921
र्म	-5922
लेल	-5923
हार	-5924
ानि	-5925
िनी	-5926
िरू	-5927
ैसी	-5928
చండ	-5929
టిన	-5930
మీప	-5931
ముక	-5932
యంద	-5933
యేల	-5934
లేక	-5935
శెమ	-5936
ోబా	-5937
ಕಾಯ	-5938
ಡೆಯ	-5939
ದರಿ	-5940
ದಾಯ	-5941
ಬಾಮ	-5942
ಬೆಯ	-5943
ಬೇಕ	-5944
ಮನು	-5945
ಯ್ಯ	-5946
ರ್ಯ	-5947
ಳಿನ	-5948
ಳಿಯ	-5949
ವಾಳ	-5950
ವೇದ	-5951
ಹಾಗ	-5952
ಾನೇ	-5953
ೀಕರ	-5954
ುವಿ	-5955
ೆದು	-5956
ೆಲ್	-5957
ೇಳು	-5958
ೌವನ	-5959
್ಯೂ	-5960
್ರಮ	-5961
▁Of	-5962
▁On	-5963
▁Ye	-5964
▁cu	-5965
▁em	-5966
▁sc	-5967
▁खि	-5968
▁गु	-5969
▁पै	-5970
▁भि	-5971
▁मृ	-5972
▁लक	-5973
▁वश	-5974
▁దో	-5975
▁యై	-5976
▁హృ	-5977
▁ಅಪ	-5978
▁ಅಮ	-5979
▁ಅಶ	-5980
▁ಆಯ	-5981
▁ಉಪ	-5982
▁ಒಣ	-5983
▁ಕೀ	-5984
▁ಟಗ	-5985
▁ತೋ	-5986
▁ದೋ	-5987
▁ನರ	-5988
▁ನು	-5989
▁ಸೆ	-5990
▁ಸೈ	-5991
▁ಸೌ	-5992
▁ಹವ	-5993
amar	-5994
axad	-5995
hind	-5996
last	-5997
raid	-5998
roth	-5999
ऊंगी	-6000
क्षी	-6001
पक्ष	-6002
ब्बे	-6003
म्ना	-6004
लवार	-6005
ुक्त	-6006
ृहदे	-6007
ంబది	-6008
కుము	-6009
కొంద	-6010
చిగల	-6011
మ్నా	-6012
రేమో	-6013
లీబా	-6014
లోను	-6015
వంతు	-6016
్యధి	-6017
ಕೆಗೆ	-6018
ಕೊಳ್	-6019
ನೀವು	-6020
ರ್ವತ	-6021
ಲ್ಲದ	-6022
ಲ್ಲು	-6023
ವಸಾಯ	-6024
ಹಾಗೆ	-6025
ಹೊಲೀ	-6026
ಾಗಲೂ	-6027
ಾದರೆ	-6028
ಾದಾಗ	-6029
ಾನ್ಯ	-6030
ಾರ್ಥ	-6031
ಾಸೆಮ	-6032
ಿದ್ಯ	-6033
ಿದ್ರ	-6034
್ಯೋಗ	-6035
▁Hor	-6036
▁Zil	-6037
▁cer	-6038
▁cit	-6039
▁esc	-6040
▁gre	-6041
▁ill	-6042
▁ind	-6043
▁kid	-6044
▁nor	-6045
▁num	-6046
▁per	-6047
▁pie	-6048
▁sea	-6049
▁sun	-6050
▁tar	-6051
▁thr	-6052
▁tur	-6053
▁अदन	-6054
▁आदि	-6055
▁ऐसे	-6056
▁किए	-6057
▁गिर	-6058
▁छड़	-6059
▁जनी	-6060
▁जाओ	-6061
▁दूध	-6062
▁पड़	-6063
▁परि	-6064
▁पाप	-6065
▁बचा	-6066
▁बीज	-6067
▁बीस	-6068
▁महल	-6069
▁रहो	-6070
▁व्य	-6071
▁सूख	-6072
▁सेव	-6073
▁हां	-6074
▁అడి	-6075
▁అతడ	-6076
▁అష్	-6077
▁ఈమె	-6078
▁ఎనో	-6079
▁ఏమి	-6080
▁కోడ	-6081
▁నడు	-6082
▁నని	-6083
▁పదు	-6084
▁భాగ	-6085
▁మహల	-6086
▁లేక	-6087
▁లోయ	-6088
▁విధ	-6089
▁సిబ	-6090
▁స్వ	-6091
▁హోర	-6092
▁ಅಧಿ	-6093
▁ಇರು	-6094
▁ಎಂಭ	-6095
▁ಗಳು	-6096
▁ಜಗಳ	-6097
▁ತಂಗ	-6098
▁ತಾಮ	-6099
▁ತೀರ	-6100
▁ದೀನ	-6101
▁ದೂತ	-6102
▁ದೂರ	-6103
▁ದೆಸ	-6104
▁ದ್ವ	-6105
▁ಬಾರ	-6106
▁ಬೀಜ	-6107
▁ಮಹಲ	-6108
▁ಯರೂ	-6109
▁ರುಚ	-6110
▁ರೇಖ	-6111
ashem	-6112
bered	-6113
ceive	-6114
ibeon	-6115
otted	-6116
otten	-6117
quire	-6118
tered	-6119
दिष्ट	-6120
बालों	-6121
लादों	-6122
ित्कब	-6123
ండ్రు	-6124
కాలము	-6125
క్షిణ	-6126
తోకూడ	-6127
దంతయు	-6128
ద్దరి	-6129
పరచిన	-6130
బ్బది	-6131
యెదుట	-6132
లతోను	-6133
విత్ర	-6134
సమును	-6135
స్తమయ	-6136
స్థ్య	-6137
ార్చు	-6138
ులును	-6139
ేలును	-6140
ಂತೆಯೇ	-6141
ಆಕೆಯು	-6142
ನ್ನಿಧ	-6143
ಪ್ರಳಯ	-6144
ಲಿಸುವ	-6145
ವರಿಗೂ	-6146
ವಿರುವ	-6147
ವೆಂದು	-6148
ಿದೆನು	-6149
▁Arph	-6150
▁Eden	-6151
▁Enos	-6152
▁Give	-6153
▁Hitt	-6154
▁Timn	-6155
▁cons	-6156
▁dark	-6157
▁draw	-6158
▁each	-6159
▁grew	-6160
▁high	-6161
▁kill	-6162
▁obey	-6163
▁prin	-6164
▁remo	-6165
▁rest	-6166
▁rods	-6167
▁slew	-6168
▁thus	-6169
▁womb	-6170
▁wood	-6171
▁year	-6172
▁इतनी	-6173
▁एनोश	-6174
▁कन्ध	-6175
▁करना	-6176
▁करूं	-6177
▁खाकर	-6178
▁चलता	-6179
▁चलते	-6180
▁जाते	-6181
▁जेठा	-6182
▁डाले	-6183
▁देखो	-6184
▁पहले	-6185
▁पाया	-6186
▁पीछा	-6187
▁पेड़	-6188
▁मादा	-6189
▁मिले	-6190
▁मूलप	-6191
▁रूपे	-6192
▁विरू	-6193
▁शेलह	-6194
▁सुनी	-6195
▁सोचा	-6196
▁सोने	-6197
▁हानि	-6198
▁होते	-6199
▁అంగీ	-6200
▁అంతట	-6201
▁అయ్య	-6202
▁ఒకడు	-6203
▁ఓడలో	-6204
▁కనగా	-6205
▁కలలు	-6206
▁కుమా	-6207
▁క్రమ	-6208
▁గొడ్	-6209
▁చంపు	-6210
▁చేయక	-6211
▁దయచే	-6212
▁దహనబ	-6213
▁దిగి	-6214
▁దుఃఖ	-6215
▁నరుల	-6216
▁నేటి	-6217
▁ఫలము	-6218
▁వరకు	-6219
▁వెలు	-6220
▁షేతు	-6221
▁సమీప	-6222
▁ಅತ್ತ	-6223
▁ಅನಾಹ	-6224
▁ಇವನೇ	-6225
▁ಕೂತು	-6226
▁ಕೆಲಸ	-6227
▁ತಂದು	-6228
▁ತಿಮ್	-6229
▁ತುಂಡ	-6230
▁ದುಃಖ	-6231
▁ಪಾರಿ	-6232
▁ಪೆಲೆ	-6233
▁ಮನಸ್	-6234
▁ಮಾತು	-6235
▁ಯೆರೆ	-6236
▁ವರ್ತ	-6237
▁ವೆನು	-6238
▁ಶೇಮ್	-6239
▁ಹಾಕಿ	-6240
▁ಹಾಮ್	-6241
नेवाला	-6242
पक्षद्	-6243
కుమారు	-6244
ట్టుకు	-6245
దురుగా	-6246
మీదికి	-6247
యున్నా	-6248
లుకొని	-6249
వచ్చిన	-6250
ించును	-6251
ಕೆಯಾಗಿ	-6252
ವಾಗಿದೆ	-6253
ಿದ್ದಾಗ	-6254
ಿಸುವನು	-6255
ೆಯನ್ನೂ	-6256
ೌವನಸ್ಥ	-6257
▁Mahal	-6258
▁Salah	-6259
▁Shall	-6260
▁Where	-6261
▁asked	-6262
▁baker	-6263
▁curse	-6264
▁drove	-6265
▁guard	-6266
▁hated	-6267
▁resto	-6268
▁sixty	-6269
▁would	-6270
▁wroth	-6271
▁yield	-6272
▁आऊंगा	-6273
▁उजिया	-6274
▁गृहदे	-6275
▁चाहता	-6276
▁चिन्ह	-6277
▁जहाज़	-6278
▁जाएगी	-6279
▁जितना	-6280
▁जिनके	-6281
▁जिसका	-6282
▁तलवार	-6283
▁दौड़ा	-6284
▁निकला	-6285
▁पीढ़ी	-6286
▁प्रति	-6287
▁बालें	-6288
▁बिहान	-6289
▁भिन्न	-6290
▁रहेगी	-6291
▁लकड़ी	-6292
▁लड़का	-6293
▁लूंगा	-6294
▁शुद्ध	-6295
▁स्मरण	-6296
▁అప్పగ	-6297
▁ఇచ్చి	-6298
▁ఏదెను	-6299
▁కట్టి	-6300
▁కత్తి	-6301
▁కలిసి	-6302
▁కోసము	-6303
▁చూడగా	-6304
▁చెడ్డ	-6305
▁జిల్ప	-6306
▁తెలిప	-6307
▁దుష్ట	-6308
▁దేశపు	-6309
▁నిత్య	-6310
▁పుట్ట	-6311
▁పొంది	-6312
▁ప్రసవ	-6313
▁బాశెమ	-6314
▁మందను	-6315
▁మొదటి	-6316
▁మోసపు	-6317
▁షేలహు	-6318
▁సఫలము	-6319
▁హనోకు	-6320
▁హిత్త	-6321
▁ಅರಸನೂ	-6322
▁ಅರಸರು	-6323
▁ಅವರವರ	-6324
▁ಉತ್ತರ	-6325
▁ಎದೋಮ್	-6326
▁ಎಲೀಫಜ	-6327
▁ಒಹೊಲೀ	-6328
▁ಕೊಬ್ಬ	-6329
▁ಜಿಲ್ಪ	-6330
▁ತಿಳಿಯ	-6331
▁ದೂತನು	-6332
▁ಪರ್ವತ	-6333
▁ಬಾಸೆಮ	-6334
▁ಬೆಳ್ಳ	-6335
▁ಮನೆಗೆ	-6336
▁ಮೆಚ್ಚ	-6337
▁ಮೇಕೆಯ	-6338
▁ವಿಧೇಯ	-6339
▁ವಿಭಾಗ	-6340
▁ಸಂಪಾದ	-6341
▁ಸಿಬೆಯ	-6342
▁ಸೆರೆಯ	-6343
▁ಸೈನ್ಯ	-6344
▁ಸ್ಥಾಪ	-6345
▁ಹೆಬ್ರ	-6346
▁ಹೋದರೆ	-6347
lasting	-6348
त्तान्त	-6349
నొద్దకు	-6350
వన్నియు	-6351
ించెదను	-6352
ಕ್ಷಣವಾದ	-6353
ದಕ್ಕಾಗಿ	-6354
ಬಿಟ್ಟನು	-6355
ಾಗಿದ್ದು	-6356
ಿಗೋಸ್ಕರ	-6357
ುತ್ತೇನೆ	-6358
▁Bashem	-6359
▁Zibeon	-6360
▁Zilpah	-6361
▁afraid	-6362
▁behind	-6363
▁bought	-6364
▁cities	-6365
▁harlot	-6366
▁indeed	-6367
▁mighty	-6368
▁ninety	-6369
▁return	-6370
▁seeing	-6371
▁चित्कब	-6372
▁जन्माए	-6373
▁जाऊंगा	-6374
▁जिल्पा	-6375
▁तिम्ना	-6376
▁पहिचान	-6377
▁साक्षी	-6378
▁स्वरूप	-6379
▁स्वर्ग	-6380
▁అత్యధి	-6381
▁అస్తమయ	-6382
▁కలుగగా	-6383
▁కొన్ని	-6384
▁చూచెను	-6385
▁చోటికి	-6386
▁జనములు	-6387
▁తండ్రీ	-6388
▁తిమ్నా	-6389
▁తిరుగు	-6390
▁తొంబది	-6391
▁త్వరగా	-6392
▁దక్షిణ	-6393
▁దానిలో	-6394
▁దినముల	-6395
▁నిలిచి	-6396
▁పిలిచి	-6397
▁పురుగు	-6398
▁ప్రచండ	-6399
▁ఫలించి	-6400
▁బిల్హా	-6401
▁మాటలాడ	-6402
▁మిల్కా	-6403
▁రమ్మని	-6404
▁రుచిగల	-6405
▁విచారణ	-6406
▁వేటాడి	-6407
▁వేసెను	-6408
▁హేబెలు	-6409
▁ಅಂಗೀಕರ	-6410
▁ಅವಳಿಗೆ	-6411
▁ಅಶುದ್ಧ	-6412
▁ಉದ್ಯೋಗ	-6413
▁ಎಫ್ರೋನ	-6414
▁ಕರೆದನು	-6415
▁ಕರ್ತನೇ	-6416
▁ತೆರಹನು	-6417
▁ವರುಷಗಳ	-6418
▁ಸಂಗಡಲೂ	-6419
▁ಸನ್ನಿಧ	-6420
▁ಸಮಾಧಾನ	-6421
▁ಹಾಗರಳು	-6422
▁ಹೊತ್ತು	-6423
పెట్టెను	-6424
ించితిని	-6425
ింపబడును	-6426
ಾಗಿರುವದು	-6427
▁certain	-6428
▁covered	-6429
▁herdmen	-6430
▁prosper	-6431
▁savoury	-6432
▁spotted	-6433
▁through	-6434
▁whether	-6435
▁witness	-6436
▁नियुक्त	-6437
▁पुरूषों	-6438
▁प्रभुता	-6439
▁बुढ़ापे	-6440
▁बुलवाकर	-6441
▁विरूद्ध	-6442
▁అర్పక్ష	-6443
▁ఉదయమును	-6444
▁కొంచెము	-6445
▁గాకనియు	-6446
▁డెబ్బది	-6447
▁తట్టును	-6448
▁పలికెను	-6449
▁పశువులు	-6450
▁పిల్లను	-6451
▁యుండిరి	-6452
▁యుండును	-6453
▁విశాలము	-6454
▁ಅವರಿಬ್ಬ	-6455
▁ಇದ್ದೇನೆ	-6456
▁ಇರಲಿಲ್ಲ	-6457
▁ಎದೋಮ್ಯರ	-6458
▁ಗರ್ಭಿಣಿ	-6459
▁ಜಲಪ್ರಳಯ	-6460
▁ತಿನ್ನುವ	-6461
▁ಪಕ್ಷಿಗಳ	-6462
▁ಪಾರಿವಾಳ	-6463
▁ಮಾತನಾಡಿ	-6464
▁ರುಚಿಯಾದ	-6465
▁ರೂಬೇನನು	-6466
▁ಲೆಮೆಕನು	-6467
▁ವ್ಯವಸಾಯ	-6468
▁ಸಂತತಿಗೂ	-6469
▁ಹೇಳುತ್ತ	-6470
ಲ್ಪಟ್ಟಿತು	-6471
ಿಸಿಕೊಂಡನು	-6472
▁Arphaxad	-6473
▁कनानियों	-6474
▁जल्लादों	-6475
▁तुम्हारी	-6476
▁मनुष्यों	-6477
▁చెప్పిరి	-6478
▁చెరసాలలో	-6479
▁ప్రార్థన	-6480
▁మాటలాడిన	-6481
▁యున్నాడు	-6482
▁రిబ్కాను	-6483
▁విషయములో	-6484
▁సాగిలపడి	-6485
▁సిబ్యోను	-6486
▁ಇನ್ನೊಂದು	-6487
▁ಇರಿಸಿದನು	-6488
▁ಕಲ್ಲನ್ನು	-6489
▁ಕಾನಾನ್ಯರ	-6490
▁ಚೊಚ್ಚಲತನ	-6491
▁ದೆಸೆಯಿಂದ	-6492
▁ಫರೋಹನಿಗೆ	-6493
▁ಬೆತ್ತಲೆಯ	-6494
▁ಮೇಲೆಲ್ಲಾ	-6495
▁ಸ್ತ್ರೀಯು	-6496
▁ಹೆಂಡತಿಯರ	-6497
▁Bashemath	-6498
▁prevailed	-6499
▁अर्पक्षद्	-6500
▁ओहोलीबामा	-6501
▁वृत्तान्त	-6502
▁स्त्रियां	-6503
▁स्वादिष्ट	-6504
▁అప్పుడామె	-6505
▁అభివృద్ధి	-6506
▁చిన్నదాని	-6507
▁దినమాయెను	-6508
▁పానదాయకుల	-6509
▁సన్నిధిని	-6510
▁సహోదరుడగు	-6511
▁స్త్రీలను	-6512
▁ತಕ್ಕೊಂಡನು	-6513
▁ದಿನಗಳಲ್ಲಿ	-6514
▁ಸಹೋದರರಿಗೆ	-6515
▁Canaanites	-6516
▁पलिश्तियों	-6517
▁लड़केबालों	-6518
▁అబ్రామునకు	-6519
▁గొఱ్ఱపిల్ల	-6520
▁తెలిసికొని	-6521
▁భోజ్యములను	-6522
▁ಕಳುಹಿಸಿದನು	-6523
▁ಕುಮಾರ್ತೆಯರ	-6524
▁ಕೊಡುತ್ತೇನೆ	-6525
▁ಗುಡಾರವನ್ನು	-6526
▁ಪೂರ್ವದಿಕ್ಕ	-6527
▁ಮಾಡಿದ್ದೇನೆ	-6528
▁ಮಾರ್ಗದಲ್ಲಿ	-6529
▁ಸಂಪತ್ತನ್ನೂ	-6530
▁ಸ್ತಂಭವನ್ನು	-6531
ವುಗಳನ್ನೆಲ್ಲಾ	-6532
▁Philistines	-6533
▁everlasting	-6534
▁కుమార్తెయగు	-6535
▁కుమార్తెలలో	-6536
▁ಅತ್ಯಧಿಕವಾಗಿ	-6537
▁ಆಶೀರ್ವದಿಸುವ	-6538
▁ಒಳ್ಳೆಯದೆಂದು	-6539
▁ಪ್ರಾತಃಕಾಲವೂ	-6540
▁ವಸ್ತ್ರವನ್ನು	-6541
▁ಸೃಷ್ಟಿಸಿದನು	-6542
▁కాజ్ఞాపించిన	-6543
▁సంతానమునకును	-6544
▁ಕುಡಿಯುವದಕ್ಕೆ	-6545
▁ಕೊಟ್ಟಿದ್ದೇನೆ	-6546
▁ರೆಬೆಕ್ಕಳನ್ನು	-6547
fl	-6548
ic	-6549
la	-6550
qu	-6551
डे	-6552
डौ	-6553
णन	-6554
तम	-6555
पन	-6556
यत	-6557
यी	-6558
रि	-6559
वल	-6560
ीत	-6561
ीर	-6562
ूश	-6563
టే	-6564
దూ	-6565
యం	-6566
యూ	-6567
రక	-6568
లక	-6569
హి	-6570
హొ	-6571
ూప	-6572
ಅವ	-6573
ಈಗ	-6574
ಔತ	-6575
ಗಮ	-6576
ಟಕ	-6577
ಡಣ	-6578
ತೊ	-6579
ದೂ	-6580
ದೋ	-6581
ಬೂ	-6582
ಮರ	-6583
ರದ	-6584
ಲಾ	-6585
ಳೇ	-6586
ವಳ	-6587
ಸರ	-6588
ಾಜ	-6589
ೀಫ	-6590
ೇದ	-6591
▁ಘ	-6592
any	-6593
cre	-6594
eds	-6595
ept	-6596
ets	-6597
fli	-6598
its	-6599
ket	-6600
old	-6601
ote	-6602
oud	-6603
uke	-6604
ule	-6605
xen	-6606
कने	-6607
किम	-6608
कोल	-6609
ज्ज	-6610
ञान	-6611
डौल	-6612
तने	-6613
तार	-6614
तीस	-6615
प्त	-6616
ब्र	-6617
यीम	-6618
रीर	-6619
र्प	-6620
लाओ	-6621
लेग	-6622
वंश	-6623
वां	-6624
श्श	-6625
ूणा	-6626
ृपा	-6627
ोकर	-6628
ంటు	-6629
ంతట	-6630
ఆమె	-6631
ఇది	-6632
కొక	-6633
చోట	-6634
జ్జ	-6635
నేక	-6636
ప్న	-6637
మోర	-6638
రవు	-6639
రిప	-6640
లాడ	-6641
లుగ	-6642
లోక	-6643
వరా	-6644
ీము	-6645
ుడై	-6646
ులై	-6647
ెనో	-6648
ెరూ	-6649
ోమె	-6650
్రొ	-6651
్రో	-6652
ಔತಣ	-6653
ಗ್ರ	-6654
ಡದೆ	-6655
ಡೆದ	-6656
ತವು	-6657
ತ್ವ	-6658
ದಾಗ	-6659
ದಾಸ	-6660
ನಾಗ	-6661
ಪತ್	-6662
ಮಗೂ	-6663
ರಾಧ	-6664
ರ್ಪ	-6665
ರ್ಲ	-6666
ಲೇಲ	-6667
ಲ್ದ	-6668
ವನಾ	-6669
ವನೂ	-6670
ವಾಡ	-6671
ಶ್ಶ	-6672
ಷ್ಠ	-6673
ಾಗದ	-6674
ಾಧಿ	-6675
ಾಳು	-6676
ಿರೀ	-6677
ೂಲೋ	-6678
ೌದು	-6679
್ವರ	-6680
▁ew	-6681
▁कम	-6682
▁खल	-6683
▁गो	-6684
▁चू	-6685
▁छल	-6686
▁छा	-6687
▁छि	-6688
▁बच	-6689
▁मो	-6690
▁यि	-6691
▁सं	-6692
▁అం	-6693
▁కద	-6694
▁కె	-6695
▁తూ	-6696
▁పే	-6697
▁రగ	-6698
▁రే	-6699
▁షి	-6700
▁ಇದ	-6701
▁ಜಾ	-6702
▁ತರ	-6703
▁ನೆ	-6704
▁ಪೆ	-6705
▁ಬೊ	-6706
▁ಲೂ	-6707
▁ಸಾ	-6708
▁ಸೊ	-6709
acel	-6710
aces	-6711
andr	-6712
edor	-6713
eleg	-6714
elve	-6715
imes	-6716
laom	-6717
less	-6718
oman	-6719
orah	-6720
pent	-6721
ress	-6722
skin	-6723
usel	-6724
क्षा	-6725
ड़कर	-6726
दासी	-6727
दोर्	-6728
वनार	-6729
वाया	-6730
शेलह	-6731
सन्न	-6732
ामार	-6733
िबोन	-6734
ूतरी	-6735
ूर्य	-6736
ेंगे	-6737
्रहण	-6738
ంతలు	-6739
ందరు	-6740
క్తి	-6741
క్రమ	-6742
క్షక	-6743
డుపు	-6744
డుము	-6745
దాను	-6746
ననగా	-6747
నిగా	-6748
మంతు	-6749
మందే	-6750
మనగా	-6751
మనము	-6752
మీదట	-6753
ముగల	-6754
యిము	-6755
రాజు	-6756
రియా	-6757
ర్వా	-6758
లాము	-6759
లుగా	-6760
వారె	-6761
వాసి	-6762
వును	-6763
వెళ్	-6764
షోను	-6765
హితు	-6766
్మశా	-6767
ಂಗಾರ	-6768
ಅಬ್ರ	-6769
ಒಂದು	-6770
ಗಲಿನ	-6771
ಚ್ಚು	-6772
ಡಿದು	-6773
ದನ್ನ	-6774
ನನಗೆ	-6775
ಪತಿಯ	-6776
ಬಂದು	-6777
ರಿಗೊ	-6778
ವಾಸ್	-6779
ವೇಲನ	-6780
ಹೊಂದ	-6781
ಾಮ್ಯ	-6782
ಿಗನು	-6783
ಿದರೆ	-6784
ಿಸದೆ	-6785
ೆಂದೂ	-6786
ೆಗಳೂ	-6787
▁Ass	-6788
▁Had	-6789
▁Jok	-6790
▁Ken	-6791
▁Mid	-6792
▁Sid	-6793
▁Tem	-6794
▁Thy	-6795
▁Zeb	-6796
▁bad	-6797
▁cau	-6798
▁cub	-6799
▁cup	-6800
▁def	-6801
▁get	-6802
▁int	-6803
▁lie	-6804
▁tal	-6805
▁tre	-6806
▁अति	-6807
▁अस्	-6808
▁कटो	-6809
▁करा	-6810
▁चर्	-6811
▁तले	-6812
▁दान	-6813
▁धनु	-6814
▁धाय	-6815
▁परम	-6816
▁पाल	-6817
▁फैल	-6818
▁बदल	-6819
▁बरस	-6820
▁बाद	-6821
▁बाल	-6822
▁बैर	-6823
▁भती	-6824
▁मुख	-6825
▁विश	-6826
▁सहा	-6827
▁सौप	-6828
▁అహొ	-6829
▁ఇంక	-6830
▁ఎను	-6831
▁ఖండ	-6832
▁చావ	-6833
▁చీక	-6834
▁చేత	-6835
▁దను	-6836
▁దూర	-6837
▁నొక	-6838
▁పగప	-6839
▁పీల	-6840
▁భుజ	-6841
▁మహా	-6842
▁మూర	-6843
▁మూల	-6844
▁రయూ	-6845
▁సంచ	-6846
▁ಆತನ	-6847
▁ಆರು	-6848
▁ಎಲು	-6849
▁ಔತಣ	-6850
▁ಕಡಗ	-6851
▁ಕನು	-6852
▁ಕೇನ	-6853
▁ಜೆರ	-6854
▁ದಾಗ	-6855
▁ನೆಲ	-6856
▁ಪಶು	-6857
▁ಪೂರ	-6858
▁ಬಂಜ	-6859
▁ಮಗಳ	-6860
▁ಮರಿ	-6861
▁ಮರೆ	-6862
▁ಮಲಗ	-6863
▁ಮಾರ	-6864
▁ವಂಚ	-6865
▁ಶಿನ	-6866
▁ಸಾಮ	-6867
▁ಸುರ	-6868
▁ಸೂಳ	-6869
▁ಹಗೆ	-6870
▁ಹೋರ	-6871
aleel	-6872
anged	-6873
eshed	-6874
flict	-6875
yrian	-6876
ब्रोन	-6877
ంటిమి	-6878
ండ్రె	-6879
కముగా	-6880
తివని	-6881
తులను	-6882
త్రము	-6883
త్వము	-6884
పలికి	-6885
మగును	-6886
మనెను	-6887
మైనవి	-6888
రక్షక	-6889
రమును	-6890
రించు	-6891
ర్మము	-6892
లిచిన	-6893
వనెను	-6894
ొర్లా	-6895
ಕೊಡುವ	-6896
ದೊರ್ಲ	-6897
ನಂದರೆ	-6898
ನಿಮ್ಮ	-6899
ಬಹುದು	-6900
ರನಿಗೆ	-6901
ಳೆಂದು	-6902
ವರಿಗೆ	-6903
ವಾಗುವ	-6904
ವಿದ್ದ	-6905
ವುಗಳು	-6906
ಿದ್ರೆ	-6907
ಿಸಿರಿ	-6908
▁Amor	-6909
▁Duke	-6910
▁Hast	-6911
▁Here	-6912
▁Shin	-6913
▁Take	-6914
▁char	-6915
▁cont	-6916
▁deal	-6917
▁deep	-6918
▁dove	-6919
▁drew	-6920
▁fair	-6921
▁feed	-6922
▁form	-6923
▁gods	-6924
▁merc	-6925
▁oath	-6926
▁oxen	-6927
▁purs	-6928
▁raim	-6929
▁room	-6930
▁rule	-6931
▁some	-6932
▁stri	-6933
▁thin	-6934
▁wept	-6935
▁अकाल	-6936
▁अधीन	-6937
▁अश्श	-6938
▁इनके	-6939
▁उड़ा	-6940
▁ऊंटो	-6941
▁कृपा	-6942
▁केवल	-6943
▁खाना	-6944
▁घड़ा	-6945
▁चलकर	-6946
▁जवान	-6947
▁दूदा	-6948
▁नंगा	-6949
▁पूरी	-6950
▁बनाए	-6951
▁बारह	-6952
▁बैठी	-6953
▁भरने	-6954
▁रखना	-6955
▁रहकर	-6956
▁रूएल	-6957
▁शरीर	-6958
▁शेला	-6959
▁सर्प	-6960
▁सुनो	-6961
▁सुफल	-6962
▁हंसी	-6963
▁होती	-6964
▁అక్క	-6965
▁అనేక	-6966
▁అమోర	-6967
▁అష్ష	-6968
▁ఉంచు	-6969
▁కరవు	-6970
▁కలిగ	-6971
▁కాని	-6972
▁కూడి	-6973
▁చక్క	-6974
▁చూలు	-6975
▁చెట్	-6976
▁చెడి	-6977
▁చెను	-6978
▁చేదు	-6979
▁చోటి	-6980
▁చోటు	-6981
▁తరము	-6982
▁దాటి	-6983
▁నక్ష	-6984
▁నల్ల	-6985
▁నిలు	-6986
▁నీవే	-6987
▁నేనె	-6988
▁న్యా	-6989
▁పలుక	-6990
▁పెలె	-6991
▁మహలల	-6992
▁మాను	-6993
▁ముగ్	-6994
▁ములు	-6995
▁ములో	-6996
▁మొదట	-6997
▁మ్రొ	-6998
▁యుండ	-6999
▁యెరె	-7000
▁రాయి	-7001
▁లేని	-7002
▁వీరి	-7003
▁సాయం	-7004
▁హాని	-7005
▁ಅಮೋರ	-7006
▁ಅಶ್ಶ	-7007
▁ಇಟ್ಟ	-7008
▁ಇದಾದ	-7009
▁ಇಬ್ರ	-7010
▁ಎಚ್ಚ	-7011
▁ಎತ್ತ	-7012
▁ಕಂದು	-7013
▁ಕಡಿಮ	-7014
▁ಕನಸು	-7015
▁ಕಿಟಕ	-7016
▁ಕೆಂಪ	-7017
▁ಕೇಳು	-7018
▁ಜನರು	-7019
▁ಟಗರು	-7020
▁ತಂಗಿ	-7021
▁ತಿಳು	-7022
▁ತೆರೆ	-7023
▁ತ್ವರ	-7024
▁ದೊರಕ	-7025
▁ನಕ್ಷ	-7026
▁ನೀನೂ	-7027
▁ಪಶ್ಚ	-7028
▁ಬಾಗಿ	-7029
▁ಬೆತೊ	-7030
▁ಬೆಳೆ	-7031
▁ಭೂಮಿ	-7032
▁ಭೂಲೋ	-7033
▁ಮೂಡಣ	-7034
▁ಯಜ್ಞ	-7035
▁ಶೇಮನ	-7036
▁ಸಂಹರ	-7037
▁ಸೆರೂ	-7038
▁ಸ್ತು	-7039
▁ಹಣ್ಣ	-7040
▁ಹಿಂಡ	-7041
laomer	-7042
uselah	-7043
लाओमेर	-7044
కిచ్చి	-7045
కూడదని	-7046
కొనుము	-7047
చబడెను	-7048
దురేమో	-7049
పెట్టి	-7050
పోయిరి	-7051
యందంతట	-7052
యినాను	-7053
యెహోవా	-7054
లిచ్చు	-7055
లీబామా	-7056
వాడును	-7057
ింపబడు	-7058
ెననియు	-7059
ಕರ್ತನು	-7060
ಕ್ಕಾಗಿ	-7061
ನ್ನಿರಿ	-7062
ಬೇಡಿರಿ	-7063
ಹೋಯಿತು	-7064
ಿಸಬೇಕು	-7065
ೆಯುಳ್ಳ	-7066
▁Arise	-7067
▁Jared	-7068
▁Peleg	-7069
▁Reuel	-7070
▁Tamar	-7071
▁alive	-7072
▁arise	-7073
▁begin	-7074
▁bound	-7075
▁commu	-7076
▁feast	-7077
▁fowls	-7078
▁goest	-7079
▁herds	-7080
▁image	-7081
▁judge	-7082
▁mandr	-7083
▁midst	-7084
▁pleas	-7085
▁separ	-7086
▁sleep	-7087
▁smell	-7088
▁smote	-7089
▁stars	-7090
▁sword	-7091
▁tents	-7092
▁those	-7093
▁wages	-7094
▁अरामी	-7095
▁उत्तम	-7096
▁कदोर्	-7097
▁कन्धे	-7098
▁कन्या	-7099
▁करूणा	-7100
▁केनान	-7101
▁खलड़ी	-7102
▁ग्रहण	-7103
▁जिसकी	-7104
▁जिसको	-7105
▁ज्ञान	-7106
▁झगड़ा	-7107
▁झुण्ड	-7108
▁तामार	-7109
▁तीसरे	-7110
▁दिखाई	-7111
▁दूसरा	-7112
▁निवास	-7113
▁पुकार	-7114
▁पेलेग	-7115
▁बच्चा	-7116
▁बालों	-7117
▁बासमत	-7118
▁बुराई	-7119
▁बूढ़ा	-7120
▁येरेद	-7121
▁वर्णन	-7122
▁सुनते	-7123
▁सूर्य	-7124
▁हाकिम	-7125
▁हाथों	-7126
▁అమి్మ	-7127
▁అయ్యా	-7128
▁ఉండిన	-7129
▁ఎనోషు	-7130
▁కడవను	-7131
▁కనుగొ	-7132
▁కోపము	-7133
▁గుంపు	-7134
▁చేసెద	-7135
▁తీర్ప	-7136
▁నట్లు	-7137
▁నిలువ	-7138
▁పితరు	-7139
▁బట్టి	-7140
▁భావము	-7141
▁మిద్య	-7142
▁మెతూష	-7143
▁యుందు	-7144
▁రండని	-7145
▁రాజ్య	-7146
▁రెండే	-7147
▁విందు	-7148
▁శ్మశా	-7149
▁సేద్య	-7150
▁సోయరు	-7151
▁ಅಡವಿಯ	-7152
▁ಅರಣ್ಯ	-7153
▁ಇದ್ದು	-7154
▁ಉಪಪತ್	-7155
▁ಎಬರನು	-7156
▁ಕನಸಿನ	-7157
▁ಕಾಯುವ	-7158
▁ಕಾಲವೂ	-7159
▁ಕೊಡಲಿ	-7160
▁ಜಾತಿಯ	-7161
▁ತಕ್ಕೋ	-7162
▁ತಿರುಗ	-7163
▁ದುದಾಯ	-7164
▁ದೇವರೇ	-7165
▁ದ್ವಾರ	-7166
▁ನಿವಾಸ	-7167
▁ಪಾತ್ರ	-7168
▁ಬಳಿಗೂ	-7169
▁ಮತ್ತೆ	-7170
▁ಮಿದ್ಯ	-7171
▁ಮೃಗಗಳ	-7172
▁ಯನ್ನು	-7173
▁ಲೆಕ್ಕ	-7174
▁ಸಾಯುವ	-7175
▁ಸೇಯಾರ	-7176
▁ಸೇವಕರ	-7177
▁ಸೊಸೆಯ	-7178
▁ಹೊಟ್ಟ	-7179
▁ಹೋರಿಯ	-7180
acelets	-7181
cerning	-7182
creased	-7183
fleshed	-7184
istress	-7185
thright	-7186
वंशियों	-7187
ండ్రును	-7188
కాలమందు	-7189
కొనుమని	-7190
డేండ్లు	-7191
యున్నది	-7192
ಕೊಳ್ಳದೆ	-7193
ದ್ದನ್ನೂ	-7194
ಬೇಕೆಂದು	-7195
ವನಾಗಿಯೂ	-7196
ವಾಸ್ಥ್ಯ	-7197
ಸಾರವಾಗಿ	-7198
ಾಗಿದ್ದೀ	-7199
ಿಯರನ್ನೂ	-7200
▁Cainan	-7201
▁Chedor	-7202
▁Hebrew	-7203
▁Hebron	-7204
▁Midian	-7205
▁Syrian	-7206
▁beasts	-7207
▁breath	-7208
▁cometh	-7209
▁cursed	-7210
▁escape	-7211
▁famine	-7212
▁filled	-7213
▁follow	-7214
▁gotten	-7215
▁keeper	-7216
▁kissed	-7217
▁mayest	-7218
▁pieces	-7219
▁shewed	-7220
▁turned	-7221
▁window	-7222
▁अंगरखा	-7223
▁कबूतरी	-7224
▁चढ़ाया	-7225
▁जेवनार	-7226
▁दुर्बल	-7227
▁निकलते	-7228
▁निकलीं	-7229
▁निकाला	-7230
▁पिलाया	-7231
▁भेड़ों	-7232
▁महललेल	-7233
▁मिद्या	-7234
▁यात्रा	-7235
▁लड़कों	-7236
▁అందుకా	-7237
▁అందులో	-7238
▁ఆహారము	-7239
▁ఇకమీదట	-7240
▁ఉంచెను	-7241
▁ఎనుబది	-7242
▁ఒంటెలు	-7243
▁ఒక్కటే	-7244
▁కనబడిన	-7245
▁చిక్కి	-7246
▁చుండగా	-7247
▁చూడుము	-7248
▁చెట్టు	-7249
▁చేతిలో	-7250
▁జనముగా	-7251
▁జలములు	-7252
▁తామారు	-7253
▁తీర్చు	-7254
▁దాసుని	-7255
▁నీకేమి	-7256
▁నుండిన	-7257
▁నేలమీద	-7258
▁పండ్రె	-7259
▁పరదేశి	-7260
▁పవిత్ర	-7261
▁పశువుల	-7262
▁పెనిమి	-7263
▁పోయిరి	-7264
▁ప్రకార	-7265
▁మధ్యను	-7266
▁మాంసము	-7267
▁మీదికి	-7268
▁యేమిటి	-7269
▁రాజును	-7270
▁వచ్చెద	-7271
▁వెంటబె	-7272
▁సాక్షి	-7273
▁సిరియా	-7274
▁స్వప్న	-7275
▁స్వరూప	-7276
▁హామును	-7277
▁ಆಗಿದ್ದ	-7278
▁ಇದ್ದವು	-7279
▁ಇರುವದು	-7280
▁ಎಂಭತ್ತ	-7281
▁ಒಡೆಯನೇ	-7282
▁ಓಡಿಹೋದ	-7283
▁ಗಳನ್ನೂ	-7284
▁ದೇವರಾದ	-7285
▁ಪ್ರಾಣಿ	-7286
▁ಬಾಸೆಮತ	-7287
▁ಮಹಲಲೇಲ	-7288
▁ಮಾತಿಗೆ	-7289
▁ಯೆಫೆತ್	-7290
▁ಶೆಲಹನು	-7291
▁ಸಮಾಧಿಯ	-7292
▁ಸೇವಕರು	-7293
▁ಹೆಚ್ಚು	-7294
ినందరిని	-7295
ಶ್ಚಯವಾಗಿ	-7296
▁Hittite	-7297
▁afflict	-7298
▁bearing	-7299
▁company	-7300
▁greatly	-7301
▁present	-7302
▁raiment	-7303
▁removed	-7304
▁serpent	-7305
▁seventy	-7306
▁watered	-7307
▁whither	-7308
▁चरवाहों	-7309
▁छड़ियों	-7310
▁जन्तुओं	-7311
▁जातियां	-7312
▁बनाऊंगा	-7313
▁मतूशेलह	-7314
▁वस्तुएं	-7315
▁అతనిమీద	-7316
▁ఆదామును	-7317
▁ఒంటెలను	-7318
▁కదొర్లా	-7319
▁కనబడెను	-7320
▁కలుగును	-7321
▁దీవించి	-7322
▁దేవుడను	-7323
▁నాయొద్ద	-7324
▁నున్నది	-7325
▁పక్షులు	-7326
▁పిలువగా	-7327
▁ప్రభువా	-7328
▁భార్యగా	-7329
▁మంచిదని	-7330
▁యింటికి	-7331
▁యింటిలో	-7332
▁రగూయేలు	-7333
▁వారందరి	-7334
▁వివాహము	-7335
▁స్థిరపర	-7336
▁ಇದ್ದಾನೆ	-7337
▁ಇವುಗಳಾದ	-7338
▁ಎಂಟುನೂರ	-7339
▁ಒಂಟೆಗಳು	-7340
▁ಕುರಿಗಳು	-7341
▁ಕೆದೊರ್ಲ	-7342
▁ಕೊಬ್ಬಿದ	-7343
▁ಕೊಲ್ಲುವ	-7344
▁ಗಳೆಲ್ಲಾ	-7345
▁ಗೆರಾರಿನ	-7346
▁ಜಾತಿಗನು	-7347
▁ನಕ್ಷತ್ರ	-7348
▁ನೋಹನಿಗೆ	-7349
▁ಪಾನದಾಯಕ	-7350
▁ಪೆಲೆಗನು	-7351
▁ಬಿಟ್ಟನು	-7352
▁ಮಗಳನ್ನು	-7353
▁ಮನುಷ್ಯರ	-7354
▁ಯೌವನಸ್ಥ	-7355
▁ರಾತ್ರಿಯ	-7356
▁ಲ್ಲಿರುವ	-7357
▁ಶೆಕೆಮನು	-7358
▁ಸಮುದ್ರದ	-7359
▁ಸಹೋದರನು	-7360
▁ಸಹೋದರರು	-7361
▁ಸಾಯಂಕಾಲ	-7362
▁ಸಾರಳಿಗೆ	-7363
▁ಸೇವಿಸುವ	-7364
▁ಹೆತ್ತಾಗ	-7365
▁ಹೆರುವದು	-7366
▁ಹೇಳಿದರು	-7367
లన్నిటిని	-7368
స్థ్యముగా	-7369
ಕೊಳ್ಳುತ್ತ	-7370
ಿಸಿದ್ದೇನೆ	-7371
▁darkness	-7372
▁devoured	-7373
▁foreskin	-7374
▁kindness	-7375
▁yielding	-7376
▁बढ़ाऊंगा	-7377
▁लड़कियों	-7378
▁स्वप्नों	-7379
▁ఏశావునకు	-7380
▁కేయినాను	-7381
▁చూచితిని	-7382
▁చేయుదును	-7383
▁దృష్టికి	-7384
▁దేవునితో	-7385
▁నీకిచ్చు	-7386
▁నీతిమంతు	-7387
▁పుట్టెను	-7388
▁పురుషుడు	-7389
▁ప్రయాణమై	-7390
▁భూజంతువు	-7391
▁మార్గమున	-7392
▁ముగ్గురు	-7393
▁యజమానుడు	-7394
▁లాబానుతో	-7395
▁వెళ్లిరి	-7396
▁సహోదరులు	-7397
▁స్థలమందు	-7398
▁ಅವುಗಳಿಗೆ	-7399
▁ಆಶೀರ್ವದಿ	-7400
▁ಒಹೊಲೀಬಾಮ	-7401
▁ಕಾಲದಲ್ಲಿ	-7402
▁ಕುಮಾರರಾದ	-7403
▁ಕೊಡವನ್ನು	-7404
▁ಜನಾಂಗಗಳು	-7405
▁ನಮ್ಮಲ್ಲಿ	-7406
▁ನಿನ್ನಿಂದ	-7407
▁ಪಕ್ಷಿಗಳು	-7408
▁ಮಕ್ಕಳಿಗೆ	-7409
▁ಮನೆಯನ್ನು	-7410
▁ಮಾತನಾಡಿದ	-7411
▁ರೆಬೆಕ್ಕಳ	-7412
▁ಲೋಟನನ್ನು	-7413
▁ಸತ್ತುಹೋದ	-7414
▁ಸುನ್ನತಿಯ	-7415
▁ಸ್ಥಳದಿಂದ	-7416
▁ಹನ್ನೆರಡು	-7417
న్నిటిలోను	-7418
ತ್ತೊಂಭತ್ತು	-7419
▁afterward	-7420
▁bracelets	-7421
▁delivered	-7422
▁destroyed	-7423
▁mandrakes	-7424
▁sojourned	-7425
▁wherefore	-7426
▁ఓడలోనుండి	-7427
▁మోసపుచ్చి	-7428
▁యిట్లనెను	-7429
▁రెండువందల	-7430
▁సంతతివారు	-7431
▁సృజించెను	-7432
▁ಇಸಾಕನನ್ನು	-7433
▁ಐಗುಪ್ತದೇಶ	-7434
▁ಕನಸಿನಲ್ಲಿ	-7435
▁ಕರ್ತನನ್ನು	-7436
▁ತಿಳಿಸಿದಾಗ	-7437
▁ತ್ವರೆಯಾಗಿ	-7438
▁ನಾವೆಯೊಳಗೆ	-7439
▁ಪಶುಗಳನ್ನೂ	-7440
▁ಬಾವಿಯನ್ನು	-7441
▁ಮಾಡಿಸಿದನು	-7442
▁ಮಾರ್ಗವಾಗಿ	-7443
▁ಸಂತಾನಕ್ಕೂ	-7444
▁ಸ್ವಾಸ್ಥ್ಯ	-7445
▁ಹೂಣಿಟ್ಟರು	-7446
▁ಹೃದಯದಲ್ಲಿ	-7447
ించినప్పుడు	-7448
▁Mahalaleel	-7449
▁Methuselah	-7450
▁birthright	-7451
▁concerning	-7452
▁whatsoever	-7453
▁गृहदेवताओं	-7454
▁पकानेहारों	-7455
▁అస్తమయమును	-7456
▁కోడండ్రును	-7457
▁బలిపీఠమును	-7458
▁భూమియందంతట	-7459
▁రెండేండ్లు	-7460
▁ಐಗುಪ್ತಕ್ಕೆ	-7461
▁ಕರೆದುಕೊಂಡು	-7462
▁ಗರ್ಭಿಣಿಯಾದ	-7463
▁ತಕ್ಕೊಳ್ಳುವ	-7464
▁ದೇವರಾಗಿರುವ	-7465
▁ದೇಶದೊಳಗಿಂದ	-7466
▁ನನ್ನೊಂದಿಗೆ	-7467
▁ಪಟ್ಟಣವನ್ನು	-7468
▁ಪರ್ವತದಲ್ಲಿ	-7469
▁ಪ್ರಯಾಣಮಾಡಿ	-7470
▁ಫಿಲಿಷ್ಟಿಯರ	-7471
▁ಮಾಡುವದಕ್ಕೆ	-7472
▁ಮಾತುಗಳನ್ನು	-7473
▁ಮಾರ್ಗವನ್ನು	-7474
▁menservants	-7475
▁कदोर्लाओमेर	-7476
▁पिलानेहारों	-7477
▁అతనియొద్దకు	-7478
▁పద్దనరాములో	-7479
▁భక్ష్యకారుల	-7480
▁ಬಲಿಪೀಠವನ್ನು	-7481
▁ಬಳಿಯಲ್ಲಿದ್ದ	-7482
▁ರೊಟ್ಟಿಯನ್ನೂ	-7483
▁ಹುಡುಗಿಯನ್ನು	-7484
▁ಹೇಳಿದ್ದನ್ನು	-7485
▁Chedorlaomer	-7486
▁maidservants	-7487
▁ద్రాక్షారసము	-7488
▁భూమిమీదనుండి	-7489
▁ತಪ್ಪಿಸಿಕೊಂಡು	-7490
▁ವಸ್ತ್ರಗಳನ್ನು	-7491
▁ಹೆಂಡತಿಯರನ್ನೂ	-7492
▁జ్యేష్ఠకుమారు	-7493
▁ಹೆಂಡತಿಯಾಗಿರುವ	-7494
▁interpretation	-7495
▁ದ್ರಾಕ್ಷಾರಸವನ್ನು	-7496
ai	-7497
ez	-7498
iv	-7499
mo	-7500
un	-7501
vi	-7502
ंघ	-7503
ंव	-7504
गण	-7505
झा	-7506
नज	-7507
बो	-7508
भा	-7509
भि	-7510
यु	-7511
षे	-7512
सु	-7513
ैम	-7514
्म	-7515
గం	-7516
గడ	-7517
డే	-7518
దన	-7519
మన	-7520
యవ	-7521
య్	-7522
శి	-7523
షా	-7524
సం	-7525
ాన	-7526
ుత	-7527
ృప	-7528
ಂಕ	-7529
ಂಥ	-7530
ಆದ	-7531
ಗನ	-7532
ಚಾ	-7533
ಪು	-7534
ಫಲ	-7535
ಬೋ	-7536
ಮೂ	-7537
ವಾ	-7538
ಹೇ	-7539
ೀಲ	-7540
ೊತ	-7541
ೌರ	-7542
▁ట	-7543
cub	-7544
eel	-7545
ela	-7546
eng	-7547
ife	-7548
ins	-7549
irg	-7550
lah	-7551
lee	-7552
ons	-7553
shi	-7554
ude	-7555
ulf	-7556
und	-7557
urt	-7558
uth	-7559
van	-7560
ंसा	-7561
कपे	-7562
चाई	-7563
ढ़े	-7564
तली	-7565
मार	-7566
राध	-7567
रिस	-7568
रूग	-7569
रेम	-7570
रोई	-7571
लाई	-7572
षेम	-7573
िता	-7574
ूलो	-7575
ेगा	-7576
ेरह	-7577
క్ప	-7578
క్ర	-7579
డవై	-7580
డెవ	-7581
దాత	-7582
ధము	-7583
ధూర	-7584
మస్	-7585
యిం	-7586
రుగ	-7587
ర్య	-7588
వలి	-7589
వున	-7590
వేయ	-7591
శ్య	-7592
సలి	-7593
ాంగ	-7594
ూలు	-7595
ేలా	-7596
్తి	-7597
ಅದರ	-7598
ಕ್ಪ	-7599
ಗಾಲ	-7600
ಜೀಯ	-7601
ಜ್ಜ	-7602
ತನೂ	-7603
ತಿದ	-7604
ದುವ	-7605
ಫ್ತ	-7606
ಬಲಿ	-7607
ಮೆಯ	-7608
ಯಾಕ	-7609
ಯ್ದ	-7610
ರಾದ	-7611
ರ್ಮ	-7612
ಲಾಯ	-7613
ವೇಶ	-7614
ಸಾಕ	-7615
ಹೋಗ	-7616
ಾಕ್	-7617
ಾದು	-7618
ಾದ್	-7619
ಾಲ್	-7620
ಾವು	-7621
ೆರ್	-7622
ೋರಹ	-7623
▁Je	-7624
▁Oh	-7625
▁bo	-7626
▁bu	-7627
▁vi	-7628
▁wr	-7629
▁अन	-7630
▁आग	-7631
▁इब	-7632
▁ऊन	-7633
▁ऊस	-7634
▁एम	-7635
▁कठ	-7636
▁कल	-7637
▁गह	-7638
▁झा	-7639
▁दल	-7640
▁पो	-7641
▁प्	-7642
▁लग	-7643
▁लु	-7644
▁वी	-7645
▁शो	-7646
▁हड	-7647
▁हद	-7648
▁అల	-7649
▁అవ	-7650
▁అస	-7651
▁ఊట	-7652
▁ఎడ	-7653
▁కీ	-7654
▁గె	-7655
▁గై	-7656
▁పద	-7657
▁మో	-7658
▁రొ	-7659
▁రో	-7660
▁లూ	-7661
▁శి	-7662
▁హద	-7663
▁ಆತ	-7664
▁ಓನ	-7665
▁ಕಳ	-7666
▁ಚೆ	-7667
▁ಬು	-7668
▁ಯಥ	-7669
▁ಯಳ	-7670
▁ಯು	-7671
▁ಲೇ	-7672
▁ಶಿ	-7673
▁ಶೂ	-7674
▁ಸರ	-7675
achp	-7676
angu	-7677
ayed	-7678
cept	-7679
ched	-7680
edan	-7681
edge	-7682
erit	-7683
erug	-7684
fold	-7685
fort	-7686
icer	-7687
most	-7688
omin	-7689
ondw	-7690
ower	-7691
rent	-7692
rest	-7693
ries	-7694
ssed	-7695
teen	-7696
ubal	-7697
vest	-7698
veth	-7699
vous	-7700
कर्म	-7701
काकर	-7702
गन्ध	-7703
ड़ों	-7704
तायत	-7705
त्मा	-7706
त्यु	-7707
द्रव	-7708
धारी	-7709
नकों	-7710
न्ति	-7711
प्ता	-7712
रागण	-7713
वधान	-7714
वाते	-7715
वीला	-7716
ानवे	-7717
्राम	-7718
ఇతడు	-7719
గాని	-7720
గిలి	-7721
గ్గి	-7722
చేతి	-7723
డ్డి	-7724
తులు	-7725
దిని	-7726
దువా	-7727
నాడు	-7728
న్యు	-7729
పడని	-7730
పురు	-7731
ప్పి	-7732
ప్యా	-7733
ముతో	-7734
మ్మి	-7735
యయిన	-7736
లమీద	-7737
లారా	-7738
లుగవ	-7739
వాను	-7740
వేమి	-7741
వ్వల	-7742
వ్వు	-7743
షాను	-7744
షుడు	-7745
ాప్య	-7746
ారపు	-7747
ించె	-7748
ెరహు	-7749
ొంది	-7750
ోన్న	-7751
ಕ್ಕೋ	-7752
ಗೊಂಡ	-7753
ನೆಂಬ	-7754
ನ್ನತ	-7755
ಮನೆಯ	-7756
ವೇನು	-7757
ಶಕ್ತ	-7758
ಾಮನು	-7759
ಾಮಿನ	-7760
ಾಸ್ಯ	-7761
ಿಸ್ತ	-7762
ುವನು	-7763
ೂರಿನ	-7764
ೃಕ್ಷ	-7765
ೋಟೀಫ	-7766
್ವರೆ	-7767
▁All	-7768
▁Alm	-7769
▁Ash	-7770
▁Ben	-7771
▁Kad	-7772
▁Nay	-7773
▁Reu	-7774
▁See	-7775
▁bas	-7776
▁car	-7777
▁cry	-7778
▁dis	-7779
▁dry	-7780
▁fed	-7781
▁few	-7782
▁hid	-7783
▁how	-7784
▁lod	-7785
▁top	-7786
▁vow	-7787
▁why	-7788
▁अभी	-7789
▁अशु	-7790
▁आना	-7791
▁कूश	-7792
▁खोल	-7793
▁गिन	-7794
▁घास	-7795
▁चुप	-7796
▁चूम	-7797
▁छीन	-7798
▁ठहर	-7799
▁तेल	-7800
▁देव	-7801
▁निज	-7802
▁निर	-7803
▁पहु	-7804
▁फलो	-7805
▁फेर	-7806
▁बचे	-7807
▁बने	-7808
▁बसा	-7809
▁बसे	-7810
▁बहा	-7811
▁बहू	-7812
▁भले	-7813
▁मेल	-7814
▁लें	-7815
▁विध	-7816
▁शूर	-7817
▁हरी	-7818
▁हरे	-7819
▁అడు	-7820
▁అద్	-7821
▁అరా	-7822
▁అల్	-7823
▁ఇంత	-7824
▁ఇటు	-7825
▁ఊరు	-7826
▁ఐదు	-7827
▁కల్	-7828
▁కృప	-7829
▁గ్ర	-7830
▁చూడ	-7831
▁చెద	-7832
▁చేర	-7833
▁తరు	-7834
▁తెర	-7835
▁దరు	-7836
▁నకు	-7837
▁నామ	-7838
▁నేన	-7839
▁పీఠ	-7840
▁బాధ	-7841
▁బెల	-7842
▁మంత	-7843
▁మాన	-7844
▁మృగ	-7845
▁మేఘ	-7846
▁మొర	-7847
▁లోక	-7848
▁వాట	-7849
▁వాత	-7850
▁వెద	-7851
▁వేయ	-7852
▁వేళ	-7853
▁షిమ	-7854
▁షీన	-7855
▁షేబ	-7856
▁సరి	-7857
▁సాగ	-7858
▁సిం	-7859
▁సెల	-7860
▁హవీ	-7861
▁ಅಂತ	-7862
▁ಅದ್	-7863
▁ಅನು	-7864
▁ಅವಲ	-7865
▁ಇದು	-7866
▁ಎದು	-7867
▁ಎಷ್	-7868
▁ಕೋಲ	-7869
▁ಕ್ಷ	-7870
▁ಗದರ	-7871
▁ಗೋಮ	-7872
▁ತೇಮ	-7873
▁ದಾರ	-7874
▁ನಾವ	-7875
▁ನೇಮ	-7876
▁ನೋಹ	-7877
▁ಪಾಲ	-7878
▁ಬೇಡ	-7879
▁ಭಾಗ	-7880
▁ಮಹಾ	-7881
▁ಮಹೋ	-7882
▁ಮೇಘ	-7883
▁ವನು	-7884
▁ಶಾಪ	-7885
▁ಶೇಲ	-7886
▁ಸಫಲ	-7887
▁ಸಾಕ	-7888
▁ಸಾಲ	-7889
anted	-7890
antly	-7891
ience	-7892
ilead	-7893
illed	-7894
imeon	-7895
itude	-7896
orrow	-7897
urely	-7898
vilah	-7899
कपेला	-7900
लियों	-7901
हत्तर	-7902
కుండు	-7903
కొనగా	-7904
టిమీద	-7905
డగును	-7906
తివిు	-7907
నందున	-7908
నములో	-7909
పడెను	-7910
మంతయు	-7911
ములలో	-7912
మైనది	-7913
యకుండ	-7914
య్యగా	-7915
లేదని	-7916
వద్దు	-7917
వరాసు	-7918
వాడవు	-7919
వారము	-7920
వారెవ	-7921
సెదను	-7922
స్థుల	-7923
ిన్నె	-7924
ొద్దు	-7925
్రాను	-7926
ಂದರ್ಯ	-7927
ಕಾಯುವ	-7928
ಕ್ಪೇಲ	-7929
ಗೊಂಡು	-7930
ಡಬೇಕು	-7931
ದಷ್ಟು	-7932
ದಿಪ್ರ	-7933
ದುರಿದ	-7934
ನಿನಗೆ	-7935
ಮೆಯೋನ	-7936
ವನಾಗಿ	-7937
ವೇಲನು	-7938
ಹೋಗುವ	-7939
ಿಗೆಯೂ	-7940
ುತ್ತಾ	-7941
▁Bela	-7942
▁Levi	-7943
▁Naph	-7944
▁They	-7945
▁bird	-7946
▁empt	-7947
▁feet	-7948
▁flee	-7949
▁food	-7950
▁gone	-7951
▁hard	-7952
▁heir	-7953
▁hire	-7954
▁host	-7955
▁hurt	-7956
▁join	-7957
▁lean	-7958
▁most	-7959
▁mour	-7960
▁much	-7961
▁must	-7962
▁noth	-7963
▁rain	-7964
▁rams	-7965
▁rich	-7966
▁shea	-7967
▁shek	-7968
▁sold	-7969
▁sore	-7970
▁turn	-7971
▁vale	-7972
▁walk	-7973
▁ward	-7974
▁wast	-7975
▁work	-7976
▁अप्र	-7977
▁उतार	-7978
▁ऊंचे	-7979
▁करती	-7980
▁कहता	-7981
▁कहूं	-7982
▁कुआं	-7983
▁कोरह	-7984
▁खेती	-7985
▁खोदा	-7986
▁घड़े	-7987
▁चुका	-7988
▁चुके	-7989
▁चूमा	-7990
▁जेरह	-7991
▁जैसी	-7992
▁टोकर	-7993
▁तोड़	-7994
▁दासी	-7995
▁धनुष	-7996
▁पतली	-7997
▁पराए	-7998
▁पलटा	-7999
▁पालन	-8000
▁पीने	-8001
▁फूलो	-8002
▁फैला	-8003
▁बांज	-8004
▁बादल	-8005
▁बिता	-8006
▁बिना	-8007
▁बुरे	-8008
▁बेला	-8009
▁मनसा	-8010
▁मारे	-8011
▁मिली	-8012
▁रहना	-8013
▁रूपा	-8014
▁लेके	-8015
▁लेवी	-8016
▁लौटा	-8017
▁व्यव	-8018
▁सकते	-8019
▁सरूग	-8020
▁सेना	-8021
▁सोना	-8022
▁होरी	-8023
▁అధిప	-8024
▁ఇతని	-8025
▁ఇష్ట	-8026
▁ఎదుట	-8027
▁కనబడ	-8028
▁కలను	-8029
▁కూషు	-8030
▁కొను	-8031
▁గిలా	-8032
▁చాలా	-8033
▁తడవి	-8034
▁తలను	-8035
▁దిగం	-8036
▁దిగు	-8037
▁దీనా	-8038
▁దీని	-8039
▁దేని	-8040
▁దేవత	-8041
▁దొరక	-8042
▁దొరి	-8043
▁నేనా	-8044
▁పండు	-8045
▁పంపు	-8046
▁పారు	-8047
▁పోగు	-8048
▁ప్రబ	-8049
▁ఫరోయ	-8050
▁భర్త	-8051
▁మందు	-8052
▁మక్ప	-8053
▁మనలో	-8054
▁మీకు	-8055
▁ముతో	-8056
▁మూరల	-8057
▁యందు	-8058
▁యేడవ	-8059
▁యేడ్	-8060
▁లేదో	-8061
▁వివర	-8062
▁వీని	-8063
▁వీరే	-8064
▁సర్ప	-8065
▁సాగి	-8066
▁సెరూ	-8067
▁ಅವನೂ	-8068
▁ಆಸ್ತ	-8069
▁ಉಳ್ಳ	-8070
▁ಎನೋಷ	-8071
▁ಒಳಗೆ	-8072
▁ಕದ್ದ	-8073
▁ಕಷ್ಟ	-8074
▁ಕುಡಿ	-8075
▁ಕೇಡು	-8076
▁ಕೈಚಾ	-8077
▁ಕೋರಹ	-8078
▁ಜೆರಹ	-8079
▁ತಮಗೆ	-8080
▁ತೊಂಭ	-8081
▁ದಾಸಿ	-8082
▁ದಿನದ	-8083
▁ನಕ್ಕ	-8084
▁ನಡುವ	-8085
▁ನೆಲದ	-8086
▁ಪಕ್ಕ	-8087
▁ಪಡೆಯ	-8088
▁ಬಾಗಲ	-8089
▁ಬಾವಿ	-8090
▁ಬಿಡು	-8091
▁ಬೆತೂ	-8092
▁ಮುಸು	-8093
▁ಮೊಳೆ	-8094
▁ಯಾರೂ	-8095
▁ಲೋಟನ	-8096
▁ವ್ಯಥ	-8097
▁ಸಂಗಮ	-8098
▁ಸರ್ಪ	-8099
▁ಸಹಿತ	-8100
▁ಸಿವು	-8101
▁ಹವೀಲ	-8102
▁ಹಾದು	-8103
▁ಹಿರೀ	-8104
▁ಹೇಳು	-8105
▁ಹೊರಟ	-8106
▁ಹೌದು	-8107
enance	-8108
ointed	-8109
प्रधान	-8110
ందరికి	-8111
కొందము	-8112
కొనిరి	-8113
కొనుడి	-8114
క్తిగల	-8115
క్రింద	-8116
టనున్న	-8117
దేమనగా	-8118
దేవుడు	-8119
నిగాను	-8120
పడకుము	-8121
ప్యాంగ	-8122
ఫలములు	-8123
మందిని	-8124
మిచ్చు	-8125
మ్మును	-8126
యుండగా	-8127
లిచెను	-8128
వారిని	-8129
వేసిరి	-8130
ష్టాంగ	-8131
ించుడి	-8132
ినయెడల	-8133
ూర్చిన	-8134
ోన్నతు	-8135
ಕೊಟ್ಟು	-8136
ಡುತ್ತಾ	-8137
ತನದಿಂದ	-8138
ನದಲ್ಲಿ	-8139
ಮನುಷ್ಯ	-8140
ವಾದದ್ದ	-8141
ವಿತ್ತು	-8142
ಹಾಗಲ್ಲ	-8143
ಾತ್ಕಾರ	-8144
ಾನನಿಂದ	-8145
ಾಯೇಲ್ಯ	-8146
ಿತೆಂದು	-8147
ಿಸತಕ್ಕ	-8148
ಿಸಿದಳು	-8149
ುಖದಿಂದ	-8150
ೊಂದಿಗೂ	-8151
▁Bless	-8152
▁Bring	-8153
▁Korah	-8154
▁Lotan	-8155
▁Machp	-8156
▁Serug	-8157
▁Teman	-8158
▁There	-8159
▁abund	-8160
▁awoke	-8161
▁began	-8162
▁bondw	-8163
▁brown	-8164
▁built	-8165
▁cloud	-8166
▁cried	-8167
▁domin	-8168
▁elder	-8169
▁fount	-8170
▁goeth	-8171
▁lambs	-8172
▁langu	-8173
▁needs	-8174
▁repro	-8175
▁round	-8176
▁swear	-8177
▁times	-8178
▁token	-8179
▁white	-8180
▁wrest	-8181
▁अपराध	-8182
▁आत्मा	-8183
▁इब्री	-8184
▁कुडौल	-8185
▁कुलों	-8186
▁क्रोध	-8187
▁क्षेम	-8188
▁खम्भे	-8189
▁गायों	-8190
▁चर्चा	-8191
▁छुड़ा	-8192
▁तुच्छ	-8193
▁तेमान	-8194
▁दीशोन	-8195
▁देखने	-8196
▁धब्बे	-8197
▁पहिना	-8198
▁पहिला	-8199
▁प्रेम	-8200
▁बनाने	-8201
▁बन्धु	-8202
▁बहुओं	-8203
▁भांति	-8204
▁महानद	-8205
▁रक्षा	-8206
▁लड़की	-8207
▁लोतान	-8208
▁लौटकर	-8209
▁वारिस	-8210
▁शक्ति	-8211
▁शापित	-8212
▁शिनार	-8213
▁शिमोन	-8214
▁सत्तर	-8215
▁हवीला	-8216
▁అనియు	-8217
▁అన్యు	-8218
▁ఆమెకు	-8219
▁ఆయననీ	-8220
▁ఆయెను	-8221
▁ఇక్కడ	-8222
▁ఊరికి	-8223
▁ఎక్కు	-8224
▁ఏబెరు	-8225
▁కడుపు	-8226
▁కమ్మి	-8227
▁కలిగి	-8228
▁కావలి	-8229
▁కోరహు	-8230
▁చున్న	-8231
▁చేతుల	-8232
▁జనముల	-8233
▁జెరహు	-8234
▁తలుపు	-8235
▁త్రోవ	-8236
▁దీవెన	-8237
▁దూతలు	-8238
▁దూరము	-8239
▁ననెను	-8240
▁నిద్ర	-8241
▁నిర్మ	-8242
▁నొద్ద	-8243
▁పడిరి	-8244
▁పడుచు	-8245
▁పదియవ	-8246
▁పర్వత	-8247
▁పాపము	-8248
▁పీలవె	-8249
▁పొందు	-8250
▁ప్రజల	-8251
▁ఫరోకు	-8252
▁ఫరోతో	-8253
▁బడును	-8254
▁బహుగా	-8255
▁భయపడి	-8256
▁ముందర	-8257
▁ముసలి	-8258
▁మూలము	-8259
▁మైదాన	-8260
▁మొలిప	-8261
▁యెవరి	-8262
▁లోయలో	-8263
▁వలెను	-8264
▁వారసు	-8265
▁వికార	-8266
▁వేశ్య	-8267
▁స్తుత	-8268
▁ಅಪರಾಧ	-8269
▁ಆದರಣೆ	-8270
▁ಎತ್ತಿ	-8271
▁ಏದೆನ್	-8272
▁ಏಳನೆಯ	-8273
▁ಕತ್ತಲ	-8274
▁ಕಲ್ಲು	-8275
▁ಕಿರಿಯ	-8276
▁ಗಿಲ್ಯ	-8277
▁ಗುರುತ	-8278
▁ತಂದನು	-8279
▁ತಂದಾಗ	-8280
▁ತಾಮಾರ	-8281
▁ತಿಮ್ನ	-8282
▁ತೆರಹನ	-8283
▁ತ್ವರೆ	-8284
▁ದಿಲ್ಲ	-8285
▁ದೇವದೂ	-8286
▁ದೇವರೂ	-8287
▁ದೇಶವು	-8288
▁ನಡೆದು	-8289
▁ನಿತ್ಯ	-8290
▁ಪುಷ್ಟ	-8291
▁ಪೋಟೀಫ	-8292
▁ಪ್ರಬಲ	-8293
▁ಬಂಗಾರ	-8294
▁ಬಂದಳು	-8295
▁ಬಣ್ಣದ	-8296
▁ಬದಲಾಯ	-8297
▁ಬರಮಾಡ	-8298
▁ಬಾರದು	-8299
▁ಬಿಟ್ಟ	-8300
▁ಬೆಳಕು	-8301
▁ಮಗುವು	-8302
▁ಮಧ್ಯೆ	-8303
▁ಮಲಗುವ	-8304
▁ಮೂವರು	-8305
▁ಯನ್ನೂ	-8306
▁ವರಿಗೂ	-8307
▁ವಿಸ್ತ	-8308
▁ಶುದ್ಧ	-8309
▁ಸಾರಯಳ	-8310
▁ಹಿರಿಯ	-8311
▁ಹುಡುಕ	-8312
eelites	-8313
చిత్తము	-8314
వచ్చును	-8315
ించెనని	-8316
ಕೆಯನ್ನೂ	-8317
ಕೊಳ್ಳಲಿ	-8318
ದರಿಂದಲೂ	-8319
ದಿಪ್ರಾಯ	-8320
ನನ್ನಾಗಿ	-8321
ರುಗೊಳ್ಳ	-8322
ಲ್ಲನ್ನೂ	-8323
ಲ್ಲಾಮ್ಯ	-8324
ವಾಗಿರಲಿ	-8325
ಶಕ್ತನಾದ	-8326
ಾಗಿರುವಿ	-8327
ಿದ್ದೆನು	-8328
ಿರಲಿಲ್ಲ	-8329
ಿಸಿದ್ದೀ	-8330
ೆದುರಿಗೆ	-8331
▁Dishon	-8332
▁Gilead	-8333
▁Shelah	-8334
▁Shinar	-8335
▁Simeon	-8336
▁Surely	-8337
▁angels	-8338
▁basket	-8339
▁beheld	-8340
▁concub	-8341
▁contin	-8342
▁cubits	-8343
▁enough	-8344
▁hollow	-8345
▁saidst	-8346
▁spread	-8347
▁talked	-8348
▁twelve	-8349
▁whence	-8350
▁worshi	-8351
▁अशुद्ध	-8352
▁करेंगे	-8353
▁किनकों	-8354
▁कुकर्म	-8355
▁ज्योति	-8356
▁तारागण	-8357
▁बच्चों	-8358
▁बढ़ाकर	-8359
▁मकपेला	-8360
▁मृत्यु	-8361
▁रहेंगे	-8362
▁शान्ति	-8363
▁सातवें	-8364
▁सावधान	-8365
▁सुगन्ध	-8366
▁सेवकों	-8367
▁అతడునా	-8368
▁అతడును	-8369
▁ఆకాశపు	-8370
▁ఇద్దరు	-8371
▁ఒకనితో	-8372
▁కిచ్చి	-8373
▁గిన్నె	-8374
▁గుంటలో	-8375
▁చక్కని	-8376
▁చేతులు	-8377
▁జరిగిన	-8378
▁జిల్పా	-8379
▁తీర్పు	-8380
▁తుడిచి	-8381
▁తులముల	-8382
▁తెచ్చు	-8383
▁దాసుడు	-8384
▁దిషోను	-8385
▁నడుగగా	-8386
▁నరులను	-8387
▁పాతిపె	-8388
▁పితరుల	-8389
▁పిలువన	-8390
▁పేరులు	-8391
▁పొట్టే	-8392
▁పొమ్ము	-8393
▁ప్రవాహ	-8394
▁బలిసిన	-8395
▁యుండుట	-8396
▁యున్నా	-8397
▁యేండ్ల	-8398
▁రాజులు	-8399
▁లోతాను	-8400
▁వంశముల	-8401
▁వానిని	-8402
▁వినుము	-8403
▁వెలుగు	-8404
▁వేరుగా	-8405
▁శ్మశాన	-8406
▁షీనారు	-8407
▁సంపూర్	-8408
▁సింధూర	-8409
▁స్వరము	-8410
▁ಅತ್ತನು	-8411
▁ಅಶ್ಶೂರ	-8412
▁ಇನ್ನೂರ	-8413
▁ಇವರಿಂದ	-8414
▁ಎಲ್ಲಾದ	-8415
▁ಒಬ್ಬನೇ	-8416
▁ಕುಡಿಸಿ	-8417
▁ಕೊಡಿರಿ	-8418
▁ಗಳಲ್ಲಿ	-8419
▁ಗುಡಾರದ	-8420
▁ಗುರುತು	-8421
▁ಚಲಿಸುವ	-8422
▁ಜಗಳವಾಡ	-8423
▁ತಂದೆಯೇ	-8424
▁ದಹನಬಲಿ	-8425
▁ದಾಸದಾಸ	-8426
▁ದಾಸನಾದ	-8427
▁ನನಗಾಗಿ	-8428
▁ನಾನೂರು	-8429
▁ನಾಹೋರನ	-8430
▁ಪ್ರತಿದ	-8431
▁ಪ್ರವೇಶ	-8432
▁ಬಲಿಷ್ಠ	-8433
▁ಬಿಲ್ಲು	-8434
▁ಬೇತೇಲ್	-8435
▁ಮಕ್ಕಳಿ	-8436
▁ಮಕ್ಪೇಲ	-8437
▁ಮಮ್ರೆಯ	-8438
▁ಮುನ್ನೂ	-8439
▁ಮೈದಾನದ	-8440
▁ವದನ್ನು	-8441
▁ವಿಶ್ರಮ	-8442
▁ಸಹೋದರಿ	-8443
▁ಹಿಡಿದು	-8444
▁ಹುಡುಗನ	-8445
▁ಹೆಗಲಿನ	-8446
▁ಹೆಚ್ಚಿ	-8447
చ్చెదనని	-8448
పురుషుడు	-8449
ప్పుకొని	-8450
ప్రకారము	-8451
ನಿಗೋಸ್ಕರ	-8452
ಲ್ಪಟ್ಟವು	-8453
ಳಿಗೋಸ್ಕರ	-8454
ವರೆಲ್ಲರೂ	-8455
▁Havilah	-8456
▁comfort	-8457
▁defiled	-8458
▁dwelled	-8459
▁earring	-8460
▁entered	-8461
▁herself	-8462
▁inherit	-8463
▁nothing	-8464
▁pursued	-8465
▁require	-8466
▁seventh	-8467
▁thyself	-8468
▁अन्धिया	-8469
▁अश्शूर्	-8470
▁उजियाले	-8471
▁ठहरेंगे	-8472
▁तम्बुओं	-8473
▁दासियां	-8474
▁देवताओं	-8475
▁निकालकर	-8476
▁बहुतायत	-8477
▁बान्धता	-8478
▁मूलपिता	-8479
▁विश्राम	-8480
▁हेब्रोन	-8481
▁అన్నయైన	-8482
▁అష్షూరు	-8483
▁ఆశీర్వా	-8484
▁ఉండకుండ	-8485
▁ఏశావుతో	-8486
▁కయీనును	-8487
▁కాలమందు	-8488
▁కొండమీద	-8489
▁కొనబడిన	-8490
▁చూపునకు	-8491
▁చేయబోవు	-8492
▁చేయించి	-8493
▁చేయుమని	-8494
▁చేసినది	-8495
▁జలములను	-8496
▁జీవరాసు	-8497
▁తూర్పున	-8498
▁తెలుపగల	-8499
▁దించెను	-8500
▁దినమందే	-8501
▁నక్షత్ర	-8502
▁నీతోకూడ	-8503
▁నీయొద్ద	-8504
▁పర్వతము	-8505
▁పారిపోయ	-8506
▁పెట్టిన	-8507
▁బంగారము	-8508
▁బంధువుల	-8509
▁బాశెమతు	-8510
▁భావమును	-8511
▁మక్పేలా	-8512
▁మాటలాడి	-8513
▁రావలసిన	-8514
▁రెండేసి	-8515
▁వచ్చిరి	-8516
▁వస్తువు	-8517
▁వెండితో	-8518
▁సేవకుడు	-8519
▁స్తంభము	-8520
▁ಎದುರಾಗಿ	-8521
▁ಓಡಿಹೋಗಿ	-8522
▁ಕಟ್ಟಿಗೆ	-8523
▁ಕುರಿಗಳೂ	-8524
▁ಕೆಟ್ಟದರ	-8525
▁ಕೈಯನ್ನು	-8526
▁ಗೊಮೋರಗಳ	-8527
▁ತಪ್ಪಿಸಿ	-8528
▁ದನಕಾಯುವ	-8529
▁ದೇಶಕ್ಕೂ	-8530
▁ನನ್ನಿಂದ	-8531
▁ನಾಶಮಾಡು	-8532
▁ನಾಹೋರನು	-8533
▁ನೀರುಗಳು	-8534
▁ಬೆಳ್ಳಿಯ	-8535
▁ಮಕ್ಕಳಾದ	-8536
▁ಮಹೋನ್ನತ	-8537
▁ಮಾಡುತ್ತ	-8538
▁ಮಾತನಾಡು	-8539
▁ಮಿಲ್ಕಳು	-8540
▁ಮುದುರಿದ	-8541
▁ಯಜ್ಞವೇದ	-8542
▁ರೆಗೂವನು	-8543
▁ವಾಗಿರುವ	-8544
▁ವಾಸಮಾಡಿ	-8545
▁ವಾಸಿಸುವ	-8546
▁ಸಂತತಿಗೆ	-8547
▁ಸಂತತಿಯು	-8548
▁ಸಹೋದರಿಯ	-8549
▁ಸಿಮೆಯೋನ	-8550
▁ಸೆರೂಗನು	-8551
▁ಸೌಂದರ್ಯ	-8552
▁ಹಾಕಿದನು	-8553
▁ಹಾಗಾದರೆ	-8554
▁ಹೇಳಿದಳು	-8555
చున్నాడని	-8556
ించునట్లు	-8557
ಣ್ಣೆಯನ್ನು	-8558
ರಿಗೊಬ್ಬರು	-8559
ಾಗಿದ್ದೇನೆ	-8560
ಿನಲ್ಲಿರುವ	-8561
ಿಸುತ್ತೇನೆ	-8562
▁dominion	-8563
▁fountain	-8564
▁grievous	-8565
▁language	-8566
▁remember	-8567
▁shoulder	-8568
▁withheld	-8569
▁चित्कबरी	-8570
▁तुम्हारा	-8571
▁पत्नियों	-8572
▁అందుకతడు	-8573
▁అతడునేను	-8574
▁కట్టించి	-8575
▁కనబడలేదు	-8576
▁కనానీయుల	-8577
▁గొఱ్ఱలకు	-8578
▁గోప్యాంగ	-8579
▁చేసితిని	-8580
▁చేసెదనని	-8581
▁దిగిపోయి	-8582
▁దొరకలేదు	-8583
▁నేటివరకు	-8584
▁నేనామెను	-8585
▁నేలనుండి	-8586
▁పుత్రదాత	-8587
▁ప్రభువైన	-8588
▁ప్రయాణము	-8589
▁ప్రొద్దు	-8590
▁భార్యలను	-8591
▁మూడువందల	-8592
▁యాపెతును	-8593
▁లెక్కింప	-8594
▁వస్త్రము	-8595
▁విడిచెను	-8596
▁వివరించి	-8597
▁వృద్ధుడై	-8598
▁వెళ్లుము	-8599
▁షిమ్యోను	-8600
▁సాష్టాంగ	-8601
▁సేవకుడైన	-8602
▁స్త్రీతో	-8603
▁స్థలమును	-8604
▁ಅದಕ್ಕವನು	-8605
▁ಆದಾಮನಿಗೆ	-8606
▁ಎಫ್ರೋನನು	-8607
▁ಏರಿಹೋದನು	-8608
▁ಐಗುಪ್ತ್ಯ	-8609
▁ಒಡಂಬಡಿಕೆ	-8610
▁ಓಡಿಹೋದನು	-8611
▁ಔತಣವನ್ನು	-8612
▁ಕಟ್ಟಿದನು	-8613
▁ಕಣ್ಣುಗಳು	-8614
▁ಜೀವದಲ್ಲಿ	-8615
▁ತಲೆಯನ್ನು	-8616
▁ತಿನ್ನುವಿ	-8617
▁ದೀನಳನ್ನು	-8618
▁ದ್ರಾಕ್ಷೇ	-8619
▁ಪ್ರಕಾರವೇ	-8620
▁ಪ್ರಳಯವಾದ	-8621
▁ಬಲಾತ್ಕಾರ	-8622
▁ಬಾಗಲನ್ನು	-8623
▁ಬೇತೇಲಿಗೆ	-8624
▁ಮತ್ತೊಂದು	-8625
▁ಮರಿಯನ್ನು	-8626
▁ಮುಖವನ್ನು	-8627
▁ವಿಷಯವಾಗಿ	-8628
▁ಸಾರಳನ್ನು	-8629
▁ಸಿಕ್ಕಾರು	-8630
▁ಸಿಬೆಯೋನನ	-8631
▁ಸೆರೆಮನೆಯ	-8632
▁ಸ್ತ್ರೀಗೆ	-8633
▁ಹಾಕಿಕೊಂಡ	-8634
▁ಹೆಂಡತಿಯು	-8635
▁ಹೆಂಡತಿಯೂ	-8636
▁ಹೆಬ್ರೋನ್	-8637
▁ಹೇಳಿದಂತೆ	-8638
▁ಹೇಳಿದ್ದೇ	-8639
▁ಹೋಗುವೆನು	-8640
ಕೊಳ್ಳುವೆನು	-8641
▁Machpelah	-8642
▁appointed	-8643
▁beginning	-8644
▁bondwoman	-8645
▁increased	-8646
▁mountains	-8647
▁multitude	-8648
▁shouldest	-8649
▁धब्बेवाले	-8650
▁परमप्रधान	-8651
▁అనుకొనెను	-8652
▁అర్పక్షదు	-8653
▁అహొలీబామా	-8654
▁ఇస్సాకుతో	-8655
▁ఒంటెలకును	-8656
▁ఓడలోనున్న	-8657
▁కుమారులకు	-8658
▁కూర్చుండి	-8659
▁చిన్నవాని	-8660
▁దాసుడగును	-8661
▁నియమించిన	-8662
▁పండ్రెండు	-8663
▁పట్టణమును	-8664
▁పట్టణములో	-8665
▁బేతేలునకు	-8666
▁భార్యయయిన	-8667
▁మధ్యనున్న	-8668
▁మృతిబొంది	-8669
▁మొదలుకొని	-8670
▁యజమానుడగు	-8671
▁యైదేండ్లు	-8672
▁వచ్చువరకు	-8673
▁వృద్ధాప్య	-8674
▁శయనించెను	-8675
▁సమస్తమును	-8676
▁సేద్యపరచు	-8677
▁ಅಂಗಿಯನ್ನು	-8678
▁ಅಬೀಮೆಲೆಕನ	-8679
▁ಅವರಿಬ್ಬರೂ	-8680
▁ಆಕಾಶವನ್ನು	-8681
▁ಉದ್ಯೋಗಸ್ಥ	-8682
▁ಕಳುಹಿಸಿಕೊ	-8683
▁ಕುಮಾರರಿಗೂ	-8684
▁ಕುರಿಗಳಿಗೆ	-8685
▁ಕೆದೊರ್ಲಗೋ	-8686
▁ಕೊಂಡುಕೊಂಡ	-8687
▁ಕ್ರಿಮಿಗಳೂ	-8688
▁ಗಂಡಸರೆಲ್ಲ	-8689
▁ಜನರೊಂದಿಗೆ	-8690
▁ತಿಳಿಸಿದನು	-8691
▁ಬೆಟ್ಟಕ್ಕೆ	-8692
▁ಮಕ್ಕಳನ್ನೂ	-8693
▁ಮುದಿಪ್ರಾಯ	-8694
▁ರಕ್ತವನ್ನು	-8695
▁ವಾಸಿಸಿದನು	-8696
▁ಸವಿಾಪಕ್ಕೆ	-8697
▁ಸ್ತಂಭವಾಗಿ	-8698
▁ಸ್ಥಳವನ್ನು	-8699
▁ಹುಟ್ಟುವರು	-8700
లన్నిటికిని	-8701
▁abundantly	-8702
▁चित्तीवाली	-8703
▁ఐగుప్తునకు	-8704
▁కుమారులును	-8705
▁గుడారములలో	-8706
▁చేసికొనిరి	-8707
▁చేసికొనెను	-8708
▁దగ్గరనున్న	-8709
▁పంపివేసెను	-8710
▁పట్టణములను	-8711
▁పుచ్చుకొని	-8712
▁పెట్టుకొని	-8713
▁సంతానమునకు	-8714
▁సంపాదించిన	-8715
▁సర్వోన్నతు	-8716
▁స్వప్నమందు	-8717
▁స్వరూపమందు	-8718
▁ಅಂದುಕೊಂಡನು	-8719
▁ಅದುಲ್ಲಾಮ್ಯ	-8720
▁ಅರಣ್ಯದಲ್ಲಿ	-8721
▁ಅರ್ಪಕ್ಷದನು	-8722
▁ಆಜ್ಞಾಪಿಸಿದ	-8723
▁ಆಶೀರ್ವದಿಸು	-8724
▁ಇಷ್ಮಾಯೇಲ್ಯ	-8725
▁ಇಸ್ರಾಯೇಲನು	-8726
▁ಎದುರಿನಲ್ಲಿ	-8727
▁ಎದುರುಗೊಳ್ಳ	-8728
▁ಕುಮಾರರನ್ನೂ	-8729
▁ದಾಸಿಯರನ್ನೂ	-8730
▁ಪ್ರೀತಿಮಾಡಿ	-8731
▁ಮನುಷ್ಯನಿಂದ	-8732
▁ಮಾಡಿಕೊಂಡರು	-8733
▁ವಾಸವಾಗಿದ್ದ	-8734
▁ವಾಸವಾಗಿರುವ	-8735
▁ವಿಶಾಲದಲ್ಲಿ	-8736
▁ಸಂತಾನವನ್ನು	-8737
▁ಸಹೋದರರನ್ನು	-8738
▁ಹುಟ್ಟಿದವಳು	-8739
▁Ishmeelites	-8740
▁countenance	-8741
▁इश्माएलियों	-8742
▁అబీమెలెకును	-8743
▁ఇష్మాయేలును	-8744
▁పీలవెన్నులు	-8745
▁పోయినప్పుడు	-8746
▁ఫిలిష్తీయుల	-8747
▁మూలపురుషుడు	-8748
▁వినినప్పుడు	-8749
▁వ్యాపించెను	-8750
▁సిరియావాడైన	-8751
▁ಅಬ್ರಾಮನನ್ನು	-8752
▁ನಾವೆಯೊಳಗಿಂದ	-8753
▁ಫಿಲಿಷ್ಟಿಯರು	-8754
▁ಮನೆಯಲ್ಲಿದ್ದ	-8755
▁ಹೀಗಿರುವಲ್ಲಿ	-8756
▁ಹೆಂಡತಿಯನ್ನೂ	-8757
▁కాపురముండెను	-8758
▁పేరుపెట్టెను	-8759
▁ప్రకారమాయెను	-8760
▁ప్రత్యక్షమైన	-8761
▁ఫిలిష్తీయులు	-8762
▁ದನಕಾಯುವವರಿಗೂ	-8763
▁ಪೂರ್ವದಿಕ್ಕಿನ	-8764
▁ಬಲಾತ್ಕಾರದಿಂದ	-8765
▁ಮುದುಕನಾಗಿದ್ದ	-8766
▁ಸನ್ನಿಧಿಯಲ್ಲಿ	-8767
▁ఆశీర్వదించెను	-8768
▁తండ్రియొద్దకు	-8769
▁స్వాస్థ్యముగా	-8770
▁ಅಭಿವೃದ್ಧಿಯಾಗಿ	-8771
▁ಒಬ್ಬರಿಗೊಬ್ಬರು	-8772
▁ನಾಶಮಾಡುವದಿಲ್ಲ	-8773
▁ಯಜ್ಞವೇದಿಯನ್ನು	-8774
▁ವಿಭಾಗಿಸಲ್ಪಟ್ಟ	-8775
▁ಹೆಂಡತಿಯಾಗಿದ್ದ	-8776
▁విత్తనములిచ్చు	-8777
▁వెంటబెట్టుకొని	-8778
▁ಕುಮಾರ್ತೆಗಳಲ್ಲಿ	-8779
▁ತಕ್ಕೊಂಡಿದ್ದಾನೆ	-8780
▁ಮಾಡಿದ್ದನ್ನೆಲ್ಲಾ	-8781
).	-8782
OD	-8783
eh	-8784
ey	-8785
fs	-8786
ib	-8787
pl	-8788
ue	-8789
ंआ	-8790
आब	-8791
ईं	-8792
गो	-8793
घट	-8794
चि	-8795
जे	-8796
ढय	-8797
पो	-8798
बी	-8799
मट	-8800
यक	-8801
वन	-8802
षी	-8803
हट	-8804
हत	-8805
है	-8806
हो	-8807
िम	-8808
ून	-8809
ంక	-8810
ంఛ	-8811
కీ	-8812
చన	-8813
జా	-8814
దై	-8815
పై	-8816
ఫా	-8817
బూ	-8818
రీ	-8819
లై	-8820
ీర	-8821
ಂಧ	-8822
ಗೊ	-8823
ಫೋ	-8824
ಲೈ	-8825
ಸನ	-8826
ಹೈ	-8827
ಿಮ	-8828
ೀತ	-8829
ೀಳ	-8830
ೆದ	-8831
ೆಹ	-8832
ೇಟ	-8833
ೋಷ	-8834
▁,	-8835
▁ఘ	-8836
aff	-8837
ail	-8838
ald	-8839
ase	-8840
dim	-8841
dom	-8842
dow	-8843
ees	-8844
han	-8845
hob	-8846
hur	-8847
ift	-8848
ign	-8849
imr	-8850
ims	-8851
int	-8852
iph	-8853
iry	-8854
les	-8855
nes	-8856
now	-8857
oab	-8858
och	-8859
ode	-8860
oub	-8861
ret	-8862
roi	-8863
tan	-8864
uah	-8865
ues	-8866
upt	-8867
wer	-8868
zer	-8869
ंगन	-8870
ंसठ	-8871
करे	-8872
खता	-8873
चित	-8874
झाई	-8875
टने	-8876
तों	-8877
त्थ	-8878
दीम	-8879
देश	-8880
दोन	-8881
नाश	-8882
बाब	-8883
योत	-8884
रने	-8885
रूप	-8886
लाप	-8887
लित	-8888
लोन	-8889
श्य	-8890
ष्ठ	-8891
सेर	-8892
स्द	-8893
िस्	-8894
ेरे	-8895
ैली	-8896
्डी	-8897
्रम	-8898
्रो	-8899
గతా	-8900
గాధ	-8901
గుల	-8902
జ్ఞ	-8903
దిగ	-8904
దీయ	-8905
దువ	-8906
ధీన	-8907
నంత	-8908
నది	-8909
నలు	-8910
నేల	-8911
పత్	-8912
పని	-8913
పరి	-8914
ఫ్త	-8915
మము	-8916
మాన	-8917
మూడ	-8918
యమా	-8919
రోధ	-8920
ర్ల	-8921
లిక	-8922
ల్చ	-8923
వంట	-8924
వతె	-8925
వాడ	-8926
వ్య	-8927
షను	-8928
సరు	-8929
సుక	-8930
ాపి	-8931
ినై	-8932
ీకో	-8933
ూడ్	-8934
ెకు	-8935
ెరు	-8936
ోయి	-8937
్యో	-8938
ಂತು	-8939
ಇದು	-8940
ಕನು	-8941
ಗನೂ	-8942
ಗಾಷ	-8943
ಗೂಷ	-8944
ಗೊಡ	-8945
ಚ್ರ	-8946
ಡಲಿ	-8947
ಡಿದ	-8948
ಣೆಯ	-8949
ತೀರ	-8950
ನಜ್	-8951
ನೇಕ	-8952
ನೇರ	-8953
ನೇಹ	-8954
ಬಲ್	-8955
ಬೂಸ	-8956
ಬ್ದ	-8957
ಮರಿ	-8958
ಮೇಲ	-8959
ಮ್ಯ	-8960
ರನೂ	-8961
ರ್ದ	-8962
ರ್ಶ	-8963
ಳುವ	-8964
ವ್ವ	-8965
ಸಂದ	-8966
ಸ್ರ	-8967
ಹತ್	-8968
ಾಗು	-8969
ಾದೇ	-8970
ಾಧದ	-8971
ಾಯೋ	-8972
ಾವೆ	-8973
ಿಯಾ	-8974
ೆಂಬ	-8975
ೆಕ್	-8976
ೆಗೂ	-8977
ೆಬಾ	-8978
ೆಬೋ	-8979
ೆಯೋ	-8980
ೆರನ	-8981
ೇನೋ	-8982
ೋರನ	-8983
ೌರವ	-8984
್ವತ	-8985
▁Af	-8986
▁As	-8987
▁By	-8988
▁Dr	-8989
▁Er	-8990
▁Ir	-8991
▁Tw	-8992
▁Ur	-8993
▁Uz	-8994
▁ac	-8995
▁ou	-8996
▁qu	-8997
▁te	-8998
▁आश	-8999
▁ऊर	-9000
▁एप	-9001
▁एर	-9002
▁कस	-9003
▁कौ	-9004
▁छत	-9005
▁जू	-9006
▁टि	-9007
▁ढा	-9008
▁तै	-9009
▁धु	-9010
▁नो	-9011
▁पद	-9012
▁बस	-9013
▁बो	-9014
▁मछ	-9015
▁वन	-9016
▁वस	-9017
▁हर	-9018
▁हि	-9019
▁ఓద	-9020
▁కౌ	-9021
▁గత	-9022
▁ధన	-9023
▁ధా	-9024
▁నశ	-9025
▁నో	-9026
▁బడ	-9027
▁బు	-9028
▁యొ	-9029
▁రమ	-9030
▁శీ	-9031
▁షా	-9032
▁సూ	-9033
▁ಅಲ	-9034
▁ಎಡ	-9035
▁ಎಣ	-9036
▁ಏಚ	-9037
▁ಗತ	-9038
▁ಗಾ	-9039
▁ಜಯ	-9040
▁ಧೂ	-9041
▁ನಮ	-9042
▁ಫೀ	-9043
▁ಮೋ	-9044
▁ಯೂ	-9045
▁ಶೆ	-9046
abel	-9047
abit	-9048
aced	-9049
adow	-9050
agin	-9051
alam	-9052
alek	-9053
ally	-9054
ands	-9055
ange	-9056
ants	-9057
aven	-9058
ebaj	-9059
elfs	-9060
epho	-9061
etur	-9062
geon	-9063
host	-9064
iend	-9065
ings	-9066
ious	-9067
ired	-9068
irit	-9069
lour	-9070
nded	-9071
nter	-9072
obab	-9073
obal	-9074
over	-9075
seth	-9076
tern	-9077
ters	-9078
ting	-9079
umed	-9080
vied	-9081
ंगवा	-9082
ंतीस	-9083
च्छा	-9084
जधान	-9085
ज्जा	-9086
ड़की	-9087
तरों	-9088
ताया	-9089
तिनी	-9090
नाढय	-9091
नेगी	-9092
न्नत	-9093
माता	-9094
म्बा	-9095
म्मट	-9096
म्रा	-9097
योजन	-9098
रझाई	-9099
रवाई	-9100
रिया	-9101
रोगा	-9102
र्थी	-9103
र्वश	-9104
लौते	-9105
वन्त	-9106
वाड़	-9107
हिनी	-9108
ामाद	-9109
ूंघट	-9110
ोयीम	-9111
्वास	-9112
ందుక	-9113
కనగా	-9114
చూచి	-9115
చేయక	-9116
చ్చె	-9117
టికీ	-9118
టిగల	-9119
డవైన	-9120
డిరి	-9121
డ్రా	-9122
తకము	-9123
త్రు	-9124
నాకు	-9125
నియు	-9126
నిరి	-9127
నీయు	-9128
పట్ట	-9129
పడిన	-9130
పోగా	-9131
బాలు	-9132
మంచి	-9133
మేమి	-9134
మేము	-9135
యాను	-9136
యోతు	-9137
యోమె	-9138
య్యు	-9139
రోయి	-9140
ర్చి	-9141
లవలె	-9142
లాత్	-9143
లాను	-9144
లికె	-9145
లిని	-9146
లేదా	-9147
లేము	-9148
లోని	-9149
ల్చి	-9150
వంటి	-9151
వాసన	-9152
వియు	-9153
శ్శా	-9154
సుకు	-9155
సెరు	-9156
స్రా	-9157
హాను	-9158
హాయి	-9159
ింపక	-9160
ెలను	-9161
ొకటి	-9162
్యము	-9163
్యాద	-9164
ಂದಿರ	-9165
ಇವನು	-9166
ಕನೆಯ	-9167
ಕೆಯೂ	-9168
ಗೇನು	-9169
ಗ್ರಹ	-9170
ಣೆಯಿ	-9171
ತಿಯು	-9172
ತ್ರು	-9173
ದಾಗಿ	-9174
ದಾನ್	-9175
ನನಗೂ	-9176
ನಾನೇ	-9177
ನಾಲ್	-9178
ನೆಯು	-9179
ನ್ನೇ	-9180
ಪಟ್ಟ	-9181
ಮಗುವ	-9182
ಯಿಮ್	-9183
ರೋಯಿ	-9184
ಲಾರೆ	-9185
ಲೆತನ	-9186
ಳೆಂಬ	-9187
ವರಾಶ	-9188
ವಿದೆ	-9189
ಹೋಬೋ	-9190
ಾಂತರ	-9191
ಾದರೋ	-9192
ಾಮನೇ	-9193
ಿಗಳೂ	-9194
ಿದಳು	-9195
ಿಬ್ಬ	-9196
ಿಯಾಗ	-9197
ಿರಲಿ	-9198
ುವಕರ	-9199
ುಷ್ಯ	-9200
ೂರ್ಣ	-9201
ೆಲಹನ	-9202
▁Dan	-9203
▁GOD	-9204
▁Haz	-9205
▁Hiv	-9206
▁How	-9207
▁Meh	-9208
▁Miz	-9209
▁Per	-9210
▁Ret	-9211
▁Yet	-9212
▁aud	-9213
▁bar	-9214
▁bes	-9215
▁bot	-9216
▁cho	-9217
▁eld	-9218
▁ewe	-9219
▁got	-9220
▁lab	-9221
▁mag	-9222
▁mar	-9223
▁reb	-9224
▁sad	-9225
▁shr	-9226
▁tra	-9227
▁unc	-9228
▁wax	-9229
▁yes	-9230
▁अदु	-9231
▁अमा	-9232
▁अल्	-9233
▁आऊं	-9234
▁आता	-9235
▁आती	-9236
▁आयु	-9237
▁इन्	-9238
▁उगा	-9239
▁उठी	-9240
▁उधर	-9241
▁एश्	-9242
▁कनज	-9243
▁खाए	-9244
▁खुल	-9245
▁खेत	-9246
▁खेल	-9247
▁गले	-9248
▁जाग	-9249
▁जीत	-9250
▁डाह	-9251
▁ढूं	-9252
▁दशा	-9253
▁दाम	-9254
▁दीं	-9255
▁धूल	-9256
▁नबा	-9257
▁नया	-9258
▁निम	-9259
▁फूट	-9260
▁बंट	-9261
▁बनी	-9262
▁बैठ	-9263
▁भरी	-9264
▁यूश	-9265
▁रंग	-9266
▁रूप	-9267
▁लहै	-9268
▁लाभ	-9269
▁लूट	-9270
▁शबा	-9271
▁सच्	-9272
▁सदा	-9273
▁सूत	-9274
▁हाल	-9275
▁అంద	-9276
▁అదు	-9277
▁అమా	-9278
▁ఆరు	-9279
▁ఇవి	-9280
▁ఇవే	-9281
▁ఈరా	-9282
▁ఊజు	-9283
▁ఎష్	-9284
▁ఏటి	-9285
▁ఏరు	-9286
▁కలహ	-9287
▁గంప	-9288
▁గడి	-9289
▁చిం	-9290
▁చేప	-9291
▁జగడ	-9292
▁జనప	-9293
▁టకు	-9294
▁డని	-9295
▁తరి	-9296
▁తీయ	-9297
▁దాహ	-9298
▁దోష	-9299
▁ధను	-9300
▁నను	-9301
▁నిజ	-9302
▁నూర	-9303
▁నైన	-9304
▁పంట	-9305
▁పడమ	-9306
▁పరా	-9307
▁పొగ	-9308
▁పొద	-9309
▁పొల	-9310
▁మరణ	-9311
▁మిం	-9312
▁మెడ	-9313
▁మైన	-9314
▁మోయ	-9315
▁రేణ	-9316
▁లైన	-9317
▁విశ	-9318
▁వీర	-9319
▁వేట	-9320
▁వేర	-9321
▁సమూ	-9322
▁సహా	-9323
▁సెబ	-9324
▁హృద	-9325
▁ಅಂಜ	-9326
▁ಅಗೋ	-9327
▁ಅಲ್	-9328
▁ಆತ್	-9329
▁ಆಲೈ	-9330
▁ಇವೆ	-9331
▁ಇಸ್	-9332
▁ಈಡು	-9333
▁ಊರ್	-9334
▁ಎಳೇ	-9335
▁ಏನೂ	-9336
▁ಕಳೆ	-9337
▁ಕಿರ	-9338
▁ಕೂಗ	-9339
▁ಕೊರ	-9340
▁ಗಾಳ	-9341
▁ಘೋರ	-9342
▁ಜೊತ	-9343
▁ತೊಳ	-9344
▁ದೇಹ	-9345
▁ನಡೆ	-9346
▁ನೆಬ	-9347
▁ಬಳಿ	-9348
▁ಬಿಡ	-9349
▁ಬೆಲ	-9350
▁ಮಂಜ	-9351
▁ಮೂವ	-9352
▁ಮೇಕ	-9353
▁ಮೋಸ	-9354
▁ಯೋಬ	-9355
▁ರಾಜ	-9356
▁ಲಹೈ	-9357
▁ಲ್ಲ	-9358
▁ವಾಲ	-9359
▁ಶಾಶ	-9360
▁ಶೋಬ	-9361
▁ಸಂಧ	-9362
▁ಸಕಲ	-9363
▁ಸರಿ	-9364
▁ಸೇತ	-9365
▁ಹೋತ	-9366
aamah	-9367
alley	-9368
amite	-9369
asted	-9370
atter	-9371
ichol	-9372
ighty	-9373
illah	-9374
ingpl	-9375
lours	-9376
onger	-9377
ordan	-9378
pised	-9379
ually	-9380
क्तान	-9381
जधानी	-9382
जन्तु	-9383
डूंगा	-9384
द्दीम	-9385
न्दूर	-9386
मवासी	-9387
शियों	-9388
ందురు	-9389
ందెను	-9390
ఆమెను	-9391
ఇక్కడ	-9392
కయీను	-9393
కరమైన	-9394
గతాళి	-9395
గాకని	-9396
గాడిద	-9397
గించి	-9398
చారము	-9399
చిత్ర	-9400
చెప్ప	-9401
టియైన	-9402
ట్టలు	-9403
డంతలు	-9404
డనియు	-9405
ణించి	-9406
తునకు	-9407
తేలను	-9408
దనియు	-9409
దీయుల	-9410
దుమని	-9411
నముగా	-9412
నుండు	-9413
పట్టి	-9414
ప్పడు	-9415
మంతటి	-9416
మానము	-9417
మార్త	-9418
మీదను	-9419
యైనను	-9420
రాలైన	-9421
ర్షము	-9422
లిగిన	-9423
లిచేత	-9424
లేనంత	-9425
వరనగా	-9426
వలెనో	-9427
వాడగు	-9428
వాత్మ	-9429
విధము	-9430
వునని	-9431
వేసిన	-9432
శిక్ష	-9433
ించుట	-9434
ీయుని	-9435
ూడ్చి	-9436
ూర్తి	-9437
ెదాను	-9438
ెనుగు	-9439
ోబాబు	-9440
ోబాలు	-9441
ోసెను	-9442
్తాను	-9443
ಂತೆಯೂ	-9444
ಅಬ್ರಹ	-9445
ಇಲ್ಲಿ	-9446
ಕೋಲನೂ	-9447
ಗಳಿಗೂ	-9448
ಜೀಯರೂ	-9449
ಡುವದು	-9450
ದನಿಂದ	-9451
ದಾದರೆ	-9452
ದ್ದವು	-9453
ನಾಗುವ	-9454
ನಿಯಾದ	-9455
ನೆಂದೂ	-9456
ನೇಹಿತ	-9457
ನ್ನಲು	-9458
ಬಾರದೆ	-9459
ಬಿಡುವ	-9460
ಯ್ಯುವ	-9461
ರಷ್ಟು	-9462
ರುವಾಗ	-9463
ರ್ಗಾಷ	-9464
ಲಾರದೆ	-9465
ವಂದರೆ	-9466
ವರಾಗಿ	-9467
ವೃಕ್ಷ	-9468
ವೆಂದೂ	-9469
ಶ್ವಾಸ	-9470
ಾನುಗಳ	-9471
ಿಚ್ಚು	-9472
ಿರಮಾಡ	-9473
ಿಲ್ಲದ	-9474
ಿಸಬಹು	-9475
ೇಕಳುಹ	-9476
ೇಳನೆಯ	-9477
್ಯನಾದ	-9478
▁Aram	-9479
▁Cush	-9480
▁Elam	-9481
▁Ezer	-9482
▁Hear	-9483
▁Moab	-9484
▁Onan	-9485
▁Shur	-9486
▁Wilt	-9487
▁With	-9488
▁Zebo	-9489
▁able	-9490
▁conf	-9491
▁corn	-9492
▁corr	-9493
▁fire	-9494
▁fish	-9495
▁fulf	-9496
▁furn	-9497
▁hold	-9498
▁kept	-9499
▁long	-9500
▁love	-9501
▁mock	-9502
▁neck	-9503
▁ours	-9504
▁pers	-9505
▁port	-9506
▁pott	-9507
▁rent	-9508
▁scar	-9509
▁sear	-9510
▁seas	-9511
▁seem	-9512
▁shut	-9513
▁sign	-9514
▁sort	-9515
▁suff	-9516
▁tong	-9517
▁vail	-9518
▁vine	-9519
▁viol	-9520
▁wand	-9521
▁wash	-9522
▁west	-9523
▁अदमा	-9524
▁अन्त	-9525
▁अस्त	-9526
▁आएगा	-9527
▁इतना	-9528
▁उदास	-9529
▁एमोर	-9530
▁एलाम	-9531
▁एसेर	-9532
▁ओनान	-9533
▁कंगन	-9534
▁कस्द	-9535
▁कहते	-9536
▁काली	-9537
▁कुंआ	-9538
▁गाड़	-9539
▁घटने	-9540
▁छिपा	-9541
▁छूछी	-9542
▁छोटा	-9543
▁जाती	-9544
▁जीता	-9545
▁जेठे	-9546
▁ठहरी	-9547
▁थैली	-9548
▁ददान	-9549
▁देना	-9550
▁नंगे	-9551
▁नत्थ	-9552
▁नारी	-9553
▁पड़ी	-9554
▁पांव	-9555
▁पाहु	-9556
▁पिया	-9557
▁पूरे	-9558
▁फुला	-9559
▁बकरे	-9560
▁बदले	-9561
▁बरसा	-9562
▁बांझ	-9563
▁बाईं	-9564
▁बालक	-9565
▁बीती	-9566
▁भारी	-9567
▁भेजा	-9568
▁मण्ड	-9569
▁मामा	-9570
▁मूर्	-9571
▁मोआब	-9572
▁रूचि	-9573
▁लगाई	-9574
▁लिपट	-9575
▁लुढ़	-9576
▁लेखे	-9577
▁विवा	-9578
▁वीणा	-9579
▁व्या	-9580
▁संगी	-9581
▁समझा	-9582
▁सुधि	-9583
▁అంగల	-9584
▁అడుగ	-9585
▁అనబడ	-9586
▁అసూయ	-9587
▁ఆరంభ	-9588
▁ఇంటి	-9589
▁ఇతడు	-9590
▁ఊరను	-9591
▁ఒకని	-9592
▁ఓడను	-9593
▁కతడు	-9594
▁కనజు	-9595
▁కలలో	-9596
▁కాగా	-9597
▁కాదే	-9598
▁కాపా	-9599
▁కీడు	-9600
▁కోడల	-9601
▁చాపి	-9602
▁చింద	-9603
▁చెరి	-9604
▁చేది	-9605
▁చేరు	-9606
▁చేర్	-9607
▁చేసె	-9608
▁జనుల	-9609
▁జీతమ	-9610
▁జ్యో	-9611
▁డును	-9612
▁తడవు	-9613
▁తాము	-9614
▁దాను	-9615
▁దేరి	-9616
▁నడుమ	-9617
▁నాకె	-9618
▁నానా	-9619
▁నిండ	-9620
▁నింద	-9621
▁నితో	-9622
▁నివా	-9623
▁నీనె	-9624
▁నూనె	-9625
▁నేమి	-9626
▁నేమో	-9627
▁పండ్	-9628
▁పాలు	-9629
▁పావు	-9630
▁పుష్	-9631
▁పెరి	-9632
▁పైకె	-9633
▁పోగా	-9634
▁పోని	-9635
▁పోయె	-9636
▁ఫీకో	-9637
▁బడిన	-9638
▁బలము	-9639
▁భాషల	-9640
▁భూలో	-9641
▁మంతు	-9642
▁మంది	-9643
▁మనకు	-9644
▁మాంస	-9645
▁మారు	-9646
▁యర్ప	-9647
▁యిదే	-9648
▁యూషు	-9649
▁యొర్	-9650
▁రండి	-9651
▁రింప	-9652
▁రును	-9653
▁లేరు	-9654
▁వర్త	-9655
▁వాంఛ	-9656
▁వైపు	-9657
▁వ్రే	-9658
▁శరీర	-9659
▁శ్రమ	-9660
▁శ్రే	-9661
▁షూరు	-9662
▁షేలా	-9663
▁సమాధ	-9664
▁సాగన	-9665
▁సుమీ	-9666
▁స్నే	-9667
▁హృదయ	-9668
▁ಅಂಗಿ	-9669
▁ಅಗಿದ	-9670
▁ಅನೇಕ	-9671
▁ಅನ್ಯ	-9672
▁ಅಮಾಲ	-9673
▁ಅಳಿಯ	-9674
▁ಆದಾಳ	-9675
▁ಆನೇರ	-9676
▁ಆರಂಭ	-9677
▁ಆಳುವ	-9678
▁ಉಳಿದ	-9679
▁ಎಂದೂ	-9680
▁ಒಣಗಿ	-9681
▁ಕಲ್ದ	-9682
▁ಕಳ್ಳ	-9683
▁ಕಾದೇ	-9684
▁ಕಾರಣ	-9685
▁ಕಿವಿ	-9686
▁ಕುಮಾ	-9687
▁ಕೈಗಳ	-9688
▁ಕೊಂದ	-9689
▁ಕೊಂಬ	-9690
▁ಗಟ್ಟ	-9691
▁ಗೋಪು	-9692
▁ಗೌರವ	-9693
▁ಚೆಬೋ	-9694
▁ಜಲವು	-9695
▁ಜೀವಿ	-9696
▁ತಾನೇ	-9697
▁ತಾವು	-9698
▁ದನಗಳ	-9699
▁ದಾಸನ	-9700
▁ನಫ್ತ	-9701
▁ನಾಚಿ	-9702
▁ನೀನೇ	-9703
▁ನೂರು	-9704
▁ನೂರೈ	-9705
▁ನೂಲು	-9706
▁ಪರಲೋ	-9707
▁ಪೆರಿ	-9708
▁ಬಂತು	-9709
▁ಬಲ್ಲ	-9710
▁ಬೆಂಕ	-9711
▁ಬೇಟೆ	-9712
▁ಬೇಸರ	-9713
▁ಬೊಗ್	-9714
▁ಭಯವು	-9715
▁ಮಗಳೂ	-9716
▁ಮದುವ	-9717
▁ಮರಗಳ	-9718
▁ಮೇಲ್	-9719
▁ಮೊಲೆ	-9720
▁ಯಳಾಮ	-9721
▁ಯಿಂದ	-9722
▁ರಿಂದ	-9723
▁ಲಾಬಾ	-9724
▁ಶಬ್ದ	-9725
▁ಸತ್ಯ	-9726
▁ಸೊದೋ	-9727
▁ಹಕ್ಕ	-9728
▁ಹಾಳು	-9729
▁ಹಿಡು	-9730
▁ಹೇಗೆ	-9731
▁ಹೊಗೆ	-9732
▁ಹೊರಡ	-9733
▁ಹೋಲಿ	-9734
aldees	-9735
forted	-9736
hoboth	-9737
keness	-9738
reated	-9739
served	-9740
नेहारा	-9741
िस्तान	-9742
ంటినని	-9743
గుదువు	-9744
గొట్టు	-9745
చోటికి	-9746
చ్చిరి	-9747
త్తరమి	-9748
దిక్కు	-9749
నియెడల	-9750
పరచెను	-9751
పోవుదు	-9752
మగునని	-9753
యననీవు	-9754
లయొక్క	-9755
లాడదీయ	-9756
ళ్లును	-9757
వెళ్లి	-9758
ారమును	-9759
ింపబడి	-9760
ినందున	-9761
ృద్ధిప	-9762
ైయున్న	-9763
ಕೊಂಡಾಗ	-9764
ಗಲಿಲ್ಲ	-9765
ಡುವಂತೆ	-9766
ಡುವೆನು	-9767
ತ್ತೇಳು	-9768
ದರಲ್ಲಿ	-9769
ದಲ್ಲವೋ	-9770
ದಿಂದಲೂ	-9771
ದೆಲ್ಲಾ	-9772
ನಿಗಾಗಿ	-9773
ಪಟ್ಟನು	-9774
ಪದಲ್ಲಿ	-9775
ರಲಿಲ್ಲ	-9776
ರಿಗಿಂತ	-9777
ರೆಲ್ಲರ	-9778
ಲಾರೆನು	-9779
ಲಾರೆವು	-9780
ಲ್ಲಿಯೇ	-9781
ವನಾದನು	-9782
ಸಾರವಾದ	-9783
ಾಗಿರಲಿ	-9784
ಾನಲ್ಲಾ	-9785
ಾನೆಂದು	-9786
ಾರಾನಿನ	-9787
ಿಯಲ್ಲಾ	-9788
ಿರುವದು	-9789
ಿರುವಾಗ	-9790
ೆನೆಂದು	-9791
▁Admah	-9792
▁Adull	-9793
▁After	-9794
▁Dedan	-9795
▁Drink	-9796
▁Every	-9797
▁Jeush	-9798
▁Jobab	-9799
▁Kenaz	-9800
▁Napht	-9801
▁Nebaj	-9802
▁Sheba	-9803
▁Shuah	-9804
▁Tubal	-9805
▁Whose	-9806
▁Zerah	-9807
▁abide	-9808
▁birds	-9809
▁break	-9810
▁clear	-9811
▁cloth	-9812
▁doest	-9813
▁drank	-9814
▁dried	-9815
▁empty	-9816
▁faces	-9817
▁ghost	-9818
▁going	-9819
▁grave	-9820
▁green	-9821
▁hairy	-9822
▁known	-9823
▁leave	-9824
▁mercy	-9825
▁ought	-9826
▁power	-9827
▁restr	-9828
▁seest	-9829
▁selfs	-9830
▁smite	-9831
▁staff	-9832
▁stand	-9833
▁tarry	-9834
▁tenth	-9835
▁tower	-9836
▁trees	-9837
▁while	-9838
▁widow	-9839
▁worth	-9840
▁अच्छे	-9841
▁अन्दर	-9842
▁अवश्य	-9843
▁आंखें	-9844
▁आएंगे	-9845
▁इच्छा	-9846
▁उतरकर	-9847
▁कटोरा	-9848
▁कादेश	-9849
▁कुरूप	-9850
▁खोलकर	-9851
▁गिरके	-9852
▁घूंघट	-9853
▁चाहते	-9854
▁छोड़ा	-9855
▁जनेगी	-9856
▁जिसके	-9857
▁थोड़ा	-9858
▁थोड़े	-9859
▁दरोगा	-9860
▁दामाद	-9861
▁दीशान	-9862
▁देंगे	-9863
▁देशों	-9864
▁धनाढय	-9865
▁नतिनी	-9866
▁पड़ता	-9867
▁पीकोल	-9868
▁पीड़ा	-9869
▁पैंसठ	-9870
▁प्रलय	-9871
▁बकरों	-9872
▁बीतने	-9873
▁भेजकर	-9874
▁मन्नत	-9875
▁मानकर	-9876
▁मानता	-9877
▁यालाम	-9878
▁युद्ध	-9879
▁योबाब	-9880
▁रहोबो	-9881
▁लगाया	-9882
▁लेंगे	-9883
▁विधवा	-9884
▁शिकार	-9885
▁शोबाल	-9886
▁सकेगा	-9887
▁सन्ती	-9888
▁सर्वश	-9889
▁सिबोन	-9890
▁हड्डी	-9891
▁అంతటి	-9892
▁అంతయు	-9893
▁అంతలో	-9894
▁అందరి	-9895
▁అతడిం	-9896
▁అదిగో	-9897
▁అద్మా	-9898
▁అల్లు	-9899
▁ఆకాశప	-9900
▁ఉపపత్	-9901
▁ఏలాము	-9902
▁ఏలోను	-9903
▁ఏసెరు	-9904
▁ఒక్కడ	-9905
▁ఓనాను	-9906
▁కడుగు	-9907
▁కనికర	-9908
▁కనును	-9909
▁కలలను	-9910
▁కానుక	-9911
▁కావున	-9912
▁కిర్య	-9913
▁కుదువ	-9914
▁కురిప	-9915
▁కొనని	-9916
▁కొనిన	-9917
▁కొరకు	-9918
▁క్రిం	-9919
▁గడ్డి	-9920
▁గుహలో	-9921
▁గైకొన	-9922
▁చిత్త	-9923
▁చువ్వ	-9924
▁చేతిక	-9925
▁చేయబడ	-9926
▁చేయరా	-9927
▁జలముల	-9928
▁జీతము	-9929
▁తగ్గి	-9930
▁తలమీద	-9931
▁తెప్ప	-9932
▁దంతయు	-9933
▁దాసుల	-9934
▁దిగంబ	-9935
▁నడుచు	-9936
▁నవ్వు	-9937
▁నాచేత	-9938
▁నిండి	-9939
▁నిలిప	-9940
▁నివాస	-9941
▁పట్టు	-9942
▁పిండి	-9943
▁పెంటి	-9944
▁పొర్ల	-9945
▁ప్రాణ	-9946
▁బలాత్	-9947
▁భుజము	-9948
▁మందకు	-9949
▁మందలో	-9950
▁మునకు	-9951
▁మొరను	-9952
▁యెవతె	-9953
▁రాజసం	-9954
▁రాత్ర	-9955
▁లహాయి	-9956
▁విన్న	-9957
▁విరోధ	-9958
▁వెళ్ళ	-9959
▁సర్వశ	-9960
▁సిద్ద	-9961
▁సెలవి	-9962
▁హవీలా	-9963
▁హివ్వ	-9964
▁హెబ్ర	-9965
▁ಅಗಾಧದ	-9966
▁ಅನಾಹನ	-9967
▁ಅನಾಹಳ	-9968
▁ಅರಸನು	-9969
▁ಆರನೆಯ	-9970
▁ಇಲ್ಲಿ	-9971
▁ಈಕೆಯು	-9972
▁ಐನೂರು	-9973
▁ಒಡೆಯನ	-9974
▁ಕಂಡನು	-9975
▁ಕಡಿಮೆ	-9976
▁ಕತ್ತರ	-9977
▁ಕೆಂಪು	-9978
▁ಕೆನಜ್	-9979
▁ಕೆಲವು	-9980
▁ಕೈಗಳು	-9981
▁ಕೋಪವು	-9982
▁ಕ್ಷೇಮ	-9983
▁ಗಂಡನು	-9984
▁ಗವಿಯೂ	-9985
▁ಗಿದ್ದ	-9986
▁ಗೆರಾರ	-9987
▁ಜಾತ್ಯ	-9988
▁ತಿತ್ತ	-9989
▁ತುಂಡು	-9990
▁ತುಂಬಾ	-9991
▁ತೂಬಲ್	-9992
▁ತೆರೆಯ	-9993
▁ದಹನಬಲ	-9994
▁ನಡುವೆ	-9995
▁ನನ್ನೂ	-9996
▁ನಾದನು	-9997
▁ನಾನೂರ	-9998
▁ನಿಮಗೂ	-9999
▁ಪಟ್ಟು	-10000
▁ಪೂರ್ಣ	-10001
▁ಪೂರ್ತ	-10002
▁ಬಂಜೆಯ	-10003
▁ಬತ್ತಿ	-10004
▁ಬಿತ್ತ	-10005
▁ಭೂಲೋಕ	-10006
▁ಮಾಡಲಿ	-10007
▁ಮಾಡೋಣ	-10008
▁ಮುಖವು	-10009
▁ಯುವಕರ	-10010
▁ಯೆಗೂಷ	-10011
▁ಯೆಬೂಸ	-10012
▁ಯೊಕ್ತ	-10013
▁ಯೊರ್ದ	-10014
▁ರುವದು	-10015
▁ವನ್ನೂ	-10016
▁ವೆಂದು	-10017
▁ವ್ಯಸನ	-10018
▁ಸಾಕ್ಷ	-10019
▁ಸಿವುಡ	-10020
▁ಸೂಳೆಯ	-10021
▁ಸೇತನು	-10022
▁ಸ್ತುತ	-10023
▁ಸ್ವಂತ	-10024
▁ಸ್ವಪ್	-10025
▁ಸ್ವರವ	-10026
▁ಹಾಸ್ಯ	-10027
▁ಹಿವ್ವ	-10028
▁ಹೊಡೆದ	-10029
▁ಹೊಯ್ದ	-10030
▁ಹೊರತು	-10031
▁ಹೊಲವೂ	-10032
▁ಹೋಗಲಿ	-10033
▁ಹೋದವು	-10034
▁ಹೋದಾಗ	-10035
izzites	-10036
क्तिमान	-10037
ज्जियों	-10038
కారముగా	-10039
కొంటిని	-10040
చొప్పున	-10041
తిననెను	-10042
దినములు	-10043
నియొద్ద	-10044
పిల్లను	-10045
పొమ్మని	-10046
మందున్న	-10047
మట్టుకు	-10048
యుదునని	-10049
యేలీయుల	-10050
వృక్షపు	-10051
సీయులను	-10052
ించుటకు	-10053
ృద్ధిగా	-10054
ಇದಲ್ಲದೆ	-10055
ಕೊಂಡೆನು	-10056
ದಲ್ಲಿಯೇ	-10057
ಬಿಟ್ಟರು	-10058
ಮಾಡಿದಳು	-10059
ಮಾಡಿದಾಗ	-10060
ಮಾಡಿದ್ದ	-10061
ರಾಗಿದ್ದ	-10062
ವರೆಲ್ಲಾ	-10063
ವುಗಳಾಗಿ	-10064
ಾಗುವಂತೆ	-10065
ಿಕೊಂಡರು	-10066
ಿದ್ದೀಮ್	-10067
ುವದನ್ನು	-10068
▁Amalek	-10069
▁Asshur	-10070
▁Dishan	-10071
▁Hivite	-10072
▁Jaalam	-10073
▁Joktan	-10074
▁Jordan	-10075
▁Kadesh	-10076
▁Return	-10077
▁Shobal	-10078
▁Siddim	-10079
▁Zillah	-10080
▁abated	-10081
▁accept	-10082
▁barren	-10083
▁bottle	-10084
▁broken	-10085
▁camest	-10086
▁caused	-10087
▁comest	-10088
▁divide	-10089
▁dreams	-10090
▁eighty	-10091
▁eldest	-10092
▁envied	-10093
▁favour	-10094
▁formed	-10095
▁fourth	-10096
▁friend	-10097
▁hasted	-10098
▁hunter	-10099
▁images	-10100
▁imagin	-10101
▁joined	-10102
▁labour	-10103
▁lights	-10104
▁moveth	-10105
▁number	-10106
▁obeyed	-10107
▁pledge	-10108
▁poured	-10109
▁prince	-10110
▁rested	-10111
▁sorrow	-10112
▁speech	-10113
▁stayed	-10114
▁stones	-10115
▁strove	-10116
▁surety	-10117
▁tender	-10118
▁though	-10119
▁thread	-10120
▁valley	-10121
▁walked	-10122
▁उपद्रव	-10123
▁एकलौते	-10124
▁किरिया	-10125
▁किवाड़	-10126
▁खिड़की	-10127
▁गुम्मट	-10128
▁टटोलकर	-10129
▁दूदाफल	-10130
▁नबायोत	-10131
▁निकाली	-10132
▁निर्बल	-10133
▁निवासी	-10134
▁पहुंचे	-10135
▁पितरों	-10136
▁पुरवाई	-10137
▁बलवन्त	-10138
▁भाषाओं	-10139
▁मित्रा	-10140
▁मुरझाई	-10141
▁लहैरोई	-10142
▁सच्चाई	-10143
▁सबोयीम	-10144
▁सिल्ला	-10145
▁అడిగిన	-10146
▁అతడునీ	-10147
▁అన్నకు	-10148
▁అప్పడు	-10149
▁ఆకాశము	-10150
▁ఆమెవలన	-10151
▁ఆలాగున	-10152
▁ఆవులను	-10153
▁ఇంటికి	-10154
▁ఇంటిలో	-10155
▁ఉండును	-10156
▁ఎగతాళి	-10157
▁కంటిని	-10158
▁కంటిమి	-10159
▁కట్టిన	-10160
▁కాలమున	-10161
▁కాళ్లు	-10162
▁కొట్టి	-10163
▁గిలాదు	-10164
▁గొడ్రా	-10165
▁చంపెను	-10166
▁చచ్చెద	-10167
▁చుట్టు	-10168
▁చువ్వల	-10169
▁చేయుచు	-10170
▁చేరెను	-10171
▁చేసిరో	-10172
▁జనులలో	-10173
▁తిత్తి	-10174
▁తెమ్ము	-10175
▁తెలుపు	-10176
▁తేమాను	-10177
▁త్రాగి	-10178
▁దహనబలి	-10179
▁దానితో	-10180
▁దాసిని	-10181
▁దీషాను	-10182
▁దేవుడే	-10183
▁దేశమున	-10184
▁దొంగిల	-10185
▁నరులతో	-10186
▁నాకంటె	-10187
▁నాకేమి	-10188
▁నామమున	-10189
▁నాలుగవ	-10190
▁నిలువు	-10191
▁నుండగా	-10192
▁పరవాసి	-10193
▁పలుకగా	-10194
▁పిల్లల	-10195
▁పూడ్చి	-10196
▁పెనుగు	-10197
▁పెలెగు	-10198
▁పొందిన	-10199
▁పోలికె	-10200
▁ప్రక్క	-10201
▁బట్టలు	-10202
▁బ్రదుక	-10203
▁భయపడిన	-10204
▁మానుని	-10205
▁మాయెను	-10206
▁ముక్కు	-10207
▁ముసుకు	-10208
▁యెరెదు	-10209
▁యోబాబు	-10210
▁రాతిని	-10211
▁లేయాను	-10212
▁వర్షము	-10213
▁వాటిలో	-10214
▁వారును	-10215
▁వినబడు	-10216
▁వినుడి	-10217
▁వెన్ను	-10218
▁వేసిరి	-10219
▁శారాకు	-10220
▁శోబాలు	-10221
▁షేమును	-10222
▁సిల్లా	-10223
▁సువాసన	-10224
▁ಅಗಿದಾಗ	-10225
▁ಅಡಿಗೆಯ	-10226
▁ಅನ್ನಲು	-10227
▁ಆಗಿರುವ	-10228
▁ಆಗುವದು	-10229
▁ಇಬ್ರಿಯ	-10230
▁ಇರುತ್ತ	-10231
▁ಇಲ್ಲವೋ	-10232
▁ಎಷ್ಕೋಲ	-10233
▁ಕುಡಿದು	-10234
▁ಕೇಳಿರಿ	-10235
▁ಕೈಚಾಚಿ	-10236
▁ಗಳನ್ನು	-10237
▁ಗೊಮೋರದ	-10238
▁ಚಿಲ್ಲಾ	-10239
▁ಜನರಿಗೆ	-10240
▁ಜೀವರಾಶ	-10241
▁ತಾಯಿಯು	-10242
▁ತೇಮಾನ್	-10243
▁ದಿಂದಲೂ	-10244
▁ದೀಶೋನ್	-10245
▁ದೊರಕಲಿ	-10246
▁ದೊರೆತನ	-10247
▁ನನಗೇನು	-10248
▁ನಿದ್ರೆ	-10249
▁ನೆಬಾಯೋ	-10250
▁ಪಶ್ಚಿಮ	-10251
▁ಪ್ರದೇಶ	-10252
▁ಪ್ರಭುವ	-10253
▁ಬದುಕಿದ	-10254
▁ಬದುಕುವ	-10255
▁ಬಾವಿಗೆ	-10256
▁ಬಿಲ್ಹಳ	-10257
▁ಬುಗ್ಗೆ	-10258
▁ಭಾಷೆಗಳ	-10259
▁ಮಾಂಸವೂ	-10260
▁ಮುಟ್ಟಿ	-10261
▁ಮುದುಕನ	-10262
▁ಯೆಹೂದನ	-10263
▁ರೆಹೋಬೋ	-10264
▁ಲ್ಪಟ್ಟ	-10265
▁ವಿಗ್ರಹ	-10266
▁ವಿಧವಾದ	-10267
▁ವಿಧವೆಯ	-10268
▁ಶಪಿಸುವ	-10269
▁ಶಾಶ್ವತ	-10270
▁ಶೆಕೆಮನ	-10271
▁ಶೆಕೆಲ್	-10272
▁ಸತ್ತಳು	-10273
▁ಸಮೃದ್ಧ	-10274
▁ಸೇಯಾರ್	-10275
▁ಸ್ಥಳವು	-10276
▁ಹಣ್ಣಿನ	-10277
▁ಹನೋಕನು	-10278
▁ಹುಟ್ಟಿ	-10279
▁ಹೂಣಿಡು	-10280
▁ಹೋಯಿತು	-10281
ingplace	-10282
ternight	-10283
ందుననెను	-10284
చిత్రమైన	-10285
దృష్టికి	-10286
న్నిటిని	-10287
లుగెత్తి	-10288
వానికిని	-10289
ించినీవు	-10290
ించుకొను	-10291
ದನ್ನಾಗಲಿ	-10292
ದಾಗಿತ್ತು	-10293
ನನ್ನನ್ನು	-10294
ಬಾರದೆಂದು	-10295
ಮಾಡಿದ್ದು	-10296
ಮಾಡುವೆನು	-10297
ವಾಗಿತ್ತು	-10298
ಹೋಗಿತ್ತು	-10299
ಾಗಿದ್ದಳು	-10300
ಿಸುವದಕ್ಕ	-10301
ೊಳಗಿನಿಂದ	-10302
▁Blessed	-10303
▁Horites	-10304
▁Phichol	-10305
▁Timnath	-10306
▁blasted	-10307
▁changed	-10308
▁charged	-10309
▁colours	-10310
▁consent	-10311
▁corrupt	-10312
▁counted	-10313
▁greater	-10314
▁heavens	-10315
▁inhabit	-10316
▁laughed	-10317
▁offered	-10318
▁planted	-10319
▁pleased	-10320
▁portion	-10321
▁pottage	-10322
▁pressed	-10323
▁princes	-10324
▁receive	-10325
▁restore	-10326
▁shekels	-10327
▁stopped	-10328
▁tarried	-10329
▁thought	-10330
▁touched	-10331
▁अदुल्ला	-10332
▁क्योंकर	-10333
▁टुकड़ों	-10334
▁डालेंगे	-10335
▁तिम्नाथ	-10336
▁देखेंगे	-10337
▁देवदासी	-10338
▁निरन्तर	-10339
▁पहुंचकर	-10340
▁प्रयोजन	-10341
▁प्रसन्न	-10342
▁बीजवाले	-10343
▁ब्याहकर	-10344
▁मछलियों	-10345
▁मूर्खता	-10346
▁योक्तान	-10347
▁राजधानी	-10348
▁व्यवहार	-10349
▁सामर्थी	-10350
▁सिद्दीम	-10351
▁सिन्दूर	-10352
▁सेनापति	-10353
▁हाकिमों	-10354
▁అంతస్థు	-10355
▁అదుల్లా	-10356
▁అనుగ్రహ	-10357
▁ఆరువందల	-10358
▁ఆస్తిని	-10359
▁ఏబెరును	-10360
▁కట్టెలు	-10361
▁కనానుకు	-10362
▁కనుగొని	-10363
▁కన్నులు	-10364
▁కలిగెను	-10365
▁కానుకను	-10366
▁కావలసిన	-10367
▁కొట్టిన	-10368
▁గతించిన	-10369
▁గాడిదలు	-10370
▁గాలిచేత	-10371
▁గుడారపు	-10372
▁గూర్చిన	-10373
▁గొడ్లను	-10374
▁గొఱ్ఱలు	-10375
▁చారలుగల	-10376
▁చేతులను	-10377
▁చేసికొన	-10378
▁చేసెదను	-10379
▁జనములకు	-10380
▁జీవముగల	-10381
▁జీవాత్మ	-10382
▁తరములలో	-10383
▁తిందువు	-10384
▁తెమ్మని	-10385
▁తెలిపిన	-10386
▁త్రోవను	-10387
▁దానిమీద	-10388
▁దాసీలను	-10389
▁దినమందు	-10390
▁దేశమును	-10391
▁ద్వారము	-10392
▁ధనుస్సు	-10393
▁నందరిని	-10394
▁నడిగెను	-10395
▁నాకొరకు	-10396
▁నుంచెను	-10397
▁నుండును	-10398
▁నోవహుతో	-10399
▁న్యాయము	-10400
▁పొందిరి	-10401
▁పొందెను	-10402
▁పొలమును	-10403
▁ఫలములను	-10404
▁బేతేలను	-10405
▁మట్టుకు	-10406
▁మమ్మును	-10407
▁మహలలేలు	-10408
▁మీతోకూడ	-10409
▁ముఖములు	-10410
▁మెతూషెల	-10411
▁మేఘములో	-10412
▁యిద్దరి	-10413
▁యిరువది	-10414
▁యుండుము	-10415
▁రాజులను	-10416
▁లందరును	-10417
▁లన్నియు	-10418
▁లోపలికి	-10419
▁వచ్చుచు	-10420
▁వచ్చును	-10421
▁వీరందరు	-10422
▁వృక్షము	-10423
▁శయనించి	-10424
▁శయనించు	-10425
▁షేలహును	-10426
▁సంతానపు	-10427
▁సంవత్సర	-10428
▁హనోకును	-10429
▁హమోరును	-10430
▁హోరీయుల	-10431
▁ಅಡ್ಡಬೀಳ	-10432
▁ಅಧಿಪತಿಯ	-10433
▁ಅರಾಮಿಗೆ	-10434
▁ಅರಿಯೆನು	-10435
▁ಅವನನ್ನೂ	-10436
▁ಆತನನ್ನು	-10437
▁ಇದ್ದಾಳೆ	-10438
▁ಇನ್ನೂರು	-10439
▁ಎರಡೆರಡು	-10440
▁ಎಲ್ಲಿಗೆ	-10441
▁ಏರಿಬಂದು	-10442
▁ಒಂಟೆಗಳೂ	-10443
▁ಒಪ್ಪಿಸಿ	-10444
▁ಒಳ್ಳೇದರ	-10445
▁ಕರೇಕಳುಹ	-10446
▁ಕಾನಾನನು	-10447
▁ಕೀಲನ್ನು	-10448
▁ಕುರಿಮರಿ	-10449
▁ಕೂಡಿದನು	-10450
▁ಕೊಡುವದು	-10451
▁ಕೊಯ್ಯುವ	-10452
▁ಗಿರ್ಗಾಷ	-10453
▁ತಾಯಿಯಾದ	-10454
▁ತಿಮ್ನಾತ	-10455
▁ತಿಳಿದದೆ	-10456
▁ತೆರೆದನು	-10457
▁ದಾಸನಿಗೆ	-10458
▁ದೊರೆತವು	-10459
▁ನೋಹನಿಂದ	-10460
▁ಫೀಕೋಲನೂ	-10461
▁ಬಂದಿದ್ದ	-10462
▁ಬನ್ನಿರಿ	-10463
▁ಬಲಿಪೀಠದ	-10464
▁ಬಾಸೆಮತಳ	-10465
▁ಬಿಲ್ಹಳು	-10466
▁ಬೇತೇಲಿನ	-10467
▁ಭಯಪಟ್ಟು	-10468
▁ಮಮ್ರೆಗೆ	-10469
▁ಮರವನ್ನೂ	-10470
▁ಮಾಡಿದರು	-10471
▁ಮಾಡಿದರೆ	-10472
▁ಮಾಡುವಾಗ	-10473
▁ಮಾರಿದನು	-10474
▁ಮುಂದಾಗಿ	-10475
▁ಮುಗಿಸಿದ	-10476
▁ಮೇಯಿಸುವ	-10477
▁ರೇಖೆಗಳು	-10478
▁ಲಹೈರೋಯಿ	-10479
▁ಲೋಟನಿಗೆ	-10480
▁ವಿಾನುಗಳ	-10481
▁ಸಂಪೂರ್ಣ	-10482
▁ಸಾಕಷ್ಟು	-10483
▁ಸೂರ್ಯನು	-10484
▁ಸೊಸೆಯಾದ	-10485
▁ಸ್ನೇಹಿತ	-10486
▁ಹೇಬೆಲನು	-10487
▁ಹೇಳಬೇಕು	-10488
ననుకొనెను	-10489
యైదేండ్లు	-10490
వారెవరును	-10491
సినప్పుడు	-10492
ದಲ್ಲೆಲ್ಲಾ	-10493
ನಾಗಿದ್ದನು	-10494
ಲೆತನವನ್ನು	-10495
▁Almighty	-10496
▁Amorites	-10497
▁Chaldees	-10498
▁Nebajoth	-10499
▁Rehoboth	-10500
▁audience	-10501
▁communed	-10502
▁conceive	-10503
▁consumed	-10504
▁despised	-10505
▁dwelling	-10506
▁eastward	-10507
▁garments	-10508
▁likeness	-10509
▁mistress	-10510
▁numbered	-10511
▁restored	-10512
▁searched	-10513
▁selfsame	-10514
▁stronger	-10515
▁suffered	-10516
▁wouldest	-10517
▁wrestled	-10518
▁एमोरियों	-10519
▁कस्दियों	-10520
▁चिल्लाहट	-10521
▁जीवजन्तु	-10522
▁पहिचानकर	-10523
▁पहुंचाया	-10524
▁लड़कियां	-10525
▁लौंडियों	-10526
▁शरीरधारी	-10527
▁स्वामिनी	-10528
▁అతనితోనీ	-10529
▁ఆదామునకు	-10530
▁ఇచ్చెదను	-10531
▁ఉద్యోగము	-10532
▁ఎందుకనగా	-10533
▁ఎదుర్కొన	-10534
▁ఏబదిమంది	-10535
▁కన్నులకు	-10536
▁కలిగినది	-10537
▁కల్దీయుల	-10538
▁కిచ్చెను	-10539
▁కిష్టమైన	-10540
▁కుత్తరమి	-10541
▁గాడిదలను	-10542
▁చారలైనను	-10543
▁చెప్పుము	-10544
▁చేయుదువా	-10545
▁తీసివేసి	-10546
▁తెలిపెను	-10547
▁త్రవ్విన	-10548
▁దహనబలికి	-10549
▁దినములైన	-10550
▁దేశమందలి	-10551
▁దొరికెను	-10552
▁నాహోరును	-10553
▁నిబంధనకు	-10554
▁నియమించి	-10555
▁పక్షులను	-10556
▁పారిపోయి	-10557
▁పారిపోవు	-10558
▁పురుగును	-10559
▁పుష్టిగల	-10560
▁పైకెత్తి	-10561
▁పొట్టేళ్	-10562
▁పొలమందలి	-10563
▁బలిపీఠము	-10564
▁బిల్హాను	-10565
▁భయపడకుము	-10566
▁మాటలాడుట	-10567
▁మిద్యాను	-10568
▁మూడేండ్ల	-10569
▁మ్రొక్కి	-10570
▁యాకోబునా	-10571
▁యున్నావు	-10572
▁యెప్పుడు	-10573
▁యొక్తాను	-10574
▁యొర్దాను	-10575
▁రక్తమును	-10576
▁రాత్రిని	-10577
▁లాబానును	-10578
▁లెమెకును	-10579
▁వచ్చెదను	-10580
▁వెన్నులు	-10581
▁వేరుపరచు	-10582
▁వేసికొని	-10583
▁శరీరులలో	-10584
▁షెకెమును	-10585
▁సంపూర్తి	-10586
▁సమస్తమైన	-10587
▁సముద్రపు	-10588
▁స్నేహితు	-10589
▁ಅಣ್ಣನಿಗೆ	-10590
▁ಅಬ್ರಾಮನೂ	-10591
▁ಅಳಿಯಂದಿರ	-10592
▁ಆಗಿದ್ದನು	-10593
▁ಒಪ್ಪಿಸಿದ	-10594
▁ಕತ್ತೆಗಳೂ	-10595
▁ಕುಟುಂಬಗಳ	-10596
▁ಕುಮಾರ್ತೆ	-10597
▁ಕೆಟ್ಟದ್ದ	-10598
▁ಕೇಳುವಂತೆ	-10599
▁ಕೊಡಲಿಲ್ಲ	-10600
▁ಕೋಪಬಾರದೆ	-10601
▁ಕ್ರಮವಾಗಿ	-10602
▁ಗವಿಯಲ್ಲಿ	-10603
▁ಗಾಳಿಯಿಂದ	-10604
▁ಗಿಲ್ಯಾದ್	-10605
▁ಜನಾಂಗವಾಗ	-10606
▁ಜೀವವುಳ್ಳ	-10607
▁ಜೀವವೃಕ್ಷ	-10608
▁ಜೀವಶ್ವಾಸ	-10609
▁ತನ್ನನ್ನು	-10610
▁ತನ್ನೊಳಗೆ	-10611
▁ತಿಳಿದಿದೆ	-10612
▁ತೆಗೆದುಕೋ	-10613
▁ದಲ್ಲಿರುವ	-10614
▁ನನಗೋಸ್ಕರ	-10615
▁ನನ್ನನ್ನೂ	-10616
▁ನಾಲ್ಕನೆಯ	-10617
▁ನ್ಯಾಯತೀರ	-10618
▁ಪಕ್ಷಿಗಳೂ	-10619
▁ಪ್ರತಿದಂಡ	-10620
▁ಪ್ರತ್ಯೇಕ	-10621
▁ಬಿಡುಗಡೆಯ	-10622
▁ಬೆಳಕನ್ನು	-10623
▁ಬೇಟೆಯಾಡಿ	-10624
▁ಮಕ್ಕಳಿಂದ	-10625
▁ಮನೆಯೊಳಗೆ	-10626
▁ಮಹಲಲೇಲನು	-10627
▁ಮಾಡಿದ್ದು	-10628
▁ಯಾವವಂದರೆ	-10629
▁ಲಕ್ಷಣವಾದ	-10630
▁ಲೋಟನನ್ನೂ	-10631
▁ಸಹಿತವಾಗಿ	-10632
▁ಸಿಕ್ಕಿತು	-10633
▁ಸಿದ್ದೀಮ್	-10634
▁ಸೇರಿಸಲ್ಪ	-10635
▁ಸೈನ್ಯಾಧಿ	-10636
▁ಸ್ಥಳಕ್ಕೂ	-10637
▁ಸ್ಥಿರಮಾಡ	-10638
▁ಹಣಕೊಟ್ಟು	-10639
▁ಹೆಣ್ಣಾಗಿ	-10640
▁ಹೆಸರುಗಳು	-10641
▁ಹೇಳುವವರು	-10642
▁ಹೋಗಬಹುದು	-10643
యొద్దనుండి	-10644
ింపబడుదురు	-10645
ృద్ధిపొంది	-10646
ಕೊಳ್ಳಲಿಲ್ಲ	-10647
ನಿಶ್ಚಯವಾಗಿ	-10648
ರ್ವಶಕ್ತನಾದ	-10649
ವಾದದ್ದರಿಂದ	-10650
ಿಸಲ್ಪಡುವವು	-10651
ಿಸಿಬಿಟ್ಟನು	-10652
ುತ್ತಿದ್ದವು	-10653
ೆಯುಳ್ಳದ್ದು	-10654
▁Canaanite	-10655
▁comforted	-10656
▁concubine	-10657
▁countries	-10658
▁fulfilled	-10659
▁household	-10660
▁nakedness	-10661
▁separated	-10662
▁sevenfold	-10663
▁seventeen	-10664
▁अन्धियारे	-10665
▁खेलनेवाला	-10666
▁ज्योतियां	-10667
▁निवासियों	-10668
▁बान्धूंगा	-10669
▁అంగలార్చు	-10670
▁అతనితోకూడ	-10671
▁అరణ్యములో	-10672
▁ఐగుప్తులో	-10673
▁కట్టుకొని	-10674
▁కప్పగించి	-10675
▁కుమార్తెల	-10676
▁క్షేమముగా	-10677
▁గుడారములు	-10678
▁గుడారములో	-10679
▁గొమొఱ్ఱాల	-10680
▁గోప్యాంగచ	-10681
▁చేసికొందు	-10682
▁చేసికొనిన	-10683
▁చేసినయెడల	-10684
▁జంతువులను	-10685
▁తండ్రివలన	-10686
▁తెలియలేదు	-10687
▁తోడైయుండి	-10688
▁నాహోరునకు	-10689
▁నిర్మించి	-10690
▁నివసించిన	-10691
▁పిలిపించి	-10692
▁పిలువనంపి	-10693
▁పిల్లలును	-10694
▁పొందవలెను	-10695
▁ప్రేమించి	-10696
▁భూమియొక్క	-10697
▁మాటలాడుచు	-10698
▁మార్గమును	-10699
▁రాకమునుపు	-10700
▁లహాయిరోయి	-10701
▁వచ్చినీవు	-10702
▁వారందరిలో	-10703
▁వారితోకూడ	-10704
▁విరోధముగా	-10705
▁వెళ్లుదము	-10706
▁సంతతికిని	-10707
▁సన్నిధిలో	-10708
▁సమృద్ధిగా	-10709
▁సహోదరులకు	-10710
▁స్తంభముగా	-10711
▁స్తంభమును	-10712
▁స్థిరపరచు	-10713
▁ಅಂದುಕೊಂಡು	-10714
▁ಅಬ್ರಹಾಮನೂ	-10715
▁ಅರಾಮಿನಿಂದ	-10716
▁ಅರಾಮ್ಯನಾದ	-10717
▁ಇಳುಕೊಂಡನು	-10718
▁ಊಟಮಾಡಿದರು	-10719
▁ಒಂಟೆಗಳಿಗೂ	-10720
▁ಕತ್ತಿಯಿಂದ	-10721
▁ಕಾನಾನ್ಯರೂ	-10722
▁ಕುಟುಂಬಗಳು	-10723
▁ಕೂಡಿಕೊಂಡು	-10724
▁ಕೊಂದುಹಾಕಿ	-10725
▁ಚೊಚ್ಚಲತನದ	-10726
▁ತಕ್ಕೊಂಡರೆ	-10727
▁ತ್ತಿದ್ದನು	-10728
▁ನಾವೆಯಲ್ಲಿ	-10729
▁ನಾಹೋರನಿಗೆ	-10730
▁ನಿಂತುಕೊಂಡ	-10731
▁ನಿನಗೋಸ್ಕರ	-10732
▁ನಿನ್ನಲ್ಲಿ	-10733
▁ನೂರೈವತ್ತು	-10734
▁ಪಲ್ಯವನ್ನೂ	-10735
▁ಪುಷ್ಟಿಯಾದ	-10736
▁ಬಾಧ್ಯವಾಗಿ	-10737
▁ಭೂಮಿಯನ್ನೂ	-10738
▁ಮಣ್ಣಿನಿಂದ	-10739
▁ಮಾಡಿಕೊಂಡು	-10740
▁ಮಾಡುವದಕ್ಕ	-10741
▁ಮುಚ್ಚಿದರು	-10742
▁ಮೇಘಗಳಲ್ಲಿ	-10743
▁ಯಜಮಾನನಿಗೆ	-10744
▁ರಾಹೇಲಳಿಗೆ	-10745
▁ವನ್ನೆಲ್ಲಾ	-10746
▁ವಿಧೇಯನಾಗಿ	-10747
▁ಸಂಬಳವನ್ನು	-10748
▁ಸಿಕ್ಕಿದರೆ	-10749
▁ಸೃಷ್ಟಿಸಿದ	-10750
▁ಹಸುಗಳನ್ನು	-10751
▁ಹಾಗರಳನ್ನು	-10752
▁ಹಿಡುಕೊಂಡು	-10753
▁ಹುಲ್ಲನ್ನೂ	-10754
▁ಹೆತ್ತಿದ್ದ	-10755
▁ಹೊರಟುಹೋಗಿ	-10756
చున్నప్పుడు	-10757
డిగినప్పుడు	-10758
లన్నిటిలోను	-10759
వారినందరిని	-10760
ింపబడునుగాక	-10761
ಾಗಿರುವದರಿಂದ	-10762
▁Adullamite	-10763
▁affliction	-10764
▁remembered	-10765
▁restrained	-10766
▁worshipped	-10767
▁कब्रिस्तान	-10768
▁पिलानेहारे	-10769
▁అనినప్పుడు	-10770
▁అబ్రాహామను	-10771
▁అమోరీయులను	-10772
▁కనబడినయెడల	-10773
▁కనినప్పుడు	-10774
▁కాపరులకును	-10775
▁కాపురమున్న	-10776
▁కుమార్తెను	-10777
▁చేర్చబడెను	-10778
▁తినివేసెను	-10779
▁తెలుపబడెను	-10780
▁దేశమంతటిని	-10781
▁నాలుగువందల	-10782
▁నివసించిరి	-10783
▁పెట్టెదనని	-10784
▁ప్రచండముగా	-10785
▁భూమిమీదికి	-10786
▁మందలన్నియు	-10787
▁యాకోబునేను	-10788
▁యొద్దనున్న	-10789
▁రాజసంరక్షక	-10790
▁వచ్చుచున్న	-10791
▁వస్త్రమును	-10792
▁విచిత్రమైన	-10793
▁విస్తరించి	-10794
▁వేసికొనెను	-10795
▁వ్రేలాడదీయ	-10796
▁ಅಡ್ಡಬಿದ್ದು	-10797
▁ಅಬೀಮೆಲೆಕನೂ	-10798
▁ಅರುವತ್ತೈದು	-10799
▁ಅವಲಕ್ಷಣವಾದ	-10800
▁ಉಪಪತ್ನಿಯಾದ	-10801
▁ಎದುರಾಗಿರುವ	-10802
▁ಐಗುಪ್ತದೇಶದ	-10803
▁ಒಡಂಬಡಿಕೆಗೆ	-10804
▁ಒಪ್ಪಿಸಿದನು	-10805
▁ಕತ್ತಿಯನ್ನೂ	-10806
▁ಕರೆಯಲ್ಪಡದೆ	-10807
▁ಕಾಯಿನನನ್ನು	-10808
▁ಕಾರ್ಯವನ್ನು	-10809
▁ಕಾಲುಗಳನ್ನು	-10810
▁ಕುರಿಗಳನ್ನು	-10811
▁ಕೇಳಿದ್ದೇನೆ	-10812
▁ಕೇಳಿಸಿಕೊಂಡ	-10813
▁ಕೋಲುಗಳನ್ನು	-10814
▁ತಿಂದುಬಿಟ್ಟ	-10815
▁ತಿಳಿಸಲಿಲ್ಲ	-10816
▁ತುಂಬಿಕೊಂಡು	-10817
▁ದ್ರಾಕ್ಷಾರಸ	-10818
▁ನೋಡುವದಕ್ಕೆ	-10819
▁ಪ್ರಮಾಣದಿಂದ	-10820
▁ಪ್ರಮಾಣಮಾಡಿ	-10821
▁ಬೆಟ್ಟದಲ್ಲಿ	-10822
▁ಮಂದಿಗೋಸ್ಕರ	-10823
▁ಮಂದೆಗಳನ್ನು	-10824
▁ಮಾಡಿದ್ದೇನು	-10825
▁ಮಾಡುವದಕ್ಕೂ	-10826
▁ಮಾಡುವದನ್ನು	-10827
▁ಮಾತನಾಡಿದ್ದ	-10828
▁ಮುಖ್ಯಸ್ಥನು	-10829
▁ಮುದ್ದಿಟ್ಟು	-10830
▁ಮೆತೂಷೆಲಹನು	-10831
▁ಮೊದಲುಗೊಂಡು	-10832
▁ರಾಹೇಲಳನ್ನು	-10833
▁ರಾಹೇಲಳನ್ನೂ	-10834
▁ವಾಸಮಾಡಿದನು	-10835
▁ಸಹೋದರನನ್ನು	-10836
▁ಹಿತ್ತಿಯನಾದ	-10837
▁ಹೊರಟುಹೋದನು	-10838
ಕೊಳ್ಳುತ್ತೇನೆ	-10839
ಕೊಳ್ಳುವದಕ್ಕೆ	-10840
▁continually	-10841
▁interpreted	-10842
▁leanfleshed	-10843
▁yesternight	-10844
▁అత్యధికముగా	-10845
▁అప్పగించెను	-10846
▁ఎనిమిదివందల	-10847
▁ఐగుప్తురాజు	-10848
▁కదొర్లాయోమె	-10849
▁కనబడుదురేమో	-10850
▁కలిగినదంతయు	-10851
▁కూడినప్పుడు	-10852
▁చిన్నవానికి	-10853
▁చేసినప్పుడు	-10854
▁తిమ్నాతునకు	-10855
▁తోడైయుండెను	-10856
▁దానిలోనున్న	-10857
▁నిలుచుండెను	-10858
▁నివసించుటకు	-10859
▁పారుచున్నది	-10860
▁పెండ్లిచేసి	-10861
▁యెహోవాఇదిగో	-10862
▁వస్త్రములను	-10863
▁వృక్షఫలములు	-10864
▁సర్వశక్తిగల	-10865
▁సాయంకాలమందు	-10866
▁సింధూరవృక్ష	-10867
▁హిత్తీయుడైన	-10868
▁ಅಪ್ಪಣೆಕೊಟ್ಟ	-10869
▁ಆಕಾಶದೊಳಗಿಂದ	-10870
▁ಐಗುಪ್ತದಲ್ಲಿ	-10871
▁ಒಳ್ಳೆಯದನ್ನು	-10872
▁ಕಣ್ಣುಗಳನ್ನು	-10873
▁ಕಾಣಿಕೆಯನ್ನೂ	-10874
▁ಕಾಣಿಸಿಕೊಂಡು	-10875
▁ಕುಪ್ಪೆಯನ್ನು	-10876
▁ಕೆದೊರ್ಲಗೋಮರ	-10877
▁ಗುಡಾರಗಳನ್ನು	-10878
▁ಗುಡಾರಗಳಲ್ಲಿ	-10879
▁ತಿಳಿಸಲ್ಪಟ್ಟ	-10880
▁ದೇಶದಲ್ಲಿದ್ದ	-10881
▁ದೇಶದಲ್ಲಿರುವ	-10882
▁ನಿಲ್ಲಿಸಿದನು	-10883
▁ಪಾತ್ರೆಯನ್ನು	-10884
▁ಪ್ರೀತಿಮಾಡುವ	-10885
▁ಮುದ್ದಿಟ್ಟನು	-10886
▁ರೆಬೆಕ್ಕಳಿಗೆ	-10887
▁ರೊಟ್ಟಿಯನ್ನು	-10888
▁ಸ್ವಪ್ನದಲ್ಲಿ	-10889
▁ಹಾರಾನಿನಲ್ಲಿ	-10890
▁ಹೆಂಡತಿಯಾದಳು	-10891
▁buryingplace	-10892
▁peradventure	-10893
▁अदुल्लामवासी	-10894
▁सर्वशक्तिमान	-10895
▁ఎదుర్కొనుటకు	-10896
▁చేసియున్నాను	-10897
▁జ్యేష్ఠత్వము	-10898
▁దగ్గరకువచ్చి	-10899
▁ప్రవేశించెను	-10900
▁బావిమీదనుండి	-10901
▁బెయేర్షెబాలో	-10902
▁భూమిమీదనుండు	-10903
▁భూమిమీదనున్న	-10904
▁విడిచిపెట్టి	-10905
▁వెళ్లుచుండగా	-10906
▁సేనాధిపతియైన	-10907
▁ಆಜ್ಞಾಪಿಸಿದ್ದ	-10908
▁ಆಶೀರ್ವದಿಸಲ್ಪ	-10909
▁ಜೀವಜಂತುಗಳಿಗೂ	-10910
▁ತಿನ್ನುವದಕ್ಕೆ	-10911
▁ತೆಗೆದುಕೊಂಡನು	-10912
▁ದೇಶವನ್ನೆಲ್ಲಾ	-10913
▁ಪಾರಿವಾಳವನ್ನು	-10914
▁ಬೇರ್ಷೆಬದಲ್ಲಿ	-10915
▁ವಾಸವಾಗಿದ್ದರು	-10916
▁ವಿಗ್ರಹಗಳನ್ನು	-10917
▁ವಿಚಾರಿಸುವೆನು	-10918
▁ಸಾಯಂಕಾಲದಲ್ಲಿ	-10919
▁ಸಾಯುವದಕ್ಕಿಂತ	-10920
▁ಸ್ಥಾಪಿಸುವೆನು	-10921
▁ಹೀಗಿರುವದರಿಂದ	-10922
▁ಹೆಂಡತಿಯರನ್ನು	-10923
▁womenservants	-10924
▁గుడారములోనికి	-10925
▁గొఱ్ఱపిల్లలలో	-10926
▁పరుగెత్తికొని	-10927
▁పిలిపించినీవు	-10928
▁వాటన్నిటిలోను	-10929
▁ಕಟ್ಟಿಗೆಗಳನ್ನು	-10930
▁ಕುರಿಮರಿಗಳನ್ನು	-10931
▁ತಿನ್ನಬಾರದೆಂದು	-10932
▁ಪ್ರೀತಿಮಾಡಿದನು	-10933
▁ರಾಹೇಲಳಿಗೋಸ್ಕರ	-10934
▁ಸೇರಿಸಲ್ಪಟ್ಟನು	-10935
▁ಸ್ವರವನ್ನೆತ್ತಿ	-10936
▁ಸ್ವಾಸ್ಥ್ಯವಾಗಿ	-10937
▁అభివృద్ధిపొంది	-10938
▁వచ్చుచున్నాడని	-10939
▁ಕುಮಾರ್ತೆಯರನ್ನೂ	-10940
▁ಜಾತಿಗನುಸಾರವಾಗಿ	-10941
▁ಪ್ರವಾಸಿಯಾಗಿರುವ	-10942
▁ಬೆತ್ತಲೆತನವನ್ನು	-10943
▁ಬೆತ್ತಲೆಯಾಗಿದ್ದ	-10944
▁ಹೆಂಡತಿಯರನ್ನಾಗಿ	-10945
▁తీసికొనివచ్చెను	-10946
▁ತಕ್ಕೊಳ್ಳುವದಕ್ಕೆ	-10947
▁ಬಿಡುಗಡೆಯಾಗಿರುವಿ	-10948
?)	-10949
br	-10950
by	-10951
cl	-10952
ew	-10953
ia	-10954
lp	-10955
og	-10956
ru	-10957
sc	-10958
uh	-10959
uj	-10960
ंत	-10961
ंद	-10962
ंप	-10963
ंा	-10964
आर	-10965
आल	-10966
ईस	-10967
ऊल	-10968
कट	-10969
कै	-10970
गट	-10971
गल	-10972
गु	-10973
जी	-10974
टल	-10975
टु	-10976
टे	-10977
डी	-10978
थी	-10979
दक	-10980
दय	-10981
दह	-10982
नि	-10983
फु	-10984
फे	-10985
बस	-10986
भव	-10987
रब	-10988
लट	-10989
सो	-10990
हन	-10991
ुद	-10992
ूआ	-10993
ेह	-10994
కల	-10995
గూ	-10996
జన	-10997
టీ	-10998
టె	-10999
డో	-11000
ణయ	-11001
థమ	-11002
ధు	-11003
నొ	-11004
పట	-11005
భా	-11006
భు	-11007
భూ	-11008
మగ	-11009
యక	-11010
రట	-11011
రస	-11012
రూ	-11013
వం	-11014
వగ	-11015
వన	-11016
శర	-11017
సీ	-11018
హస	-11019
హే	-11020
ీద	-11021
ుం	-11022
ోర	-11023
ోళ	-11024
ోహ	-11025
ಆಗ	-11026
ಗಲ	-11027
ಚು	-11028
ಜನ	-11029
ಟೂ	-11030
ಡರ	-11031
ಢನ	-11032
ಣದ	-11033
ಣು	-11034
ಥೆ	-11035
ದನ	-11036
ನದ	-11037
ಬೆ	-11038
ಭವ	-11039
ಮು	-11040
ಮೋ	-11041
ಳವ	-11042
ಳೋ	-11043
ಸೆ	-11044
ಹಮ	-11045
ಹಷ	-11046
ಹಿ	-11047
ಹೀ	-11048
ಾಫ	-11049
ಾಭ	-11050
ಿಗ	-11051
ಿಬ	-11052
ೂಜ	-11053
ೇತ	-11054
ೇಬ	-11055
ೊಗ	-11056
▁!	-11057
▁̧	-11058
▁ऋ	-11059
▁డ	-11060
▁ಷ	-11061
aal	-11062
abt	-11063
alf	-11064
ali	-11065
alk	-11066
als	-11067
asc	-11068
aul	-11069
bal	-11070
bor	-11071
ded	-11072
der	-11073
ect	-11074
egr	-11075
fit	-11076
fth	-11077
fus	-11078
hab	-11079
ibs	-11080
ick	-11081
iel	-11082
iim	-11083
ils	-11084
iqu	-11085
jam	-11086
lar	-11087
let	-11088
lly	-11089
lts	-11090
mar	-11091
mon	-11092
ows	-11093
per	-11094
phr	-11095
ple	-11096
ucc	-11097
uff	-11098
uly	-11099
vah	-11100
veh	-11101
ंगो	-11102
ंठी	-11103
एगी	-11104
ओगे	-11105
कान	-11106
केल	-11107
कैन	-11108
कोत	-11109
क्क	-11110
क्र	-11111
गार	-11112
गिन	-11113
चीत	-11114
छार	-11115
जाई	-11116
जाऊ	-11117
जूब	-11118
ठाई	-11119
ढता	-11120
तरे	-11121
ताम	-11122
त्न	-11123
दंग	-11124
दते	-11125
दाई	-11126
दाय	-11127
दार	-11128
दाल	-11129
देन	-11130
ध्य	-11131
नवे	-11132
नैम	-11133
पशु	-11134
पाय	-11135
पेल	-11136
बल्	-11137
बुल	-11138
बूस	-11139
बेल	-11140
ब्द	-11141
भाल	-11142
मीन	-11143
मोल	-11144
यार	-11145
योक	-11146
रती	-11147
रात	-11148
राद	-11149
र्य	-11150
लके	-11151
लता	-11152
लीं	-11153
ल्य	-11154
वार	-11155
शमा	-11156
सान	-11157
सुर	-11158
स्म	-11159
ादक	-11160
िरे	-11161
ींच	-11162
ीरे	-11163
ुड़	-11164
ेरा	-11165
्सा	-11166
ండన	-11167
ందే	-11168
కాక	-11169
కిట	-11170
కేక	-11171
గర్	-11172
గాష	-11173
డియ	-11174
డుట	-11175
డున	-11176
డువ	-11177
ఢని	-11178
ణను	-11179
తండ	-11180
తను	-11181
తయు	-11182
తలు	-11183
తీఫ	-11184
తీర	-11185
త్క	-11186
త్మ	-11187
దను	-11188
నుల	-11189
పాయ	-11190
ఫాయ	-11191
ఫ్ర	-11192
బల్	-11193
బ్త	-11194
భయు	-11195
భాగ	-11196
మాట	-11197
మేక	-11198
యని	-11199
రగొ	-11200
రచు	-11201
రాల	-11202
ర్శ	-11203
లాగ	-11204
ళ్ల	-11205
వంత	-11206
వగా	-11207
వదూ	-11208
వలే	-11209
వాం	-11210
వి్	-11211
వేద	-11212
వేల	-11213
వేష	-11214
హతు	-11215
హీన	-11216
హెబ	-11217
ాబు	-11218
ాలి	-11219
ిన్	-11220
ీతి	-11221
ీరా	-11222
ీషు	-11223
ుషా	-11224
ూయా	-11225
ూలూ	-11226
ెపో	-11227
ేయు	-11228
ైదీ	-11229
ಂಟೇ	-11230
ಂಪೂ	-11231
ಅವನ	-11232
ಇದೇ	-11233
ಕರು	-11234
ಕಾದ	-11235
ಕ್ಬ	-11236
ಗೋಣ	-11237
ಗ್ದ	-11238
ಗ್ಮ	-11239
ಚ್ಛ	-11240
ಟೂರ	-11241
ಡಿಕ	-11242
ಡುಗ	-11243
ತಂದ	-11244
ತರು	-11245
ತಲಾ	-11246
ತಾಯ	-11247
ತೆಯ	-11248
ತೋಟ	-11249
ತೋರ	-11250
ದವರ	-11251
ದಿನ	-11252
ದಿಯ	-11253
ನೆಲ	-11254
ನೋವ	-11255
ಪತಿ	-11256
ಪಾದ	-11257
ಫರೋ	-11258
ಫಾಯ	-11259
ಬಾಲ	-11260
ಬ್ತ	-11261
ಭೂಮ	-11262
ಮಂದ	-11263
ಮಸ್	-11264
ಮಾಹ	-11265
ಮೃಗ	-11266
ಯವು	-11267
ಯಿಮ	-11268
ರೂಬ	-11269
ರೆಯ	-11270
ಲನು	-11271
ಲಾಬ	-11272
ಲೆದ	-11273
ಳ್ಹ	-11274
ವತು	-11275
ವನದ	-11276
ವರೂ	-11277
ವರೆ	-11278
ವಾಬ	-11279
ವೇಷ	-11280
ಸಮಾ	-11281
ಹರನ	-11282
ಹೀನ	-11283
ಹೂಯ	-11284
ಾನಾ	-11285
ಾನಿ	-11286
ಾರೋ	-11287
ಾಲಿ	-11288
ಾವಿ	-11289
ಿಗಳ	-11290
ಿಯರ	-11291
ಿರು	-11292
ಿಸದ	-11293
ೀಮಗ	-11294
ೀಯರ	-11295
ೀಷ್	-11296
ೀಸ್	-11297
ೂರಿ	-11298
ೆಮ್	-11299
ೆಲೋ	-11300
ೇಲನ	-11301
ೋಜನ	-11302
ೋದಯ	-11303
್ಡಿ	-11304
▁Do	-11305
▁Eu	-11306
▁Lo	-11307
▁Sp	-11308
▁Up	-11309
▁ce	-11310
▁ly	-11311
▁ob	-11312
▁अश	-11313
▁आन	-11314
▁आर	-11315
▁ओट	-11316
▁ओस	-11317
▁कई	-11318
▁कत	-11319
▁कप	-11320
▁घु	-11321
▁चम	-11322
▁छठ	-11323
▁छी	-11324
▁ढि	-11325
▁तट	-11326
▁तन	-11327
▁तर	-11328
▁दम	-11329
▁धो	-11330
▁नथ	-11331
▁पछ	-11332
▁पश	-11333
▁बछ	-11334
▁बज	-11335
▁भो	-11336
▁भौ	-11337
▁सत	-11338
▁सह	-11339
▁हथ	-11340
▁हव	-11341
▁हस	-11342
▁అప	-11343
▁అమ	-11344
▁ఆన	-11345
▁ఆష	-11346
▁ఇత	-11347
▁ఏక	-11348
▁గడ	-11349
▁గూ	-11350
▁చల	-11351
▁జో	-11352
▁తర	-11353
▁దల	-11354
▁దె	-11355
▁నగ	-11356
▁నడ	-11357
▁నొ	-11358
▁పూ	-11359
▁బస	-11360
▁బూ	-11361
▁భర	-11362
▁యధ	-11363
▁ర్	-11364
▁వయ	-11365
▁వర	-11366
▁వశ	-11367
▁వు	-11368
▁శా	-11369
▁షు	-11370
▁హస	-11371
▁హె	-11372
▁ಅದ	-11373
▁ಎಲ	-11374
▁ಏಫ	-11375
▁ಐದ	-11376
▁ಘನ	-11377
▁ಚೋ	-11378
▁ಜೇ	-11379
▁ತೀ	-11380
▁ದಣ	-11381
▁ದರ	-11382
▁ದ್	-11383
▁ನಯ	-11384
▁ಪದ	-11385
▁ಪೀ	-11386
▁ಬೈ	-11387
▁ಮಳ	-11388
▁ಲೆ	-11389
▁ಳಗ	-11390
▁ವಶ	-11391
▁ಸೀ	-11392
▁ಹಚ	-11393
▁ಹನ	-11394
able	-11395
agab	-11396
ahai	-11397
aims	-11398
aise	-11399
alem	-11400
ales	-11401
amed	-11402
anch	-11403
aned	-11404
aped	-11405
apes	-11406
ares	-11407
asar	-11408
atam	-11409
atch	-11410
ates	-11411
aveh	-11412
cain	-11413
cend	-11414
cern	-11415
cess	-11416
chre	-11417
cken	-11418
ckly	-11419
ebah	-11420
ebus	-11421
edst	-11422
ened	-11423
fect	-11424
ians	-11425
idal	-11426
iful	-11427
iles	-11428
inew	-11429
irah	-11430
keth	-11431
kins	-11432
ohar	-11433
ooth	-11434
orns	-11435
osed	-11436
owry	-11437
raim	-11438
raph	-11439
rath	-11440
rung	-11441
sach	-11442
seer	-11443
shan	-11444
took	-11445
ugit	-11446
uhim	-11447
uise	-11448
uked	-11449
ulun	-11450
umah	-11451
urse	-11452
vail	-11453
vice	-11454
vide	-11455
wife	-11456
yria	-11457
ंघकर	-11458
कबोर	-11459
काया	-11460
क्की	-11461
गुणा	-11462
ग्री	-11463
ड़ाई	-11464
ड़ित	-11465
ढ़ाप	-11466
ढ़ों	-11467
ण्डल	-11468
तरने	-11469
तीपर	-11470
तूरा	-11471
धराई	-11472
धर्म	-11473
नदेन	-11474
नहार	-11475
नारे	-11476
न्डी	-11477
न्हा	-11478
फलों	-11479
फुल्	-11480
बड़ी	-11481
बन्ध	-11482
भिला	-11483
मारी	-11484
मोरी	-11485
म्मा	-11486
म्मी	-11487
याएल	-11488
यासी	-11489
रहित	-11490
रावा	-11491
रोखे	-11492
र्गा	-11493
र्बा	-11494
र्मा	-11495
लम्ब	-11496
लिया	-11497
ल्दा	-11498
वाकर	-11499
वान्	-11500
वाला	-11501
व्वी	-11502
शाएल	-11503
श्या	-11504
श्रम	-11505
ष्ठा	-11506
सुली	-11507
हुरे	-11508
हेतू	-11509
ुरूष	-11510
ूंगी	-11511
ूर्ण	-11512
ूर्त	-11513
ूलून	-11514
ूशाम	-11515
ेष्ठ	-11516
ोंआर	-11517
ौतों	-11518
्रोद	-11519
ంటున	-11520
ందలి	-11521
ంధ్ర	-11522
ంబడి	-11523
ఆకాశ	-11524
కాదు	-11525
కులు	-11526
కోలు	-11527
క్బో	-11528
ఖరము	-11529
గడగా	-11530
గనుక	-11531
గురి	-11532
గెలు	-11533
గ్గు	-11534
గ్ని	-11535
చమైన	-11536
చూచు	-11537
జలము	-11538
జ్ఞా	-11539
జ్వా	-11540
టయైన	-11541
టిబు	-11542
టీసు	-11543
డునై	-11544
తనతో	-11545
తాము	-11546
తివో	-11547
తులై	-11548
తూరా	-11549
తూషా	-11550
తోనీ	-11551
త్రా	-11552
దనతో	-11553
దాలు	-11554
దాసీ	-11555
దాసు	-11556
దురో	-11557
దేవత	-11558
ద్రో	-11559
ధవ్య	-11560
ధ్యత	-11561
నాటి	-11562
నాభి	-11563
నిగి	-11564
నేమో	-11565
న్యా	-11566
పరచి	-11567
పాలన	-11568
పేరు	-11569
పేలు	-11570
బాకు	-11571
బావి	-11572
బ్బు	-11573
భూమి	-11574
మధ్య	-11575
మయిన	-11576
మార్	-11577
మిదే	-11578
మీది	-11579
మీను	-11580
మెరు	-11581
మైతే	-11582
మ్మట	-11583
మ్మా	-11584
మ్యా	-11585
మ్రో	-11586
యారు	-11587
యింట	-11588
యువు	-11589
యేడవ	-11590
రాడి	-11591
రేమి	-11592
ర్ణయ	-11593
లాడు	-11594
లిగి	-11595
లువల	-11596
లోచన	-11597
ల్దా	-11598
వంచి	-11599
వద్ద	-11600
వనగా	-11601
వరని	-11602
వర్త	-11603
వస్త	-11604
వారణ	-11605
వారా	-11606
విడి	-11607
విరి	-11608
వెంట	-11609
వ్లూ	-11610
సాని	-11611
సికి	-11612
స్లూ	-11613
హీను	-11614
ారంభ	-11615
ారని	-11616
ావని	-11617
ుజను	-11618
ులతో	-11619
ూడను	-11620
ెదవా	-11621
ెరవే	-11622
ెలని	-11623
ేకాక	-11624
ోహరు	-11625
్రియ	-11626
ಂತ್ರ	-11627
ಂಭಾಗ	-11628
ಅವನು	-11629
ಅವಳು	-11630
ಆದರೆ	-11631
ಇಸಾಕ	-11632
ಕತ್ತ	-11633
ಕಾರಿ	-11634
ಕೆಂದ	-11635
ಗಹಾಕ	-11636
ಗುಂದ	-11637
ಚಾರಕ	-11638
ಚಿತು	-11639
ಜ್ಜಾ	-11640
ಡುವಿ	-11641
ಣಕಾಲ	-11642
ಣೆಗಳ	-11643
ದಂತೆ	-11644
ದಿಂಬ	-11645
ದುಕರ	-11646
ದೇವರ	-11647
ದ್ದೇ	-11648
ನಂತರ	-11649
ನಾಗು	-11650
ನೀರು	-11651
ನೆಗಳ	-11652
ನೇನೋ	-11653
ಬಿಲಿ	-11654
ಬುಗಳ	-11655
ಮಕ್ಕ	-11656
ಮಗನು	-11657
ಮಾಡದ	-11658
ಮಾರ್	-11659
ಮಾಹದ	-11660
ಮೂರು	-11661
ಮೇಲೆ	-11662
ಮ್ಮಡ	-11663
ಮ್ಮಾ	-11664
ಮ್ರೋ	-11665
ಮ್ಲಾ	-11666
ಯಾಕೆ	-11667
ಯೇಲ್	-11668
ಲೇದ್	-11669
ಳವಾಯ	-11670
ಳಾಗಿ	-11671
ಳಿಸಿ	-11672
ಳ್ಳು	-11673
ವರ್ಯ	-11674
ವಾದಿ	-11675
ಹಾಕಿ	-11676
ಹಾಗರ	-11677
ಹೀಗೆ	-11678
ಹೇತನ	-11679
ಾಕಾನ	-11680
ಾಗಿಲ	-11681
ಾಡಲಿ	-11682
ಾತ್ತ	-11683
ಾದನು	-11684
ಾದವು	-11685
ಾಪಾರ	-11686
ಾಫೆಲ	-11687
ಾರಂಭ	-11688
ಾರದೆ	-11689
ಾಲೆಯ	-11690
ಾಸೀನ	-11691
ಿಕೆಯ	-11692
ಿದವು	-11693
ಿರಂಗ	-11694
ೀಮೆಯ	-11695
ುವದೇ	-11696
ುವಳಿ	-11697
ೆಗೆಯ	-11698
ೆದರು	-11699
ೆದುರ	-11700
ೆಬಹನ	-11701
ೆಯಾಗ	-11702
ೆಹೊಡ	-11703
ೇಚ್ಛ	-11704
ೋನಿನ	-11705
್ತೆಯ	-11706
್ಯಥೆ	-11707
▁Ach	-11708
▁Ari	-11709
▁Dam	-11710
▁Ell	-11711
▁Esh	-11712
▁Eve	-11713
▁Gad	-11714
▁Get	-11715
▁Hai	-11716
▁Hem	-11717
▁Jab	-11718
▁Ked	-11719
▁Kir	-11720
▁Lie	-11721
▁Lud	-11722
▁Luz	-11723
▁Mag	-11724
▁Man	-11725
▁Pen	-11726
▁Pot	-11727
▁Put	-11728
▁Sam	-11729
▁Two	-11730
▁Why	-11731
▁Yea	-11732
▁arm	-11733
▁ash	-11734
▁cut	-11735
▁dew	-11736
▁dun	-11737
▁ele	-11738
▁far	-11739
▁fin	-11740
▁fro	-11741
▁gut	-11742
▁hal	-11743
▁jew	-11744
▁lea	-11745
▁led	-11746
▁met	-11747
▁mil	-11748
▁mor	-11749
▁oak	-11750
▁oil	-11751
▁par	-11752
▁qui	-11753
▁red	-11754
▁spo	-11755
▁ste	-11756
▁swe	-11757
▁vis	-11758
▁yea	-11759
▁अंश	-11760
▁अटल	-11761
▁इधर	-11762
▁ईंट	-11763
▁उगे	-11764
▁उड़	-11765
▁ऋतु	-11766
▁कान	-11767
▁कैद	-11768
▁कौआ	-11769
▁खुद	-11770
▁खेद	-11771
▁गति	-11772
▁गाद	-11773
▁गीत	-11774
▁घेर	-11775
▁चुन	-11776
▁चोट	-11777
▁चौक	-11778
▁छिप	-11779
▁टहल	-11780
▁डूब	-11781
▁ताक	-11782
▁तीर	-11783
▁थका	-11784
▁दाल	-11785
▁धनी	-11786
▁धूप	-11787
▁नहत	-11788
▁नील	-11789
▁नोच	-11790
▁पंच	-11791
▁पदा	-11792
▁पधा	-11793
▁परी	-11794
▁पाई	-11795
▁पार	-11796
▁पूछ	-11797
▁फला	-11798
▁फले	-11799
▁फें	-11800
▁बर्	-11801
▁बिग	-11802
▁बिर	-11803
▁बीत	-11804
▁बोल	-11805
▁भगो	-11806
▁भवन	-11807
▁भूल	-11808
▁महू	-11809
▁रचा	-11810
▁रपा	-11811
▁रोम	-11812
▁लपे	-11813
▁लीं	-11814
▁लूज	-11815
▁लों	-11816
▁विप	-11817
▁शूआ	-11818
▁सपो	-11819
▁सफे	-11820
▁सुख	-11821
▁सोच	-11822
▁हजा	-11823
▁हदद	-11824
▁हदर	-11825
▁हेम	-11826
▁అతి	-11827
▁అహో	-11828
▁ఆయా	-11829
▁ఆరవ	-11830
▁ఆలక	-11831
▁ఇంట	-11832
▁ఎంచ	-11833
▁ఎడమ	-11834
▁ఏది	-11835
▁ఏల్	-11836
▁ఒక్	-11837
▁కపట	-11838
▁కవల	-11839
▁కేక	-11840
▁కొక	-11841
▁కోత	-11842
▁గోయ	-11843
▁చూప	-11844
▁జమ్	-11845
▁జార	-11846
▁జీత	-11847
▁జెబ	-11848
▁డైన	-11849
▁ణము	-11850
▁తడి	-11851
▁తర్	-11852
▁తీర	-11853
▁తెగ	-11854
▁తొల	-11855
▁నము	-11856
▁నాయ	-11857
▁నిర	-11858
▁పాప	-11859
▁పార	-11860
▁పెన	-11861
▁బాబ	-11862
▁బోయ	-11863
▁బోళ	-11864
▁భూస	-11865
▁మడి	-11866
▁మని	-11867
▁మామ	-11868
▁యడి	-11869
▁యాజ	-11870
▁యేల	-11871
▁రుల	-11872
▁రూప	-11873
▁లతో	-11874
▁వంచ	-11875
▁వలె	-11876
▁వాక	-11877
▁వాద	-11878
▁వుల	-11879
▁వెల	-11880
▁శకు	-11881
▁శాప	-11882
▁షావ	-11883
▁షూయ	-11884
▁సంభ	-11885
▁సరే	-11886
▁సిత	-11887
▁సీద	-11888
▁సూచ	-11889
▁సూర	-11890
▁ಅಂಥ	-11891
▁ಅಗಲ	-11892
▁ಅತಿ	-11893
▁ಅಬೀ	-11894
▁ಆಡು	-11895
▁ಆಶೆ	-11896
▁ಆಶೇ	-11897
▁ಇಡು	-11898
▁ಇಸಾ	-11899
▁ಈಹೊ	-11900
▁ಉದಯ	-11901
▁ಐಶ್	-11902
▁ಕರು	-11903
▁ಕರೇ	-11904
▁ಕಾಡ	-11905
▁ಕಾವ	-11906
▁ಕೂಲ	-11907
▁ಕೂಷ	-11908
▁ಕೆಡ	-11909
▁ಕ್ಕ	-11910
▁ಗಲಿ	-11911
▁ಗಳೂ	-11912
▁ಗಹಮ	-11913
▁ಗಾರ	-11914
▁ಗಿಡ	-11915
▁ಗೀರ	-11916
▁ಗ್ರ	-11917
▁ಚದರ	-11918
▁ಚಳಿ	-11919
▁ಜಾರ	-11920
▁ಜೆಬ	-11921
▁ಜ್ಞ	-11922
▁ಜ್ವ	-11923
▁ತರು	-11924
▁ತಲೆ	-11925
▁ತಹಷ	-11926
▁ತಾನ	-11927
▁ತಾಳ	-11928
▁ತಿರ	-11929
▁ತೋಯ	-11930
▁ದಾದ	-11931
▁ದಾನ	-11932
▁ದೋತ	-11933
▁ನನ್	-11934
▁ನಾರ	-11935
▁ನಿರ	-11936
▁ನೆಯ	-11937
▁ನೋಟ	-11938
▁ಪೀಠ	-11939
▁ಬರು	-11940
▁ಬಾಬ	-11941
▁ಬಾಯ	-11942
▁ಬೇಲ	-11943
▁ಬೇಸ	-11944
▁ಭೇದ	-11945
▁ಮಳೆ	-11946
▁ಮಾದ	-11947
▁ಮಾವ	-11948
▁ಮೂಗ	-11949
▁ಯಾಗ	-11950
▁ರರೂ	-11951
▁ರೂಮ	-11952
▁ರೋಮ	-11953
▁ಲಾಭ	-11954
▁ಲೂಜ	-11955
▁ಲೇವ	-11956
▁ಲ್ಪ	-11957
▁ಳಾದ	-11958
▁ವದು	-11959
▁ವಾಗ	-11960
▁ವಾಯ	-11961
▁ವಾರ	-11962
▁ಸಾವ	-11963
▁ಸುಡ	-11964
▁ಸುವ	-11965
▁ಸೂಲ	-11966
▁ಹದಿ	-11967
▁ಹಸು	-11968
▁ಹಾಲ	-11969
▁ಹುಷ	-11970
aleed	-11971
ammah	-11972
ascus	-11973
chant	-11974
edeth	-11975
emies	-11976
ength	-11977
fused	-11978
hanan	-11979
icers	-11980
ified	-11981
imrod	-11982
inder	-11983
iness	-11984
iphar	-11985
irgin	-11986
isled	-11987
itted	-11988
izzah	-11989
jamin	-11990
ledge	-11991
lings	-11992
onder	-11993
othan	-11994
pared	-11995
reesc	-11996
score	-11997
serve	-11998
spect	-11999
stand	-12000
stead	-12001
threw	-12002
throw	-12003
uiled	-12004
ujael	-12005
ulled	-12006
usael	-12007
usham	-12008
क्कोत	-12009
क्रमी	-12010
क्षान	-12011
च्छिम	-12012
टुम्ब	-12013
नेंगी	-12014
प्ताह	-12015
भिचार	-12016
म्बाई	-12017
रागार	-12018
र्मचा	-12019
लियाद	-12020
शमांश	-12021
षियों	-12022
ियाना	-12023
ुड़वे	-12024
्राता	-12025
ంగీని	-12026
ంచెనో	-12027
ంతటను	-12028
ంతరము	-12029
ందుకై	-12030
ందువు	-12031
కందరి	-12032
కొంటి	-12033
కొండు	-12034
కొనిన	-12035
కొనుట	-12036
క్కడు	-12037
గవిని	-12038
గిలిన	-12039
గునని	-12040
చుండి	-12041
చుమని	-12042
చ్చని	-12043
చ్చెన	-12044
జలముల	-12045
టినని	-12046
ట్టయు	-12047
డగాని	-12048
డల్పు	-12049
డెవడో	-12050
డైనను	-12051
డ్డున	-12052
తనితో	-12053
త్రమే	-12054
దినము	-12055
దిమ్మ	-12056
దురని	-12057
దువని	-12058
ద్ధము	-12059
ననియు	-12060
నిబంధ	-12061
నొద్ద	-12062
నొల్ల	-12063
ప్రభు	-12064
మగ్రి	-12065
మస్కు	-12066
మాత్ర	-12067
ముంచి	-12068
మేగదా	-12069
యకుము	-12070
యుండు	-12071
యునని	-12072
రనెను	-12073
రుగను	-12074
ర్గాష	-12075
ర్తగా	-12076
లదిని	-12077
లోకపు	-12078
వంటలు	-12079
వతినై	-12080
వారని	-12081
వ్వను	-12082
శరీరు	-12083
శీర్వ	-12084
ష్టము	-12085
ష్టిక	-12086
సులైన	-12087
సొదొమ	-12088
స్తకి	-12089
ార్చి	-12090
ీరును	-12091
ుషాము	-12092
ూలూను	-12093
ృష్టి	-12094
ెలును	-12095
్నాడు	-12096
్యవతి	-12097
్యోకు	-12098
్రాతా	-12099
ಂಗೊಂಡ	-12100
ಇದೇನು	-12101
ಎತ್ತು	-12102
ಎದ್ದು	-12103
ಕಾಯಿನ	-12104
ಕುಮಾರ	-12105
ಕೊಂಡಿ	-12106
ಗಾಲವೂ	-12107
ಡುವನು	-12108
ತ್ವವು	-12109
ದರೊಳಗ	-12110
ದವನಾದ	-12111
ದಿಗಳು	-12112
ನಮ್ಮಿ	-12113
ನಾದರೂ	-12114
ನಾಹೋರ	-12115
ಪಡಬೇಡ	-12116
ಪ್ಪಿನ	-12117
ಫ್ರೇಟ	-12118
ಬಂದವು	-12119
ಮಸ್ಕದ	-12120
ಮಾಡದೆ	-12121
ಮೃಗವು	-12122
ಯಾಮಿನ	-12123
ರಬೇಕು	-12124
ರಿಗಳು	-12125
ರುವದು	-12126
ರೆಂದೂ	-12127
ರ್ಥ್ಯ	-12128
ಲಾರಂಭ	-12129
ಲಿರುವ	-12130
ಲ್ಲವೋ	-12131
ಳ್ಳವು	-12132
ವನಿಗೂ	-12133
ವನಿಗೆ	-12134
ವಳಿಗೆ	-12135
ವಾದರೂ	-12136
ವಾದಾಗ	-12137
ವುಗಳೇ	-12138
ಸಂದಿಯ	-12139
ಸಾಕಾರ	-12140
ಸಾರಿನ	-12141
ಹ್ಯರೂ	-12142
ಾಗಿಯೇ	-12143
ಾನ್ಯರ	-12144
ಿಗೆಗೂ	-12145
ಿದ್ದಿ	-12146
ಿಬ್ಬರ	-12147
ೀಯೇಲ್	-12148
ುಗಳಿಗ	-12149
ುವೆನು	-12150
ುಷ್ಯದ	-12151
ೂರಿಗೆ	-12152
ೆಪಟ್ಟ	-12153
ೆರೆಚ್	-12154
ೆಲೋಹೇ	-12155
▁Aner	-12156
▁Baal	-12157
▁Cher	-12158
▁Elon	-12159
▁Fear	-12160
▁Girg	-12161
▁Hori	-12162
▁Irad	-12163
▁Know	-12164
▁Lest	-12165
▁Lift	-12166
▁Make	-12167
▁Mesh	-12168
▁Nine	-12169
▁Omar	-12170
▁Reph	-12171
▁Sabt	-12172
▁Saul	-12173
▁Send	-12174
▁Succ	-12175
▁afar	-12176
▁bake	-12177
▁bone	-12178
▁bord	-12179
▁calf	-12180
▁doth	-12181
▁embr	-12182
▁ewes	-12183
▁fall	-12184
▁feeb	-12185
▁feel	-12186
▁forg	-12187
▁gift	-12188
▁grac	-12189
▁harp	-12190
▁hate	-12191
▁heat	-12192
▁heed	-12193
▁heel	-12194
▁held	-12195
▁help	-12196
▁hunt	-12197
▁just	-12198
▁kids	-12199
▁kiss	-12200
▁lack	-12201
▁lamb	-12202
▁like	-12203
▁mean	-12204
▁mess	-12205
▁mind	-12206
▁offe	-12207
▁plag	-12208
▁rank	-12209
▁rise	-12210
▁salt	-12211
▁sand	-12212
▁save	-12213
▁scat	-12214
▁seek	-12215
▁shed	-12216
▁side	-12217
▁soon	-12218
▁unaw	-12219
▁wear	-12220
▁week	-12221
▁wise	-12222
▁अकान	-12223
▁अनाज	-12224
▁अन्न	-12225
▁अर्थ	-12226
▁आनेर	-12227
▁आराम	-12228
▁आशेर	-12229
▁ईराद	-12230
▁उचित	-12231
▁उठता	-12232
▁उठने	-12233
▁उतरे	-12234
▁उपाय	-12235
▁ऊंचा	-12236
▁एड़ी	-12237
▁एनैम	-12238
▁एलोन	-12239
▁ओमार	-12240
▁कछार	-12241
▁कठिन	-12242
▁करनी	-12243
▁कराई	-12244
▁काठी	-12245
▁कालह	-12246
▁कैसी	-12247
▁खड़ी	-12248
▁खड़े	-12249
▁खण्ड	-12250
▁खराई	-12251
▁खाता	-12252
▁खींच	-12253
▁खोदे	-12254
▁खोली	-12255
▁गन्ध	-12256
▁गिरा	-12257
▁गुणा	-12258
▁घेरे	-12259
▁चरने	-12260
▁चलें	-12261
▁चारा	-12262
▁चौथी	-12263
▁चौदह	-12264
▁छड़ी	-12265
▁छुरी	-12266
▁जांघ	-12267
▁जाके	-12268
▁जिन्	-12269
▁जीते	-12270
▁जोड़	-12271
▁डंठी	-12272
▁डलवा	-12273
▁ढ़ाप	-12274
▁ताकि	-12275
▁ताड़	-12276
▁तुझी	-12277
▁तोले	-12278
▁देखे	-12279
▁दौड़	-12280
▁धरती	-12281
▁धारा	-12282
▁धीरे	-12283
▁धुआं	-12284
▁नाले	-12285
▁निगल	-12286
▁नियत	-12287
▁पकाई	-12288
▁पन्द	-12289
▁पहिन	-12290
▁पुआल	-12291
▁पूरब	-12292
▁पूले	-12293
▁फाड़	-12294
▁बढ़ो	-12295
▁बरबस	-12296
▁बारी	-12297
▁बासठ	-12298
▁बिगा	-12299
▁बुरी	-12300
▁बेटा	-12301
▁बोली	-12302
▁भलाई	-12303
▁भस्म	-12304
▁मध्य	-12305
▁मानो	-12306
▁मारा	-12307
▁मिटा	-12308
▁मुहर	-12309
▁यत्न	-12310
▁यबूस	-12311
▁रखकर	-12312
▁रखें	-12313
▁रहित	-12314
▁रामा	-12315
▁रेहन	-12316
▁रोने	-12317
▁रोया	-12318
▁लाता	-12319
▁लेने	-12320
▁वाली	-12321
▁शब्द	-12322
▁शाऊल	-12323
▁संकट	-12324
▁समाई	-12325
▁समूह	-12326
▁ससुर	-12327
▁साथी	-12328
▁सिंच	-12329
▁सीधा	-12330
▁सीमा	-12331
▁सूखी	-12332
▁सेवक	-12333
▁सोता	-12334
▁सोहर	-12335
▁हीरा	-12336
▁हुईं	-12337
▁होवे	-12338
▁అగాధ	-12339
▁అట్ల	-12340
▁అతడి	-12341
▁అన్య	-12342
▁ఆత్మ	-12343
▁ఆరిన	-12344
▁ఇందు	-12345
▁ఇకను	-12346
▁ఇటిక	-12347
▁ఇప్ప	-12348
▁ఇసుక	-12349
▁ఉభయు	-12350
▁ఎఱ్ఱ	-12351
▁ఎల్ల	-12352
▁ఎవని	-12353
▁ఏర్ప	-12354
▁ఒకటి	-12355
▁ఒకరి	-12356
▁కటిక	-12357
▁కడియ	-12358
▁కత్త	-12359
▁కప్ప	-12360
▁కఱ్ఱ	-12361
▁కాచు	-12362
▁కాడు	-12363
▁కామె	-12364
▁కుడి	-12365
▁కురి	-12366
▁కొంత	-12367
▁కౌగల	-12368
▁ఖైదీ	-12369
▁గద్ద	-12370
▁గలది	-12371
▁గలవి	-12372
▁గాదు	-12373
▁గుంప	-12374
▁గోపు	-12375
▁చల్ల	-12376
▁చెడు	-12377
▁చేని	-12378
▁చేరి	-12379
▁జరిగ	-12380
▁జీవు	-12381
▁జేయు	-12382
▁టిని	-12383
▁టిలో	-12384
▁డతడు	-12385
▁తమకు	-12386
▁తమలో	-12387
▁తరుమ	-12388
▁తారు	-12389
▁తాళి	-12390
▁తెరవ	-12391
▁తెరి	-12392
▁తేరి	-12393
▁తోడు	-12394
▁తోను	-12395
▁దక్క	-12396
▁దర్శ	-12397
▁దాగు	-12398
▁దాచి	-12399
▁దాటు	-12400
▁దూరమ	-12401
▁దేమి	-12402
▁దేవా	-12403
▁దోచు	-12404
▁నన్న	-12405
▁నప్ప	-12406
▁నఫ్త	-12407
▁నమస్	-12408
▁నవి్	-12409
▁నహతు	-12410
▁నాడు	-12411
▁నాసి	-12412
▁నెను	-12413
▁నెబా	-12414
▁నేని	-12415
▁పగటి	-12416
▁పనలు	-12417
▁పరము	-12418
▁పరలో	-12419
▁పరిశ	-12420
▁పేరట	-12421
▁పోసి	-12422
▁ప్రయ	-12423
▁బయల్	-12424
▁బాగు	-12425
▁బావు	-12426
▁బేయే	-12427
▁మంచు	-12428
▁మండి	-12429
▁మందల	-12430
▁మనతో	-12431
▁మన్న	-12432
▁మన్య	-12433
▁మాతో	-12434
▁మిబ్	-12435
▁మీదట	-12436
▁మీలో	-12437
▁ముగా	-12438
▁మూసి	-12439
▁మేయు	-12440
▁యిది	-12441
▁యెబూ	-12442
▁యేలు	-12443
▁యైదు	-12444
▁యోమె	-12445
▁రమ్య	-12446
▁రాగా	-12447
▁రాళ్	-12448
▁రుని	-12449
▁రులు	-12450
▁లాబా	-12451
▁లును	-12452
▁లూజు	-12453
▁లేడు	-12454
▁లేదు	-12455
▁లేవి	-12456
▁లోను	-12457
▁వెవర	-12458
▁వేయు	-12459
▁వేరై	-12460
▁షావే	-12461
▁సంపద	-12462
▁సత్క	-12463
▁సత్య	-12464
▁సబ్త	-12465
▁సమూహ	-12466
▁సారి	-12467
▁సెపో	-12468
▁స్వత	-12469
▁హతము	-12470
▁హదదు	-12471
▁హదరు	-12472
▁హాయి	-12473
▁హీరా	-12474
▁ಅಂತೂ	-12475
▁ಅಕ್ಬ	-12476
▁ಅಡಗಿ	-12477
▁ಅಮ್ಮ	-12478
▁ಅಮ್ರ	-12479
▁ಅರಸನ	-12480
▁ಅಲೆದ	-12481
▁ಅವಳಿ	-12482
▁ಆಗಲಿ	-12483
▁ಆದರೂ	-12484
▁ಇಪ್ಪ	-12485
▁ಈಕೆಯ	-12486
▁ಈರಾದ	-12487
▁ಉರಿಯ	-12488
▁ಉಳಿಯ	-12489
▁ಊರಿನ	-12490
▁ಎಪ್ಪ	-12491
▁ಎಷ್ಟ	-12492
▁ಏರುವ	-12493
▁ಏಳುವ	-12494
▁ಏಳೇಳ	-12495
▁ಒಟ್ಟ	-12496
▁ಒಯ್ಯ	-12497
▁ಓನಾನ	-12498
▁ಕನ್ಯ	-12499
▁ಕರುವ	-12500
▁ಕರೆದ	-12501
▁ಕಲ್ಪ	-12502
▁ಕಳವಳ	-12503
▁ಕಾಡು	-12504
▁ಕಾಯಿ	-12505
▁ಕೂಗಿ	-12506
▁ಕೂಗು	-12507
▁ಕೂಷ್	-12508
▁ಕೆಲಹ	-12509
▁ಕೈಯೂ	-12510
▁ಕೊಡದ	-12511
▁ಕೋಲು	-12512
▁ಕ್ರಯ	-12513
▁ಗಾಢನ	-12514
▁ಗ್ಯೂ	-12515
▁ಚರ್ಮ	-12516
▁ಚೆಫೋ	-12517
▁ಚೋಗರ	-12518
▁ತಂಪೂ	-12519
▁ತಲೆಯ	-12520
▁ತಾತ್	-12521
▁ತಾಯಿ	-12522
▁ತಿದ್	-12523
▁ತೂಕದ	-12524
▁ದರ್ಶ	-12525
▁ದಾಟಿ	-12526
▁ದಿಂದ	-12527
▁ದಿನಗ	-12528
▁ದೋಣಿ	-12529
▁ಧನ್ಯ	-12530
▁ನಗುವ	-12531
▁ನಮಗೂ	-12532
▁ನಹತ್	-12533
▁ನಿಗೂ	-12534
▁ನೀರಿ	-12535
▁ನುಣು	-12536
▁ನೆನಸ	-12537
▁ನೇಮಕ	-12538
▁ಪಡೆದ	-12539
▁ಪಾಲು	-12540
▁ಪೂರೈ	-12541
▁ಪ್ರಸ	-12542
▁ಫರೋಹ	-12543
▁ಬಂಜೆ	-12544
▁ಬಂದಿ	-12545
▁ಬಂಧು	-12546
▁ಬಟ್ಟ	-12547
▁ಬರವು	-12548
▁ಬಳ್ಳ	-12549
▁ಬೇಕು	-12550
▁ಮಂದೆ	-12551
▁ಮನೋವ	-12552
▁ಮರಣದ	-12553
▁ಮಲಗು	-12554
▁ಮೇಕೆ	-12555
▁ಮೊಳದ	-12556
▁ಯಾವದ	-12557
▁ಯೆಹೋ	-12558
▁ರಗ್ಮ	-12559
▁ರಮ್ಯ	-12560
▁ರೂಪವ	-12561
▁ಲೇವಿ	-12562
▁ಳಿಗೆ	-12563
▁ವಾಕ್	-12564
▁ಶಾವೆ	-12565
▁ಶೂಗನ	-12566
▁ಶೆಬಾ	-12567
▁ಶ್ರಮ	-12568
▁ಸಣ್ಣ	-12569
▁ಸಬ್ತ	-12570
▁ಸಮ್ಮ	-12571
▁ಸುಂದ	-12572
▁ಹಗಲು	-12573
▁ಹಗಲೂ	-12574
▁ಹವ್ವ	-12575
▁ಹಾಮನ	-12576
anches	-12577
asseth	-12578
egrity	-12579
engers	-12580
eturah	-12581
icians	-12582
iously	-12583
iquity	-12584
isance	-12585
lenish	-12586
oubled	-12587
raphel	-12588
sachar	-12589
strils	-12590
teenth	-12591
ulchre	-12592
vender	-12593
जूबन्द	-12594
प्ताली	-12595
बल्कैन	-12596
भिलाषी	-12597
्साकार	-12598
ందువలన	-12599
కాలమున	-12600
కుండుట	-12601
కొనును	-12602
క్కువై	-12603
క్కోతు	-12604
క్బోరు	-12605
క్రమము	-12606
క్షాను	-12607
గలవాడు	-12608
గొట్టి	-12609
గ్గరగా	-12610
గ్రత్త	-12611
చమైనదా	-12612
చేతిని	-12613
చేయుడి	-12614
జంతువు	-12615
టకైనను	-12616
ట్టికీ	-12617
ట్టియు	-12618
ట్టెలు	-12619
డగునని	-12620
ఢనిద్ర	-12621
తండ్రి	-12622
తనమందు	-12623
దాస్తి	-12624
దియునై	-12625
ద్వారా	-12626
నాకును	-12627
నివాడు	-12628
నివారణ	-12629
నీవేమి	-12630
నుకొని	-12631
న్నారు	-12632
పుకొని	-12633
పోకుండ	-12634
పోయెనో	-12635
ప్పును	-12636
ఫలమును	-12637
బుచ్చు	-12638
మందియే	-12639
మార్తె	-12640
మార్లు	-12641
ముకలలో	-12642
ములోని	-12643
యకుండు	-12644
యిల్లు	-12645
యుండిన	-12646
యేండ్ల	-12647
ర్మమున	-12648
లనైనను	-12649
లాయెను	-12650
లిచ్చి	-12651
లిపోయి	-12652
లుండిన	-12653
ల్లును	-12654
వదూతలు	-12655
వద్దని	-12656
వస్త్ర	-12657
వాటిని	-12658
వారికి	-12659
వారిలో	-12660
వారును	-12661
వాసమున	-12662
విడిచి	-12663
వృద్ధి	-12664
షుకును	-12665
స్థులు	-12666
ానముగా	-12667
ారహితు	-12668
ావల్లి	-12669
ించుచు	-12670
ింపలేక	-12671
ీయులకు	-12672
ెననెను	-12673
్రసాని	-12674
్రోనను	-12675
ಂತಿರುವ	-12676
ಇಸಾಕನು	-12677
ಐಗುಪ್ತ	-12678
ಕರಲ್ಲಿ	-12679
ತಲಾಂತರ	-12680
ತಿಹೊಂದ	-12681
ತ್ತಾರೆ	-12682
ತ್ತಿಯು	-12683
ತ್ತೆನು	-12684
ದಿಟ್ಟು	-12685
ದೇವರಾದ	-12686
ದ್ರೆಯೂ	-12687
ಧಿಕವಾದ	-12688
ನ್ಯಾವಿ	-12689
ಬೇಕೆಂದ	-12690
ಭೂಮಿಯು	-12691
ಮಾಡಿಸಿ	-12692
ರವನ್ನೂ	-12693
ಲ್ಲಿಗೆ	-12694
ಳವಾಯಿಯ	-12695
ಳಿಗಿಂತ	-12696
ಳ್ಹಾನಾ	-12697
ವನಾಗುವ	-12698
ವಲ್ಲದೆ	-12699
ವಾಗಿರು	-12700
ವಿಚಾರಕ	-12701
ಸಮಾಚಾರ	-12702
ಾಗುವನು	-12703
ಾಗುವರು	-12704
ಾತ್ತಾಪ	-12705
ಾನ್ಯರು	-12706
ಾಯೇಲನು	-12707
ಾರೆಂದು	-12708
ಿಯುಳ್ಳ	-12709
ಿಯೆಂದು	-12710
ಿಸಿದರೆ	-12711
ಿಸುವರು	-12712
ಿಸುವಾಗ	-12713
ೀಮಗನಾದ	-12714
▁Asher	-12715
▁Babel	-12716
▁Calah	-12717
▁Euphr	-12718
▁Gatam	-12719
▁Gomer	-12720
▁Hadad	-12721
▁Hadar	-12722
▁Hirah	-12723
▁Javan	-12724
▁Jebus	-12725
▁Lahai	-12726
▁Sidon	-12727
▁Tidal	-12728
▁Timna	-12729
▁Zepho	-12730
▁Zohar	-12731
▁alone	-12732
▁anger	-12733
▁angry	-12734
▁bands	-12735
▁brick	-12736
▁camel	-12737
▁chose	-12738
▁clave	-12739
▁dealt	-12740
▁dowry	-12741
▁dread	-12742
▁dress	-12743
▁faint	-12744
▁fifth	-12745
▁fugit	-12746
▁grass	-12747
▁grown	-12748
▁hadst	-12749
▁hence	-12750
▁knife	-12751
▁lands	-12752
▁least	-12753
▁lodge	-12754
▁loins	-12755
▁lying	-12756
▁moved	-12757
▁named	-12758
▁never	-12759
▁north	-12760
▁nurse	-12761
▁reach	-12762
▁saith	-12763
▁sheaf	-12764
▁shear	-12765
▁sinew	-12766
▁sixth	-12767
▁skins	-12768
▁slain	-12769
▁slept	-12770
▁small	-12771
▁smoke	-12772
▁space	-12773
▁spare	-12774
▁stalk	-12775
▁still	-12776
▁straw	-12777
▁stuff	-12778
▁thous	-12779
▁trade	-12780
▁truly	-12781
▁truth	-12782
▁twins	-12783
▁vagab	-12784
▁waxed	-12785
▁wells	-12786
▁अकबोर	-12787
▁अधर्म	-12788
▁अनमोल	-12789
▁अम्रा	-12790
▁आंखों	-12791
▁आनन्द	-12792
▁आरम्भ	-12793
▁आरामी	-12794
▁उदासी	-12795
▁उन्ही	-12796
▁उपजाऊ	-12797
▁एमोरी	-12798
▁एल्ला	-12799
▁कटोरे	-12800
▁कतरने	-12801
▁कतूरा	-12802
▁कपड़ा	-12803
▁कराके	-12804
▁कितने	-12805
▁खिलाई	-12806
▁खोदते	-12807
▁गवाते	-12808
▁गहिरे	-12809
▁गाताम	-12810
▁गोमेर	-12811
▁गोयीम	-12812
▁चढ़कर	-12813
▁चढ़ाई	-12814
▁चमड़े	-12815
▁चराते	-12816
▁चराने	-12817
▁चुपके	-12818
▁चूमने	-12819
▁छठवां	-12820
▁जन्मी	-12821
▁जाओगे	-12822
▁जानती	-12823
▁जानते	-12824
▁जानूं	-12825
▁जितनी	-12826
▁ज्यों	-12827
▁झरोखे	-12828
▁झाड़ी	-12829
▁टंगवा	-12830
▁टिकने	-12831
▁टुकडे	-12832
▁टोकरी	-12833
▁ठहरकर	-12834
▁ठहरीं	-12835
▁डालने	-12836
▁डालें	-12837
▁ढिठाई	-12838
▁तिदाल	-12839
▁तीनों	-12840
▁तीसरा	-12841
▁तैयार	-12842
▁दमिश्	-12843
▁दसवें	-12844
▁दहिनी	-12845
▁देखनी	-12846
▁देवता	-12847
▁दोतान	-12848
▁धूर्त	-12849
▁नब्बे	-12850
▁निदान	-12851
▁निन्न	-12852
▁नीनवे	-12853
▁नीन्द	-12854
▁पकड़ा	-12855
▁पक्की	-12856
▁पराये	-12857
▁पसुली	-12858
▁पांति	-12859
▁प्रगट	-12860
▁प्रजा	-12861
▁फलदाई	-12862
▁फाड़े	-12863
▁फिरता	-12864
▁फिरते	-12865
▁फूलें	-12866
▁बचेगा	-12867
▁बछड़ा	-12868
▁बढ़ते	-12869
▁बढ़ने	-12870
▁बनाईं	-12871
▁बन्धा	-12872
▁बन्धी	-12873
▁बयासी	-12874
▁बसाया	-12875
▁बहेतू	-12876
▁बाबुल	-12877
▁बिताई	-12878
▁भतीजा	-12879
▁भतीजे	-12880
▁भागते	-12881
▁भाग्य	-12882
▁भौजाई	-12883
▁मारते	-12884
▁मिलने	-12885
▁मुखडे	-12886
▁मृदंग	-12887
▁यावान	-12888
▁रखेली	-12889
▁रोंआर	-12890
▁लगाकर	-12891
▁लहुरे	-12892
▁लालसा	-12893
▁वनपशु	-12894
▁वर्षा	-12895
▁वसन्त	-12896
▁विचार	-12897
▁विलाप	-12898
▁विवाह	-12899
▁शम्मा	-12900
▁शिबोन	-12901
▁शेकेल	-12902
▁श्वास	-12903
▁सत्ता	-12904
▁समझने	-12905
▁सम्ला	-12906
▁सहायक	-12907
▁साढ़े	-12908
▁सातों	-12909
▁सिद्ध	-12910
▁सीदोन	-12911
▁सुनके	-12912
▁सुनने	-12913
▁सुनाई	-12914
▁हथिया	-12915
▁हव्वा	-12916
▁हाजिर	-12917
▁हूशाम	-12918
▁అగ్ని	-12919
▁అట్టి	-12920
▁అడిగి	-12921
▁అడుగు	-12922
▁అనుకొ	-12923
▁అన్ని	-12924
▁అప్పు	-12925
▁అమాలే	-12926
▁అమ్రా	-12927
▁అరాము	-12928
▁అవమాన	-12929
▁అవును	-12930
▁ఆనేరు	-12931
▁ఆమెయే	-12932
▁ఆయనతో	-12933
▁ఆషేరు	-12934
▁ఇంకను	-12935
▁ఇట్లు	-12936
▁ఇయ్యు	-12937
▁ఇశ్శా	-12938
▁ఈరాదు	-12939
▁ఈలాగు	-12940
▁ఉప్పు	-12941
▁ఎత్తు	-12942
▁ఎరుగు	-12943
▁ఎల్లా	-12944
▁ఏటిలో	-12945
▁ఏడును	-12946
▁ఒంటెల	-12947
▁ఓమారు	-12948
▁కడవలో	-12949
▁కనిరి	-12950
▁కప్పి	-12951
▁కస్లూ	-12952
▁కాపుర	-12953
▁కాలహు	-12954
▁కృపను	-12955
▁గంపలు	-12956
▁గుహను	-12957
▁గుహయు	-12958
▁గ్రుం	-12959
▁చచ్చి	-12960
▁చీకటి	-12961
▁చీల్చ	-12962
▁చెట్ల	-12963
▁చెరిప	-12964
▁జగడమా	-12965
▁జోలిక	-12966
▁తరిమి	-12967
▁తింటి	-12968
▁తూబల్	-12969
▁తొడగూ	-12970
▁తొడిగ	-12971
▁తోటను	-12972
▁తోటలో	-12973
▁దాహమి	-12974
▁దించి	-12975
▁దూడను	-12976
▁దూతనీ	-12977
▁దూతను	-12978
▁దొంగి	-12979
▁ద్వేష	-12980
▁ధాన్య	-12981
▁నందున	-12982
▁నగలను	-12983
▁నడిచి	-12984
▁నడువగ	-12985
▁నరుడు	-12986
▁నిండు	-12987
▁నింపు	-12988
▁నిన్న	-12989
▁నీవలన	-12990
▁నెరవే	-12991
▁నేనొక	-12992
▁నేలకు	-12993
▁నైనను	-12994
▁న్యాయ	-12995
▁పక్షి	-12996
▁పదునా	-12997
▁పీఠము	-12998
▁పేరుల	-12999
▁పోతీఫ	-13000
▁ప్రథమ	-13001
▁బడెను	-13002
▁బలవంత	-13003
▁బలహీన	-13004
▁భయపడు	-13005
▁భాషను	-13006
▁భూలోక	-13007
▁మందిర	-13008
▁మతూషా	-13009
▁మత్తు	-13010
▁మహూయా	-13011
▁మాటకు	-13012
▁మింగి	-13013
▁మిగుల	-13014
▁మిజ్జ	-13015
▁మీదనే	-13016
▁ముట్ట	-13017
▁ముద్ర	-13018
▁ములను	-13019
▁మృగము	-13020
▁మేతయు	-13021
▁మైనవి	-13022
▁మొన్న	-13023
▁మోయాబ	-13024
▁యముగా	-13025
▁యములో	-13026
▁యుంచు	-13027
▁యూఫ్ర	-13028
▁యెవరు	-13029
▁యైనను	-13030
▁రమ్ము	-13031
▁రయూను	-13032
▁రాకను	-13033
▁రాయమా	-13034
▁రెక్క	-13035
▁రెఫాయ	-13036
▁రోమము	-13037
▁లేకయు	-13038
▁లేరని	-13039
▁వట్టి	-13040
▁వాకిట	-13041
▁వాడైన	-13042
▁వారము	-13043
▁వారిన	-13044
▁విడిప	-13045
▁విభాగ	-13046
▁విశాల	-13047
▁వేటగా	-13048
▁శపించ	-13049
▁శవ్లూ	-13050
▁షమ్మా	-13051
▁షేబను	-13052
▁సంగతు	-13053
▁సమాధి	-13054
▁సించు	-13055
▁సెబోయ	-13056
▁సోహరు	-13057
▁హత్తు	-13058
▁ಅಡ್ಡಿ	-13059
▁ಅಬ್ರಾ	-13060
▁ಅರಾಮನ	-13061
▁ಅರಿಯದ	-13062
▁ಅರಿಯೋ	-13063
▁ಅಲ್ಲೇ	-13064
▁ಅವಮಾನ	-13065
▁ಆಣೆಯಿ	-13066
▁ಆಲೈಸಿ	-13067
▁ಇದೆಯೋ	-13068
▁ಇರುವಿ	-13069
▁ಇಲ್ಲದ	-13070
▁ಇಳಿಸಿ	-13071
▁ಈಯಿತು	-13072
▁ಉಂಟಾದ	-13073
▁ಉತ್ತಮ	-13074
▁ಎಂಬದೇ	-13075
▁ಎಚ್ಚೆ	-13076
▁ಎತ್ತರ	-13077
▁ಎತ್ತು	-13078
▁ಎನೋಷ್	-13079
▁ಎಲುಬೂ	-13080
▁ಎಲ್ಲರ	-13081
▁ಏಚೆರ್	-13082
▁ಏರಿತು	-13083
▁ಏಲೋನನ	-13084
▁ಐದನೆಯ	-13085
▁ಒಣನೆಲ	-13086
▁ಒಬ್ಬನ	-13087
▁ಓಮಾರ್	-13088
▁ಕಟ್ಟು	-13089
▁ಕಡೆಗೂ	-13090
▁ಕತ್ತಿ	-13091
▁ಕತ್ತೆ	-13092
▁ಕದ್ದು	-13093
▁ಕನ್ನಿ	-13094
▁ಕಷ್ಟಪ	-13095
▁ಕಾದೇಶ	-13096
▁ಕಿತ್ತ	-13097
▁ಕಿರ್ಯ	-13098
▁ಕೀಲಿನ	-13099
▁ಕೂಡಲೆ	-13100
▁ಕೆಟೂರ	-13101
▁ಕೆರೂಬ	-13102
▁ಕೆಲಸದ	-13103
▁ಕೈಹಾಕ	-13104
▁ಗತಾಮ್	-13105
▁ಗಲೇದ್	-13106
▁ಗಿರುವ	-13107
▁ಗುಂಪು	-13108
▁ಚಿಂತೆ	-13109
▁ಚೆಲ್ಲ	-13110
▁ಚೋಹರನ	-13111
▁ಜನಗಳು	-13112
▁ಜೀವನದ	-13113
▁ಟೆಬಹನ	-13114
▁ತಂಗಿಯ	-13115
▁ತಗ್ಗಿ	-13116
▁ತಗ್ಗು	-13117
▁ತಡೆದು	-13118
▁ತರವಾದ	-13119
▁ತುಂಬಿ	-13120
▁ತೆಗೆದ	-13121
▁ತೆಗೆಯ	-13122
▁ತೋವೆಯ	-13123
▁ದಯೆದೊ	-13124
▁ದರಿಂದ	-13125
▁ದಿಕ್ಕ	-13126
▁ದಿನವೇ	-13127
▁ದೂತರು	-13128
▁ದ್ದಾಗ	-13129
▁ದ್ವೇಷ	-13130
▁ಧಾನ್ಯ	-13131
▁ಧೂಳಿನ	-13132
▁ನಕ್ಕು	-13133
▁ನದಿಯು	-13134
▁ನಲ್ಲಿ	-13135
▁ನಾಣ್ಯ	-13136
▁ನಿಜವೋ	-13137
▁ನಿನವೆ	-13138
▁ನುಂಗಿ	-13139
▁ನೆಂದು	-13140
▁ನೋಡಲು	-13141
▁ನೋಹನೂ	-13142
▁ಪರದೇಶ	-13143
▁ಪಾಪವು	-13144
▁ಪುಟ್ಟ	-13145
▁ಪುರುಷ	-13146
▁ಪ್ರತಿ	-13147
▁ಬಂದವು	-13148
▁ಬಲವಂತ	-13149
▁ಬಲವಾದ	-13150
▁ಬಲಹೀನ	-13151
▁ಬೆನ್ನ	-13152
▁ಬೆಳೆದ	-13153
▁ಬೆಳೆಯ	-13154
▁ಬೇಕಾದ	-13155
▁ಭೂಮುಖ	-13156
▁ಭೂಮೃಗ	-13157
▁ಮಂತ್ರ	-13158
▁ಮನಸ್ಸ	-13159
▁ಮಮ್ರೆ	-13160
▁ಮರಳಿನ	-13161
▁ಮರೆತು	-13162
▁ಮಾಕಾನ	-13163
▁ಮಾಡದೆ	-13164
▁ಮಿಚ್ರ	-13165
▁ಮುಸುಕ	-13166
▁ಮೆಹೂಯ	-13167
▁ಮೊಮ್ಮ	-13168
▁ಮೋವಾಬ	-13169
▁ಯರಿಗೂ	-13170
▁ಯಲ್ಲಿ	-13171
▁ಯುದ್ಧ	-13172
▁ಯೆಫೆತ	-13173
▁ಯೊಕ್ಷ	-13174
▁ಯೋಬಾಬ	-13175
▁ರಕ್ತದ	-13176
▁ರಾಜ್ಯ	-13177
▁ರೆಫಾಯ	-13178
▁ಲ್ಲದೆ	-13179
▁ಳಗಿಂದ	-13180
▁ಳನ್ನು	-13181
▁ವಂಚನೆ	-13182
▁ವನಿಗೂ	-13183
▁ವರಿಗೆ	-13184
▁ವೃದ್ಧ	-13185
▁ಶತ್ರು	-13186
▁ಶಮ್ಮಾ	-13187
▁ಶಿಕ್ಷ	-13188
▁ಶೂರಿನ	-13189
▁ಶೇಮನು	-13190
▁ಸಂತೋಷ	-13191
▁ಸಮಸ್ತ	-13192
▁ಸಮ್ಲಾ	-13193
▁ಸಹಸ್ರ	-13194
▁ಸಾರಳೂ	-13195
▁ಸಾಲದೆ	-13196
▁ಸೀಮೆಯ	-13197
▁ಸುದ್ದ	-13198
▁ಸುಮ್ಮ	-13199
▁ಸೌಲನು	-13200
▁ಸ್ವರೂ	-13201
▁ಹದದನು	-13202
▁ಹನೋಕನ	-13203
▁ಹಮೋರನ	-13204
▁ಹರಿದು	-13205
▁ಹಾಮನು	-13206
▁ಹುಡಿಕ	-13207
▁ಹೂಣಿಡ	-13208
▁ಹೃದಯದ	-13209
▁ಹೆಬ್ಬ	-13210
▁ಹೊಂದಿ	-13211
▁ಹೊಗೆಯ	-13212
▁ಹೋಗವು	-13213
▁ಹೋಗೋಣ	-13214
▁ಹೋದಳು	-13215
cending	-13216
entiles	-13217
न्यामीन	-13218
फुल्लित	-13219
ल्हानान	-13220
वासियों	-13221
ంచితిని	-13222
ంటినరము	-13223
ండ్లును	-13224
కాబట్టి	-13225
కారముతో	-13226
కాలమును	-13227
కొందమని	-13228
కొందురు	-13229
చేయుటకు	-13230
చేయుమని	-13231
జీయులను	-13232
జేసెదను	-13233
టిననెను	-13234
టిబుగ్గ	-13235
డునట్లు	-13236
తట్టును	-13237
తివనెను	-13238
తోఇదిగో	-13239
త్వమును	-13240
దిక్కున	-13241
దుమనిరి	-13242
ధీనపరచు	-13243
నుండిరి	-13244
న్నాడని	-13245
పడుదురు	-13246
పుతట్టు	-13247
మంచిదని	-13248
మనుష్యు	-13249
మీయులను	-13250
ముకలిగి	-13251
మైనదియు	-13252
మ్యాకాశ	-13253
యుచున్న	-13254
యునుగాక	-13255
య్యలేదు	-13256
ర్తయును	-13257
వాడైనను	-13258
వైనందున	-13259
వైయున్న	-13260
ించుటకై	-13261
ించుడని	-13262
ించెదవు	-13263
ಂದಿನಿಂದ	-13264
ಂಬದಕ್ಕೆ	-13265
ಅವಳನ್ನು	-13266
ಕುಮಾರರು	-13267
ಗಿದ್ದರೆ	-13268
ಗುಂದಿತು	-13269
ಟ್ಟಿಗಳು	-13270
ತ್ತೆರಡು	-13271
ದಿಂಬಾಗಿ	-13272
ದ್ದೆಲ್ಲ	-13273
ನಾಗಿರಲಿ	-13274
ನಾಗಿರುವ	-13275
ನ್ನಾಗಲಿ	-13276
ಬನ್ನಿರಿ	-13277
ಭಾಗಕ್ಕೂ	-13278
ಮಾಡಿದರೆ	-13279
ಮಾಡುವದು	-13280
ಮ್ರೋದನು	-13281
ರೆಲ್ಲರೂ	-13282
ಲಿಲ್ಲವೋ	-13283
ಲ್ಲುಗಾವ	-13284
ಳೆಂಬವಳು	-13285
ವಾದದ್ದು	-13286
ವೇಲನಿಂದ	-13287
ಾರ್ಥವಾದ	-13288
ಿದಾಗ್ಯೂ	-13289
ಿದ್ದೀರಿ	-13290
ಿಸಬಹುದೋ	-13291
ಿಸುವಂತೆ	-13292
ುಗಳನ್ನೂ	-13293
ುವದಿಲ್ಲ	-13294
ೆಗಳಲ್ಲಿ	-13295
ೆಲಹನಿಂದ	-13296
ೇಕಿಚ್ಚು	-13297
▁Achbor	-13298
▁Arioch	-13299
▁Dothan	-13300
▁Galeed	-13301
▁Husham	-13302
▁Mizzah	-13303
▁Nahath	-13304
▁Nimrod	-13305
▁Raamah	-13306
▁Samlah	-13307
▁Shaveh	-13308
▁answer	-13309
▁appear	-13310
▁beside	-13311
▁bowels	-13312
▁bruise	-13313
▁caught	-13314
▁charge	-13315
▁closed	-13316
▁coming	-13317
▁desire	-13318
▁disple	-13319
▁either	-13320
▁eleven	-13321
▁feared	-13322
▁finish	-13323
▁goodly	-13324
▁grapes	-13325
▁hanged	-13326
▁itself	-13327
▁jewels	-13328
▁kindly	-13329
▁length	-13330
▁lodged	-13331
▁matter	-13332
▁meadow	-13333
▁moving	-13334
▁myself	-13335
▁nights	-13336
▁pilled	-13337
▁places	-13338
▁plenty	-13339
▁profit	-13340
▁pulled	-13341
▁repent	-13342
▁riches	-13343
▁rolled	-13344
▁seemed	-13345
▁sevens	-13346
▁shrank	-13347
▁signet	-13348
▁smooth	-13349
▁spirit	-13350
▁sprung	-13351
▁strife	-13352
▁strive	-13353
▁subtil	-13354
▁theirs	-13355
▁trough	-13356
▁virgin	-13357
▁weaned	-13358
▁weight	-13359
▁अंगरखे	-13360
▁अप्रिय	-13361
▁अमालेक	-13362
▁अर्योक	-13363
▁इन्हीं	-13364
▁उतारके	-13365
▁एश्कोल	-13366
▁कठौतों	-13367
▁कतराने	-13368
▁कर्मचा	-13369
▁किनारे	-13370
▁कुमारी	-13371
▁खाऊंगा	-13372
▁गाड़के	-13373
▁गिर्गा	-13374
▁चौड़ाई	-13375
▁छूटेगा	-13376
▁जबूलून	-13377
▁जवानों	-13378
▁जाऊंगी	-13379
▁जुड़वे	-13380
▁झुकाकर	-13381
▁टटोलते	-13382
▁टटोलने	-13383
▁ठहरेगा	-13384
▁ढूंढता	-13385
▁दण्डवत	-13386
▁दशमांश	-13387
▁दाखलता	-13388
▁पकड़कर	-13389
▁पच्छिम	-13390
▁पड़ेगा	-13391
▁पदार्थ	-13392
▁परिवार	-13393
▁पशचात्	-13394
▁पहुंची	-13395
▁पांचों	-13396
▁पाएंगे	-13397
▁पिलाकर	-13398
▁पिलाते	-13399
▁पीड़ित	-13400
▁पोतीपर	-13401
▁प्रकाश	-13402
▁फुलाऊं	-13403
▁बजवाते	-13404
▁बन्धुआ	-13405
▁बातचीत	-13406
▁भगोड़ा	-13407
▁भाईयों	-13408
▁मण्डली	-13409
▁मिज्जा	-13410
▁मिलेगी	-13411
▁मुखड़े	-13412
▁रहोबोत	-13413
▁राजाओं	-13414
▁रेंगते	-13415
▁लम्बाई	-13416
▁लांघकर	-13417
▁लिपटकर	-13418
▁लेनदेन	-13419
▁लौन्डी	-13420
▁वर्षों	-13421
▁विलम्ब	-13422
▁वेश्या	-13423
▁व्यापा	-13424
▁सत्तरह	-13425
▁सप्ताह	-13426
▁समानता	-13427
▁समाप्त	-13428
▁समुदाय	-13429
▁सियाना	-13430
▁हिव्वी	-13431
▁होनहार	-13432
▁అంగీని	-13433
▁అడవికి	-13434
▁అతడింక	-13435
▁అదంతయు	-13436
▁అనబడదు	-13437
▁అన్నపా	-13438
▁ఇద్దరి	-13439
▁ఉండిరి	-13440
▁ఉన్నదో	-13441
▁ఎదోమను	-13442
▁ఎవడును	-13443
▁ఎవరును	-13444
▁ఏలుటకు	-13445
▁కనానను	-13446
▁కన్నుల	-13447
▁కానుపు	-13448
▁కాలువల	-13449
▁కిటికీ	-13450
▁కూడెను	-13451
▁కెతూరా	-13452
▁కొండకు	-13453
▁కొట్టు	-13454
▁కొనిరి	-13455
▁కొన్నా	-13456
▁కోపపడి	-13457
▁గడిచిన	-13458
▁గనుకను	-13459
▁గర్భము	-13460
▁గలవాడు	-13461
▁గలవాడై	-13462
▁గాతాము	-13463
▁గెలిచి	-13464
▁గొడ్లు	-13465
▁గోమెరు	-13466
▁చర్మము	-13467
▁చలించు	-13468
▁చూచినీ	-13469
▁చూచిరి	-13470
▁చెడ్డల	-13471
▁చెదరగొ	-13472
▁చెరసాల	-13473
▁చెల్లె	-13474
▁చేతికి	-13475
▁చేపలను	-13476
▁చేయును	-13477
▁చేయుము	-13478
▁చేర్చు	-13479
▁జనపదము	-13480
▁జనమును	-13481
▁జనులను	-13482
▁జాతిలో	-13483
▁జ్యోతు	-13484
▁తలగడగా	-13485
▁తలవంచి	-13486
▁తిదాలు	-13487
▁తినెను	-13488
▁తీగెలు	-13489
▁తెరచిన	-13490
▁తెలిపె	-13491
▁తెలియక	-13492
▁దమస్కు	-13493
▁దయచేసె	-13494
▁దరుడైన	-13495
▁దాసిగా	-13496
▁దీనాను	-13497
▁దెదాను	-13498
▁దేశమంద	-13499
▁ధనవంతు	-13500
▁ధర్మము	-13501
▁నందుకు	-13502
▁నలువది	-13503
▁నల్లని	-13504
▁నశించి	-13505
▁నాయందు	-13506
▁నాయకుల	-13507
▁నిమ్ము	-13508
▁నిమ్రో	-13509
▁నిర్ణయ	-13510
▁నిలుచు	-13511
▁నేనతని	-13512
▁నేనును	-13513
▁పగటిని	-13514
▁పచ్చని	-13515
▁పడకుండ	-13516
▁పడద్రో	-13517
▁పాతకము	-13518
▁పించిన	-13519
▁పుట్టి	-13520
▁పుత్రు	-13521
▁పెరిగి	-13522
▁పొందని	-13523
▁పోరాడి	-13524
▁పోలేదు	-13525
▁పోవిడి	-13526
▁పోసెను	-13527
▁ప్రయాస	-13528
▁ప్రాంత	-13529
▁ప్రీతి	-13530
▁బంగారు	-13531
▁బాధ్యత	-13532
▁బాబెలు	-13533
▁బావికి	-13534
▁బావిని	-13535
▁బెన్యా	-13536
▁బెయేర్	-13537
▁బొచ్చు	-13538
▁భావముల	-13539
▁భూమిపై	-13540
▁మంచిది	-13541
▁మందలను	-13542
▁మగదియు	-13543
▁మగవాడు	-13544
▁మర్యాద	-13545
▁మస్తకి	-13546
▁మాటలను	-13547
▁మిగిలి	-13548
▁మిస్రా	-13549
▁మీకును	-13550
▁మీరేమి	-13551
▁మునిగి	-13552
▁మునుపు	-13553
▁మెడమీద	-13554
▁మేకలలో	-13555
▁మ్రాను	-13556
▁యధార్థ	-13557
▁యాపెతు	-13558
▁యావాను	-13559
▁యిట్లు	-13560
▁యుండిన	-13561
▁యెక్కడ	-13562
▁యెత్తు	-13563
▁యెరిగి	-13564
▁యేడును	-13565
▁యేలును	-13566
▁రక్తము	-13567
▁రాకుండ	-13568
▁రాములో	-13569
▁రాళ్లు	-13570
▁రేణువు	-13571
▁లక్ష్య	-13572
▁లెత్తి	-13573
▁లేయాకు	-13574
▁లేయాయు	-13575
▁లోతుతో	-13576
▁వాయువు	-13577
▁విగ్రహ	-13578
▁విశ్రమ	-13579
▁విషయము	-13580
▁వృద్ధి	-13581
▁వెంబడి	-13582
▁వెళ్ళు	-13583
▁వేరుపర	-13584
▁వైధవ్య	-13585
▁శిఖరము	-13586
▁షావూలు	-13587
▁సర్పము	-13588
▁సీదోను	-13589
▁సృజించ	-13590
▁సెరూగు	-13591
▁సోయరను	-13592
▁హానాను	-13593
▁హాముతో	-13594
▁హుషాము	-13595
▁హెబ్రీ	-13596
▁ಅಂದೆನು	-13597
▁ಅಡವಿಗೆ	-13598
▁ಅನುಸಾರ	-13599
▁ಅರಾಮಿನ	-13600
▁ಅವಳಿಂದ	-13601
▁ಆತ್ಮನು	-13602
▁ಆದದ್ದೇ	-13603
▁ಆರುನೂರ	-13604
▁ಇದ್ದರೆ	-13605
▁ಇದ್ದಳು	-13606
▁ಇರುವನು	-13607
▁ಇಲ್ಲವೆ	-13608
▁ಇಸಾಕನೂ	-13609
▁ಉಂಟಾಗಿ	-13610
▁ಉದಾಸೀನ	-13611
▁ಉಪ್ಪಿನ	-13612
▁ಊಟಕ್ಕೆ	-13613
▁ಊಟಮಾಡಿ	-13614
▁ಎಚ್ಚರಿ	-13615
▁ಎಡಕ್ಕೆ	-13616
▁ಎದ್ದವು	-13617
▁ಎನೋಷನು	-13618
▁ಎಫ್ರಾತ	-13619
▁ಎಲೀಫಜನ	-13620
▁ಏದೆನಿನ	-13621
▁ಏನಂದರೆ	-13622
▁ಏಲಾಮಿನ	-13623
▁ಏಳುನೂರ	-13624
▁ಏಸಾವನೂ	-13625
▁ಒಬ್ಬನು	-13626
▁ಓಡಿಬಂದ	-13627
▁ಕಾಣಿಕೆ	-13628
▁ಕಾನಾನನ	-13629
▁ಕಾಪಾಡಿ	-13630
▁ಕಾಪಾಡು	-13631
▁ಕುರಿಮರ	-13632
▁ಕೂಡಿಸಿ	-13633
▁ಕೆಟ್ಟು	-13634
▁ಕೊಂಡಳು	-13635
▁ಕೊಡುವದ	-13636
▁ಕೊಡುವಿ	-13637
▁ಕೊರಳಿನ	-13638
▁ಕೋಪಿಸಿ	-13639
▁ಗಳೆಲ್ಲ	-13640
▁ಗೀರಾಮ್	-13641
▁ಗೋಸ್ಕರ	-13642
▁ಜಾರತ್ವ	-13643
▁ಜಿಲ್ಪಳ	-13644
▁ತಂದುಕೊ	-13645
▁ತಂದೆಗಳ	-13646
▁ತಂದೆಗೂ	-13647
▁ತಗ್ಗಿನ	-13648
▁ತಾಯಿಯೂ	-13649
▁ತಿಮ್ನಾ	-13650
▁ತಿಳಿಸಿ	-13651
▁ತಿಳಿಸು	-13652
▁ತೂಗಹಾಕ	-13653
▁ತೊಳೆದು	-13654
▁ದಮಸ್ಕದ	-13655
▁ದಯೆತೋರ	-13656
▁ದಾಸಿಯು	-13657
▁ದೀಶಾನ್	-13658
▁ದೆದಾನ್	-13659
▁ದೊಡ್ಡದ	-13660
▁ನಡೆದನು	-13661
▁ನನಗಿಂತ	-13662
▁ನನ್ನ್ನ	-13663
▁ನಮ್ಮದು	-13664
▁ನಾಲ್ಕು	-13665
▁ನಾವೆಗೆ	-13666
▁ನಾವೆಯು	-13667
▁ನಾಶಮಾಡ	-13668
▁ನಿನ್ನೆ	-13669
▁ನಿವಾಸಿ	-13670
▁ನಿಶ್ಚಯ	-13671
▁ನೀತಿಯು	-13672
▁ನೆಟ್ಟು	-13673
▁ಪಕ್ಕೆಯ	-13674
▁ಪದಾರ್ಥ	-13675
▁ಪರರಿಂದ	-13676
▁ಪರಲೋಕದ	-13677
▁ಪೂರ್ವದ	-13678
▁ಪೆರೆಚ್	-13679
▁ಬಂಜೆಯರ	-13680
▁ಬರಬೇಕು	-13681
▁ಬರುವರು	-13682
▁ಬಲಕ್ಕೆ	-13683
▁ಬಲಗಡೆಯ	-13684
▁ಬಾಬೆಲ್	-13685
▁ಬಿದ್ದು	-13686
▁ಬೆಲಗನು	-13687
▁ಬೆಳೆದು	-13688
▁ಬೇರೆಬೇ	-13689
▁ಬೊಗ್ಗಿ	-13690
▁ಭೂಲೋಕದ	-13691
▁ಮಂದೆಯು	-13692
▁ಮಕ್ಕಳೂ	-13693
▁ಮನಸ್ಸಿ	-13694
▁ಮನಸ್ಸು	-13695
▁ಮರಿಗಳು	-13696
▁ಮರೆಮಾಡ	-13697
▁ಮಾಡಿರಿ	-13698
▁ಮಿಜ್ಜಾ	-13699
▁ಮುಖಗಳು	-13700
▁ಮುಗಿಸಿ	-13701
▁ಮುದುಕರ	-13702
▁ಮುಸುಕು	-13703
▁ಮೃಗಗಳೂ	-13704
▁ಮೇಯಿಸು	-13705
▁ಮೊಣಕಾಲ	-13706
▁ಯಥೇಚ್ಛ	-13707
▁ಯೆಫೆತನ	-13708
▁ಯೆಲ್ಲಾ	-13709
▁ರೂಪಿಸಿ	-13710
▁ಲೋಟಾನನ	-13711
▁ಲೋಟಾನ್	-13712
▁ವರುಷದವ	-13713
▁ವಾಯಿತು	-13714
▁ವಾಸನೆಯ	-13715
▁ವಾಸಿಸಿ	-13716
▁ವಿಶಾಲದ	-13717
▁ವಿಸ್ತರ	-13718
▁ಶರೀರಗಳ	-13719
▁ಶಿನಾರ್	-13720
▁ಶೆಕೆಯೂ	-13721
▁ಶೇಲಹನು	-13722
▁ಶೋಬಾಲ್	-13723
▁ಸಂಗಡವೇ	-13724
▁ಸರಿಯಾದ	-13725
▁ಸರ್ಪವು	-13726
▁ಸಾಕ್ಷಿ	-13727
▁ಸಾಮಾನು	-13728
▁ಸುಕ್ಕೋ	-13729
▁ಸುರಿಸಿ	-13730
▁ಸೆರೆಹಿ	-13731
▁ಸೇಯಾರನ	-13732
▁ಸೇರಿಸಿ	-13733
▁ಹಮೋರನು	-13734
▁ಹಮೋರನೂ	-13735
▁ಹಾಗೆಯೂ	-13736
▁ಹಾರಾನನ	-13737
▁ಹಿಂಭಾಗ	-13738
▁ಹಿಮ್ಮಡ	-13739
▁ಹೆರುವಿ	-13740
▁ಹೇಳಿರಿ	-13741
▁ಹೇಳುವವ	-13742
▁ಹೊರಟಾಗ	-13743
▁ಹೋರಾಡಿ	-13744
reescore	-13745
ండేండ్లు	-13746
కమునుండి	-13747
కుమార్తె	-13748
చున్నానో	-13749
జంతువును	-13750
తట్టునకు	-13751
నిబంధనగా	-13752
పడనియెడల	-13753
పెట్టుము	-13754
బెట్టెను	-13755
యున్నాడు	-13756
రుగుదును	-13757
లనందరిని	-13758
లలోనుండి	-13759
విధములైన	-13760
వినిచ్చు	-13761
వేయబడెను	-13762
స్థుడును	-13763
ారముచేసి	-13764
ించుటవలన	-13765
ీయులలోను	-13766
ಂಟಿನಲ್ಲಿ	-13767
ಕರ್ತನಿಂದ	-13768
ಕೆಯಾಗಿರು	-13769
ಕ್ಕಾಗಿಯೂ	-13770
ಕ್ಕೋಸ್ಕರ	-13771
ತಿಹೊಂದಲಿ	-13772
ದರೊಳಗಾಗಿ	-13773
ನೆಂಬದಾಗಿ	-13774
ಫ್ರೇಟೀಸ್	-13775
ರಿಗಾಗಿಯೂ	-13776
ವಾಗುವೆವು	-13777
ಾಯೇಲನಿಂದ	-13778
ಿಯಾಗಿದ್ದ	-13779
ಿಯಾಗಿರಲಿ	-13780
ುತ್ತಿದ್ದ	-13781
ೆಹೊಡೆದರು	-13782
ೊಳಗಿಂದಲೂ	-13783
▁Amorite	-13784
▁Assyria	-13785
▁Ellasar	-13786
▁Ephrath	-13787
▁Jokshan	-13788
▁Keturah	-13789
▁Mizraim	-13790
▁Nineveh	-13791
▁Shammah	-13792
▁Succoth	-13793
▁Zeboiim	-13794
▁Zebulun	-13795
▁amongst	-13796
▁baskets	-13797
▁breadth	-13798
▁butlers	-13799
▁captive	-13800
▁carried	-13801
▁clothes	-13802
▁curseth	-13803
▁dungeon	-13804
▁enemies	-13805
▁fathers	-13806
▁fatness	-13807
▁fetched	-13808
▁fifteen	-13809
▁furnace	-13810
▁grieved	-13811
▁grisled	-13812
▁gutters	-13813
▁harvest	-13814
▁inquire	-13815
▁instead	-13816
▁kindled	-13817
▁kingdom	-13818
▁knowest	-13819
▁lighted	-13820
▁midwife	-13821
▁officer	-13822
▁perfect	-13823
▁persons	-13824
▁pillows	-13825
▁process	-13826
▁provide	-13827
▁quickly	-13828
▁rebuked	-13829
▁refused	-13830
▁respect	-13831
▁scarlet	-13832
▁service	-13833
▁sheaves	-13834
▁smelled	-13835
▁sojourn	-13836
▁spoiled	-13837
▁strange	-13838
▁thereon	-13839
▁tongues	-13840
▁willing	-13841
▁windows	-13842
▁अन्धकार	-13843
▁अभिलाषी	-13844
▁आदिमाता	-13845
▁उजियाला	-13846
▁उत्पादक	-13847
▁एप्राता	-13848
▁कहलाएगा	-13849
▁कारागार	-13850
▁कुटुम्ब	-13851
▁खुदवाया	-13852
▁गड़बड़ी	-13853
▁छोडूंगा	-13854
▁जिलियाद	-13855
▁ज्येष्ठ	-13856
▁ठहरेंगी	-13857
▁दामादों	-13858
▁दासियों	-13859
▁नप्ताली	-13860
▁नामधराई	-13861
▁निम्रोद	-13862
▁पंचानवे	-13863
▁पचहत्तर	-13864
▁पन्द्रह	-13865
▁परिश्रम	-13866
▁पलिश्ती	-13867
▁पहिरावा	-13868
▁पांचवां	-13869
▁पाहुनों	-13870
▁पुकारकर	-13871
▁फलाऊंगा	-13872
▁भाईबन्ध	-13873
▁मतूशाएल	-13874
▁महूयाएल	-13875
▁मानेंगी	-13876
▁मिद्यान	-13877
▁योक्षान	-13878
▁रपाइयों	-13879
▁वंशियों	-13880
▁वस्तुओं	-13881
▁विधवापन	-13882
▁सामग्री	-13883
▁सुक्कोत	-13884
▁होरियों	-13885
▁అంతేకాక	-13886
▁అందువలన	-13887
▁అక్బోరు	-13888
▁అతనికూడ	-13889
▁అత్యధిక	-13890
▁అనబడెను	-13891
▁అర్యోకు	-13892
▁అసూయపడి	-13893
▁ఆకాశమున	-13894
▁ఆడుదియు	-13895
▁ఆయననీవు	-13896
▁ఆస్తియు	-13897
▁ఉండుటకు	-13898
▁ఉండునని	-13899
▁ఉత్తరమి	-13900
▁ఉపకారము	-13901
▁ఎందుకని	-13902
▁ఎక్కడను	-13903
▁ఎదురుగా	-13904
▁ఎదోమీయు	-13905
▁ఎనోషును	-13906
▁ఎప్పుడు	-13907
▁ఎఫ్రాతా	-13908
▁ఎష్కోలు	-13909
▁ఏశావును	-13910
▁ఐదుగురు	-13911
▁ఐదువందల	-13912
▁ఒంటెలకు	-13913
▁ఒక్కదిన	-13914
▁ఓదార్చు	-13915
▁కట్టెను	-13916
▁కడుపులో	-13917
▁కనబడును	-13918
▁కనానులో	-13919
▁కమ్మిని	-13920
▁కలుగునా	-13921
▁కాపరులు	-13922
▁కావలిలో	-13923
▁కియ్యగా	-13924
▁కూడలేదు	-13925
▁కొంచెమే	-13926
▁క్రింది	-13927
▁గడ్డియు	-13928
▁గిర్గాష	-13929
▁గొప్పది	-13930
▁చిందింప	-13931
▁చూచుటకు	-13932
▁చూచెదను	-13933
▁చెట్లను	-13934
▁చెడ్డది	-13935
▁చెరపట్ట	-13936
▁చేతులతో	-13937
▁చేతులలో	-13938
▁చేయకుండ	-13939
▁చేయరాని	-13940
▁చేయించు	-13941
▁చేయుదము	-13942
▁జమ్ములో	-13943
▁జాతులను	-13944
▁తక్కువై	-13945
▁తమ్ముని	-13946
▁తల్లిని	-13947
▁తల్లియు	-13948
▁తినుటకు	-13949
▁తీసికొన	-13950
▁తెరహును	-13951
▁త్రాగని	-13952
▁త్వరపడి	-13953
▁దయచేసిన	-13954
▁దాసదాసీ	-13955
▁దిగంబరి	-13956
▁దేవుడనై	-13957
▁దేశస్థు	-13958
▁దొంగిలి	-13959
▁నట్లును	-13960
▁నడుచుచు	-13961
▁నన్నును	-13962
▁నఫ్తాలి	-13963
▁నాశీర్వ	-13964
▁నిచ్చిన	-13965
▁నిలిచిన	-13966
▁నిలిపిన	-13967
▁నీళ్లతో	-13968
▁నుండియు	-13969
▁నుండిరి	-13970
▁నుందురు	-13971
▁పగపట్టి	-13972
▁పదకొండు	-13973
▁పదియేడవ	-13974
▁పరమునకు	-13975
▁పరలోకపు	-13976
▁పరాక్రమ	-13977
▁పాపమేమి	-13978
▁పారవేసి	-13979
▁పిట్టయు	-13980
▁పిలిచిఈ	-13981
▁పీఠమును	-13982
▁పెరిజ్జ	-13983
▁పైనుండి	-13984
▁పోవుటకు	-13985
▁ఫలవృక్ష	-13986
▁బంధుజను	-13987
▁బొందెను	-13988
▁భాగమును	-13989
▁భాగములు	-13990
▁భూలోకము	-13991
▁మండిపడి	-13992
▁మంతులను	-13993
▁మట్టికీ	-13994
▁మాత్రము	-13995
▁మాత్రమే	-13996
▁మిగిలిన	-13997
▁మిద్యాన	-13998
▁మూలముగా	-13999
▁మైదానపు	-14000
▁యర్పణను	-14001
▁యాపెతను	-14002
▁యిచ్చెద	-14003
▁యుద్ధము	-14004
▁యెవతెయు	-14005
▁యెవరివో	-14006
▁యెహోవాఈ	-14007
▁యేడంతలు	-14008
▁యొద్దను	-14009
▁రావలెను	-14010
▁లోనున్న	-14011
▁వంశములు	-14012
▁వాక్యము	-14013
▁వింటిని	-14014
▁వికారమై	-14015
▁వృక్షపు	-14016
▁వెడల్పు	-14017
▁వెనుకకు	-14018
▁వెళ్లబు	-14019
▁శరీరులు	-14020
▁శారయిని	-14021
▁సంగతులు	-14022
▁సంపూర్ణ	-14023
▁సంరక్షక	-14024
▁సాక్ష్య	-14025
▁సాగనంపు	-14026
▁సాటియైన	-14027
▁సామగ్రి	-14028
▁సిద్ధము	-14029
▁సృజించి	-14030
▁సృష్టిక	-14031
▁సోయరుకు	-14032
▁హానిచేయ	-14033
▁ಅಕ್ಬೋರನ	-14034
▁ಅದ್ಮಾಹದ	-14035
▁ಅಬೀಮೆಲೆ	-14036
▁ಅಮ್ಮೋನನ	-14037
▁ಅಲಸಂದಿಯ	-14038
▁ಅಲ್ಲೋನ್	-14039
▁ಆಕೆಯಿಂದ	-14040
▁ಆಯುಷ್ಯದ	-14041
▁ಇದ್ದಾರೆ	-14042
▁ಇಲ್ಲಿಯೂ	-14043
▁ಇವರನ್ನು	-14044
▁ಈಹೊತ್ತು	-14045
▁ಉಂಟಾದಾಗ	-14046
▁ಉಪಪತ್ನಿ	-14047
▁ಊಟಮಾಡಲಿ	-14048
▁ಊಟವನ್ನೂ	-14049
▁ಎಫ್ರೋನನ	-14050
▁ಎಲುಬುಗಳ	-14051
▁ಎಲ್ಲಾದರ	-14052
▁ಏಲೆಲೋಹೇ	-14053
▁ಏಳರಷ್ಟು	-14054
▁ಐಶ್ವರ್ಯ	-14055
▁ಒಂದನ್ನು	-14056
▁ಓಡಿಬಂದು	-14057
▁ಕಟ್ಟಿಸಿ	-14058
▁ಕಣ್ಣಿಗೆ	-14059
▁ಕನ್ಯೆಗೆ	-14060
▁ಕರೆಯಿಸಿ	-14061
▁ಕಲ್ದೀಯರ	-14062
▁ಕುಡಿಯಲು	-14063
▁ಕೂಡಿದಾಗ	-14064
▁ಕೂಡಿಸುವ	-14065
▁ಕೇನಾನನು	-14066
▁ಕೈಕೊಳ್ಳ	-14067
▁ಕೈಗಳಿಂದ	-14068
▁ಕೈಗಳಿಗೆ	-14069
▁ಕೊಟ್ಟರು	-14070
▁ಕೊಳ್ಳುವ	-14071
▁ಕೋಪಗೊಂಡ	-14072
▁ಗಲಿಬಿಲಿ	-14073
▁ಗಿದ್ದವು	-14074
▁ಜನರನ್ನೂ	-14075
▁ಜನರಲ್ಲಿ	-14076
▁ಜಿಲ್ಪಳು	-14077
▁ಜೀವದಿಂದ	-14078
▁ಜ್ವಾಲೆಯ	-14079
▁ಟಗರುಗಳು	-14080
▁ತಂದೆತಾಯ	-14081
▁ತರುವೆನು	-14082
▁ತಾಮಾರಳು	-14083
▁ತಿಂದೆನು	-14084
▁ತಿದ್ಗಾಲ	-14085
▁ತಿಳಿದಾಗ	-14086
▁ತಿಳಿಸದೆ	-14087
▁ತಿಳುವಳಿ	-14088
▁ದಳವಾಯಿಯ	-14089
▁ದಾಟಿದನು	-14090
▁ದಾಸದಾಸಿ	-14091
▁ದಾಸಿಯರೂ	-14092
▁ದಿವಸಗಳು	-14093
▁ದುದಾಯಗಳ	-14094
▁ದೂರದಿಂದ	-14095
▁ದೊರಕಿತು	-14096
▁ದ್ದರಿಂದ	-14097
▁ನಡಿಗೆಗೂ	-14098
▁ನರದಲ್ಲಿ	-14099
▁ನರವನ್ನು	-14100
▁ನಾಲ್ವತು	-14101
▁ನಾಹೋರನೂ	-14102
▁ನಿಂತಿತು	-14103
▁ನಿಜವಾಗಿ	-14104
▁ನಿವಾಸವು	-14105
▁ನೋಟಕ್ಕೆ	-14106
▁ನೋಡಿದರು	-14107
▁ನೋಡುತ್ತ	-14108
▁ಪಟ್ಟಣಗಳ	-14109
▁ಪಾಲನ್ನು	-14110
▁ಪ್ರಯೋಜನ	-14111
▁ಪ್ರಾರಂಭ	-14112
▁ಪ್ರಾರ್ಥ	-14113
▁ಬರಮಾಡಲಿ	-14114
▁ಬರುವಂತೆ	-14115
▁ಬರುವೆನು	-14116
▁ಬಿತ್ತುವ	-14117
▁ಬಿದ್ದರು	-14118
▁ಬೆಟ್ಟಗಳ	-14119
▁ಬೆನಮ್ಮಿ	-14120
▁ಬೆಳಕುಗಳ	-14121
▁ಬೈಲನ್ನು	-14122
▁ಭಯಪಡಬೇಡ	-14123
▁ಮಂದೆಗಳು	-14124
▁ಮಂದೆಗಳೂ	-14125
▁ಮಣ್ಣಿಗೆ	-14126
▁ಮನೆಯಿಂದ	-14127
▁ಮರವನ್ನು	-14128
▁ಮಲಗಿದನು	-14129
▁ಮಾಡಬೇಕು	-14130
▁ಮಾತುಗಳು	-14131
▁ಮುಂಗೊಂಡ	-14132
▁ಮುಂಚೆಯೇ	-14133
▁ಮುಂದೆಯೂ	-14134
▁ಮುಗಿಸುವ	-14135
▁ಮುಟ್ಟುವ	-14136
▁ಮುನ್ನೂರ	-14137
▁ಮೊಳೆತವು	-14138
▁ಯಾಕೋಬನೂ	-14139
▁ಯಾವಾಗಲೂ	-14140
▁ಯೆರೆದನು	-14141
▁ರನ್ನಾಗಿ	-14142
▁ರೊಟ್ಟಿಯ	-14143
▁ಲೇಯಳಿಗೆ	-14144
▁ವರುಷಗಳಾ	-14145
▁ವರುಷದವಳ	-14146
▁ವಾಕ್ಯವು	-14147
▁ವಾಸಮಾಡು	-14148
▁ವಿಸ್ತಾರ	-14149
▁ವ್ಯಾಪಾರ	-14150
▁ಶರೀರಗಳು	-14151
▁ಶಿನಾರಿನ	-14152
▁ಶೆಕೆಮನೂ	-14153
▁ಸಂತಾನವು	-14154
▁ಸಂಪತ್ತು	-14155
▁ಸಂಹರಿಸಿ	-14156
▁ಸಮಯಕ್ಕೆ	-14157
▁ಸಮಾಧಾನದ	-14158
▁ಸಹೋದರನೂ	-14159
▁ಸಹೋದರರೇ	-14160
▁ಸುತ್ತಲೂ	-14161
▁ಸುತ್ತುವ	-14162
▁ಹಗಲಲ್ಲಿ	-14163
▁ಹಗೆಮಾಡಿ	-14164
▁ಹತ್ತನೆಯ	-14165
▁ಹದಿನೈದು	-14166
▁ಹಾರಾನನು	-14167
▁ಹಾರಾನನೂ	-14168
▁ಹುಡುಗರು	-14169
▁ಹುಷಾಮನು	-14170
▁ಹೆರುವಳು	-14171
▁ಹೆಸರುಗಳ	-14172
▁ಹೇಳುವಳೋ	-14173
▁ಹೊಯ್ದನು	-14174
▁ಹೊಲದಿಂದ	-14175
ంధ్రములలో	-14176
కందరికిని	-14177
చున్నావని	-14178
నిమిత్తము	-14179
న్నప్పుడు	-14180
మిచ్చునని	-14181
ములన్నియు	-14182
మైయుండెను	-14183
యున్నానని	-14184
యేడేండ్లు	-14185
వాడగువరకు	-14186
ించుగాకని	-14187
ేండ్లవాడు	-14188
ಅಬ್ರಹಾಮನೇ	-14189
ಕೆಯಾಗಿರಲಿ	-14190
ಕೊಳ್ಳುವದು	-14191
ಯಿಮಿನಲ್ಲಿ	-14192
ರೆಲ್ಲರಿಗೆ	-14193
ಲ್ಲಿದ್ದನು	-14194
ವನಾಗಿದ್ದೀ	-14195
ಾಗಿದ್ದಾರೆ	-14196
ಿಸತಕ್ಕದ್ದ	-14197
ಿಸಬೇಕೆಂದು	-14198
ಿಸಿಕೊಂಡರು	-14199
ಿಸಿಕೊಂಡವರ	-14200
ೆಲ್ಲವನ್ನು	-14201
▁Amraphel	-14202
▁Benjamin	-14203
▁Damascus	-14204
▁Edomites	-14205
▁Issachar	-14206
▁Mehujael	-14207
▁Naphtali	-14208
▁Potiphar	-14209
▁Rephaims	-14210
▁accepted	-14211
▁backward	-14212
▁beguiled	-14213
▁branches	-14214
▁confound	-14215
▁covering	-14216
▁distress	-14217
▁drinking	-14218
▁embraced	-14219
▁followed	-14220
▁foremost	-14221
▁fugitive	-14222
▁hastened	-14223
▁iniquity	-14224
▁merchant	-14225
▁moreover	-14226
▁mourning	-14227
▁nostrils	-14228
▁offended	-14229
▁officers	-14230
▁overseer	-14231
▁overtook	-14232
▁pleasant	-14233
▁pleaseth	-14234
▁prepared	-14235
▁preserve	-14236
▁remained	-14237
▁reproach	-14238
▁reproved	-14239
▁separate	-14240
▁speaking	-14241
▁stricken	-14242
▁troubled	-14243
▁unawares	-14244
▁vagabond	-14245
▁violence	-14246
▁अप्रसन्न	-14247
▁अम्रापेल	-14248
▁इस्साकार	-14249
▁एल्लासार	-14250
▁खतनारहित	-14251
▁चलनेवाले	-14252
▁चित्कबरे	-14253
▁चिल्लाकर	-14254
▁जातिवाले	-14255
▁तूबल्कैन	-14256
▁दूदाफलों	-14257
▁धर्मियों	-14258
▁पराक्रमी	-14259
▁बच्चियों	-14260
▁मूलपुरूष	-14261
▁लुढ़काकर	-14262
▁व्यभिचार	-14263
▁सम्पूर्ण	-14264
▁అందుకతని	-14265
▁అందుకామె	-14266
▁అందుకాయన	-14267
▁అతనికిని	-14268
▁అదియైనను	-14269
▁అధిపతిని	-14270
▁అన్నలారా	-14271
▁అన్యదేవత	-14272
▁ఆకాశపక్ష	-14273
▁ఆకాశమును	-14274
▁ఆడుగాడిద	-14275
▁ఆశీర్వాద	-14276
▁ఆహారమును	-14277
▁ఇట్లనెను	-14278
▁ఇష్టపడని	-14279
▁ఊరిగవిని	-14280
▁ఎంచబడును	-14281
▁ఎక్కడికి	-14282
▁ఎలీఫజును	-14283
▁ఎల్లాసరు	-14284
▁ఏడేండ్లు	-14285
▁ఒకదానిని	-14286
▁ఓడలోనికి	-14287
▁కనుపరచిన	-14288
▁కూడనున్న	-14289
▁కొట్టిరి	-14290
▁క్రమముగా	-14291
▁గర్భమందు	-14292
▁గర్భములో	-14293
▁గాఢనిద్ర	-14294
▁గెరారులో	-14295
▁గొడ్రాలై	-14296
▁చంపితిని	-14297
▁చక్కనిది	-14298
▁చున్నాడు	-14299
▁చున్నాను	-14300
▁చువ్వలను	-14301
▁చెట్టును	-14302
▁చెడిపోయి	-14303
▁చెప్పునో	-14304
▁చేయవలసిన	-14305
▁చేరువరకు	-14306
▁చేసితివి	-14307
▁జంతువును	-14308
▁జాగ్రత్త	-14309
▁జారత్వము	-14310
▁జిల్పాను	-14311
▁జీవవృక్ష	-14312
▁జెబూలూను	-14313
▁జ్యోతిని	-14314
▁తండ్రిని	-14315
▁తరువాతనీ	-14316
▁తల్లియైన	-14317
▁తారుమారు	-14318
▁తిత్తిని	-14319
▁తినకూడదు	-14320
▁తినివేయు	-14321
▁తెచ్చెను	-14322
▁తెరిచెను	-14323
▁తెలియును	-14324
▁తెలిసికొ	-14325
▁తోడుకొని	-14326
▁త్రాగుము	-14327
▁దయచేసెను	-14328
▁దాసులుగా	-14329
▁దేవదూతలు	-14330
▁దేవుడవైన	-14331
▁దేవుడునీ	-14332
▁దేశదిమ్మ	-14333
▁దేశమంతటి	-14334
▁దోషశిక్ష	-14335
▁నిప్పును	-14336
▁నిలిచెను	-14337
▁నీచమైనదా	-14338
▁నుండకుండ	-14339
▁నుండుటకు	-14340
▁నున్నదని	-14341
▁నెబాయోతు	-14342
▁నేనేమియు	-14343
▁పండుకొని	-14344
▁పక్షముగా	-14345
▁పగళ్లును	-14346
▁పరదేశిగా	-14347
▁పరదేశులై	-14348
▁పుట్టిరి	-14349
▁పెట్టిరి	-14350
▁పెద్దకేక	-14351
▁పెనిమిటి	-14352
▁పెనూయేలు	-14353
▁పెలెగును	-14354
▁పోలికెగా	-14355
▁ప్రదేశము	-14356
▁ప్రబలెను	-14357
▁ఫరోయొక్క	-14358
▁ఫీకోలును	-14359
▁బయటనున్న	-14360
▁బహుమానము	-14361
▁బిగ్గరగా	-14362
▁భూమికిని	-14363
▁మన్యములో	-14364
▁మీదికిని	-14365
▁మేలుకొని	-14366
▁మ్రొక్కు	-14367
▁యజమానురా	-14368
▁యాకోబునీ	-14369
▁యింటిమీద	-14370
▁యుందునని	-14371
▁యున్నారు	-14372
▁యెరెదును	-14373
▁యెహోవానీ	-14374
▁యేడ్చెను	-14375
▁యొక్షాను	-14376
▁యోసేపుతో	-14377
▁రప్పించు	-14378
▁రాజులును	-14379
▁రాజ్యపరి	-14380
▁రిబ్కాకు	-14381
▁రిబ్కాతో	-14382
▁రొట్టెను	-14383
▁రొట్టెలు	-14384
▁లాబానుకు	-14385
▁లేనియెడల	-14386
▁వంశస్థుల	-14387
▁వచ్చినది	-14388
▁వచ్చుటకు	-14389
▁వచ్చెదరు	-14390
▁వాటికిని	-14391
▁వారునీవు	-14392
▁వారుమేము	-14393
▁వింటినని	-14394
▁వెలుగును	-14395
▁వెళ్లుచు	-14396
▁వేరుచేసి	-14397
▁శరీరులను	-14398
▁శారాయును	-14399
▁షెకెములో	-14400
▁సంచరించు	-14401
▁సంతానాభి	-14402
▁సత్క్రియ	-14403
▁సమాచారము	-14404
▁సహోదరిని	-14405
▁సాక్షిగా	-14406
▁సిద్దీము	-14407
▁సుక్కోతు	-14408
▁సృజించిన	-14409
▁సెరూగును	-14410
▁స్త్రీని	-14411
▁హాయికిని	-14412
▁హారానును	-14413
▁హారానులో	-14414
▁హిత్తీయు	-14415
▁హెబ్రోను	-14416
▁హేబెలును	-14417
▁ಅದಕ್ಕವಳು	-14418
▁ಅದೇನಂದರೆ	-14419
▁ಅಧಿಕವಾಗಿ	-14420
▁ಅಮ್ರಾಫೆಲ	-14421
▁ಅಲೆದಾಡುವ	-14422
▁ಅವರಿಗಾಗಿ	-14423
▁ಆಕಾಶದಿಂದ	-14424
▁ಇದ್ದವುಗಳ	-14425
▁ಇದ್ದಹಾಗೆ	-14426
▁ಇಸಾಕನಿಗೂ	-14427
▁ಇಸ್ಸಾಕಾರ	-14428
▁ಉಳಿಸಬೇಕು	-14429
▁ಎಂಟುನೂರು	-14430
▁ಎಚ್ಚತ್ತು	-14431
▁ಎಪ್ಪತ್ತು	-14432
▁ಏಳುವಾಗಲೂ	-14433
▁ಓಡಿಹೋಗುವ	-14434
▁ಕಡೆಯಲ್ಲಿ	-14435
▁ಕರ್ತನಿಂದ	-14436
▁ಕೃಪೆಯಿಂದ	-14437
▁ಕೃಪೆಹೊಂದ	-14438
▁ಕೆಲಸದಿಂದ	-14439
▁ಕೆಳಗಿದ್ದ	-14440
▁ಕೆಳಗಿರುವ	-14441
▁ಕೇಳಿದೆನು	-14442
▁ಕೊಟ್ಟೆನು	-14443
▁ಗಳಲ್ಲಿಯೂ	-14444
▁ಗಹಮನನ್ನೂ	-14445
▁ಚಳಿಗಾಲವೂ	-14446
▁ಚಿಕ್ಕವಳು	-14447
▁ಜಾತ್ಯಾನು	-14448
▁ತಂದೆಯಿಂದ	-14449
▁ತಲತಲಾಂತರ	-14450
▁ತಹಷನನ್ನೂ	-14451
▁ತಿರುಗಾಡು	-14452
▁ತಿಳಿದುಕೋ	-14453
▁ತಿಳಿಸಿರಿ	-14454
▁ತೀರದಲ್ಲಿ	-14455
▁ತೊಂಭತ್ತು	-14456
▁ತೋಟವನ್ನು	-14457
▁ದನಗಳನ್ನೂ	-14458
▁ದಿನಗಳಾಗಿ	-14459
▁ದಿನವನ್ನು	-14460
▁ದಿವಸಗಳಾದ	-14461
▁ದೂತನನ್ನು	-14462
▁ದೇವದೂತನು	-14463
▁ದೇವದೂತರು	-14464
▁ದ್ರಾಕ್ಷಾ	-14465
▁ನಿತ್ಯವಾದ	-14466
▁ನಿಲ್ಲಿಸಿ	-14467
▁ನೆಬಾಯೋತನ	-14468
▁ನೋಡುತ್ತಾ	-14469
▁ನೋಡುವಂತೆ	-14470
▁ನೋಡುವೆನು	-14471
▁ನೋಹನನ್ನೂ	-14472
▁ನ್ಯಾಯಾಧಿ	-14473
▁ಪಾರಿವಾಳದ	-14474
▁ಪೀಠವನ್ನು	-14475
▁ಪೋಟೀಫರನು	-14476
▁ಪ್ರಭುಗಳು	-14477
▁ಬತ್ತಿಹೋದ	-14478
▁ಬದಲಾಯಿಸಿ	-14479
▁ಬಾಗಲಲ್ಲಿ	-14480
▁ಬಾಳ್ಹಾನಾ	-14481
▁ಬೀಜಕೊಡುವ	-14482
▁ಬೆತೂವೇಲನ	-14483
▁ಬೆನ್ಯಾವಿ	-14484
▁ಬೇಸಿಗೆಯೂ	-14485
▁ಭಾಗವನ್ನು	-14486
▁ಭೂಮಿಯಿಂದ	-14487
▁ಭೇದವನ್ನು	-14488
▁ಮಗುವನ್ನು	-14489
▁ಮತ್ತೊಬ್ಬ	-14490
▁ಮನುಷ್ಯರೂ	-14491
▁ಮನೋವ್ಯಥೆ	-14492
▁ಮಾಡಿಕೊಂಡ	-14493
▁ಮಾಡಿದ್ದೀ	-14494
▁ಮಾಡುವಂತೆ	-14495
▁ಮುದ್ರೆಯೂ	-14496
▁ಮುನ್ನೂರು	-14497
▁ಮೃಗಗಳಿಂದ	-14498
▁ಮೇಲಿನಿಂದ	-14499
▁ಯಾವದಕ್ಕೂ	-14500
▁ಯೊರ್ದನಿನ	-14501
▁ರಾತ್ರಿಯೂ	-14502
▁ರೂಪದಲ್ಲಿ	-14503
▁ರೆಗೂವೇಲನ	-14504
▁ರೆಹೋಬೋತ್	-14505
▁ಲೇಯಳನ್ನು	-14506
▁ಲೇಯಳನ್ನೂ	-14507
▁ವಾರವನ್ನು	-14508
▁ವಿಷಯದಲ್ಲ	-14509
▁ಶುದ್ಧವಾದ	-14510
▁ಶೆಕೆಮಿಗೆ	-14511
▁ಸಮಯದಲ್ಲಿ	-14512
▁ಸಮುದ್ರಗಳ	-14513
▁ಸಮ್ಲಾಹನು	-14514
▁ಸರ್ಪಕ್ಕೆ	-14515
▁ಸಾಮರ್ಥ್ಯ	-14516
▁ಸಾರಯಳಿಗೆ	-14517
▁ಸಿಗಲಿಲ್ಲ	-14518
▁ಸಿಬೆಯೋನ್	-14519
▁ಸುತ್ತೇನೆ	-14520
▁ಸೂರ್ಯೋದಯ	-14521
▁ಸೂಳೆಯಂತೆ	-14522
▁ಸೇತನೆಂದು	-14523
▁ಸೇಯಾರಿಗೆ	-14524
▁ಸೇವಕನಿಗೆ	-14525
▁ಹಕ್ಕನ್ನು	-14526
▁ಹನ್ನೊಂದು	-14527
▁ಹಮೋರನಿಗೂ	-14528
▁ಹಿಂತೆಗೆಯ	-14529
▁ಹಿಂದಟ್ಟಿ	-14530
▁ಹುಡುಗಿಯು	-14531
▁ಹೆಚ್ಚಾಗಿ	-14532
▁ಹೆಚ್ಚಿರಿ	-14533
▁ಹೇಳಿದ್ದು	-14534
▁ಹೊಂದಿದನು	-14535
▁ಹೊಂದಿರುವ	-14536
▁ಹೋಗುತ್ತೀ	-14537
▁ಹೋಲಿಕೆಗೆ	-14538
కుండునట్లు	-14539
దగ్గరనున్న	-14540
వచ్చుననెను	-14541
ದಲ್ಲಿದ್ದರು	-14542
ದ್ದಾಗಿತ್ತು	-14543
ಮಾಡುವದಿಲ್ಲ	-14544
ರಿಯಾಗಿದ್ದು	-14545
ವನಾಗಿದ್ದನು	-14546
ವರೆಲ್ಲರಿಗೂ	-14547
ವರೆಲ್ಲರಿಗೆ	-14548
ವಾದದ್ದನ್ನು	-14549
ಾಗಿಲಿನಲ್ಲಿ	-14550
ಿಕೊಂಡಿತ್ತು	-14551
ಿಸಲ್ಪಟ್ಟರು	-14552
ಿಸಲ್ಪಡುವದು	-14553
ುಗಳಿಗಾಗಿಯೂ	-14554
ುತ್ತಿದ್ದನು	-14555
▁Egyptians	-14556
▁Euphrates	-14557
▁Methusael	-14558
▁certainly	-14559
▁committed	-14560
▁fountains	-14561
▁fourscore	-14562
▁handmaids	-14563
▁hundredth	-14564
▁integrity	-14565
▁intreated	-14566
▁knowledge	-14567
▁magicians	-14568
▁obeisance	-14569
▁overthrew	-14570
▁overthrow	-14571
▁perceived	-14572
▁possessor	-14573
▁prisoners	-14574
▁provender	-14575
▁replenish	-14576
▁scattered	-14577
▁sepulchre	-14578
▁strangers	-14579
▁travailed	-14580
▁उड़नेवाले	-14581
▁देखनेहारा	-14582
▁निन्नानवे	-14583
▁परदेशियों	-14584
▁पुत्रियों	-14585
▁प्रतिष्ठा	-14586
▁बतानेवाला	-14587
▁बाल्हानान	-14588
▁बिन्यामीन	-14589
▁అట్లుండగా	-14590
▁అనుగ్రహము	-14591
▁అప్పుడాయన	-14592
▁అబ్రాహామా	-14593
▁అమ్రాపేలు	-14594
▁ఆహారమునకు	-14595
▁ఉండినట్లు	-14596
▁ఎదుటనుండి	-14597
▁కడియములను	-14598
▁కనానీయులు	-14599
▁కప్పుకొని	-14600
▁కావలసినంత	-14601
▁కుమారులగు	-14602
▁కుమారులలో	-14603
▁కురిపించి	-14604
▁కొనినయెడల	-14605
▁క్షేమమును	-14606
▁గర్భవతినై	-14607
▁గోపురమును	-14608
▁చింపుకొని	-14609
▁చిన్నవాడు	-14610
▁చెడ్డగాని	-14611
▁చెప్పినది	-14612
▁చెప్పుమని	-14613
▁చెల్లెలని	-14614
▁చేతికప్పగ	-14615
▁చేయనియెడల	-14616
▁చేసితినని	-14617
▁చేసితివని	-14618
▁చేసినందున	-14619
▁జంతువులలో	-14620
▁జీతమగునని	-14621
▁జోలికైనను	-14622
▁డెబ్బదియై	-14623
▁తినకూడదని	-14624
▁తీసికొందు	-14625
▁తీసికొనిర	-14626
▁తుంటినరము	-14627
▁తెలియకుండ	-14628
▁తెలియచేసి	-14629
▁తొడక్రింద	-14630
▁ధాన్యమును	-14631
▁నమస్కారము	-14632
▁నాకిమ్మని	-14633
▁నిట్లనెను	-14634
▁నివాసులైన	-14635
▁నీటిబుగ్గ	-14636
▁నీయొద్దకు	-14637
▁నీలోనుండి	-14638
▁నీళ్లబావి	-14639
▁నున్నందున	-14640
▁పక్షులేమి	-14641
▁పదియవవంతు	-14642
▁పశువులేమి	-14643
▁పాతిపెట్ట	-14644
▁పావురమును	-14645
▁పిల్లవాని	-14646
▁పెద్దవాడై	-14647
▁పొర్లించి	-14648
▁పొలములోని	-14649
▁పోవునట్లు	-14650
▁ప్రభువుతో	-14651
▁ప్రయాణమంత	-14652
▁ప్రాణముగల	-14653
▁ప్రాణమును	-14654
▁బంధువులతో	-14655
▁బంధువులను	-14656
▁బసచేయుటకు	-14657
▁బాశెమతును	-14658
▁భూమ్యాకాశ	-14659
▁మంత్రసాని	-14660
▁మనయొద్దకు	-14661
▁మహలలేలును	-14662
▁మహూయాయేలు	-14663
▁ములన్నియు	-14664
▁మూలముగాను	-14665
▁మెతూషెలను	-14666
▁మేపుచున్న	-14667
▁మైదానములో	-14668
▁యావదాస్తి	-14669
▁యింటనుండి	-14670
▁యిచ్చెదను	-14671
▁యూఫ్రటీసు	-14672
▁యెహోవావలన	-14673
▁యోసేపునకు	-14674
▁యోసేపుమీద	-14675
▁రగూయేలును	-14676
▁రాత్రివేళ	-14677
▁రెక్కలుగల	-14678
▁ర్కొనుటకు	-14679
▁వికారముగా	-14680
▁విశాలమందు	-14681
▁వృక్షమును	-14682
▁వెన్నులను	-14683
▁వెళ్లెదను	-14684
▁వేయించెను	-14685
▁శయనించెనో	-14686
▁శేయీరునకు	-14687
▁సంపాదించు	-14688
▁సంపూర్ణము	-14689
▁సహోదరియైన	-14690
▁సహోదరులతో	-14691
▁సహోదరులను	-14692
▁సిద్ధపరచి	-14693
▁సేవకునికి	-14694
▁స్థలమునకు	-14695
▁హెబ్రోనను	-14696
▁ಅಡ್ಡಬೀಳಲಿ	-14697
▁ಅರಿಯಲಿಲ್ಲ	-14698
▁ಆಗಿದ್ದೇನೆ	-14699
▁ಇದ್ದದರಿಂದ	-14700
▁ಇರುವದಕ್ಕೆ	-14701
▁ಇಳಿದುಹೋಗಿ	-14702
▁ಇಸಾಕನೆಂದು	-14703
▁ಎಂಭತ್ತಾರು	-14704
▁ಎಲ್ಲವನ್ನೂ	-14705
▁ಎಲ್ಲಸಾರಿನ	-14706
▁ಏಸಾವನನ್ನು	-14707
▁ಒಂಟೆಗಳಿಗೆ	-14708
▁ಒಡಂಬಡಿಕೆಯ	-14709
▁ಒಬ್ಬಳನ್ನು	-14710
▁ಒಹೊಲೀಬಾಮಳ	-14711
▁ಕಡಗಗಳನ್ನೂ	-14712
▁ಕಣ್ಣೆತ್ತಿ	-14713
▁ಕತ್ತರಿಸುವ	-14714
▁ಕಳುಹಿಸಿರಿ	-14715
▁ಕಾಯಿನನಿಗೆ	-14716
▁ಕುಡಿಸಿದರು	-14717
▁ಕುರಿಎತ್ತು	-14718
▁ಕೆಲಸವನ್ನು	-14719
▁ಕೊಲ್ಲುವದು	-14720
▁ಕೊಲ್ಲುವರು	-14721
▁ಕೋರಹನನ್ನು	-14722
▁ಗಟ್ಟಿಯಾಗಿ	-14723
▁ಗರ್ಭವನ್ನು	-14724
▁ಗಾಢನಿದ್ರೆ	-14725
▁ಗುಡಾರಕ್ಕೆ	-14726
▁ಚೆಬೋಯಾಮಿನ	-14727
▁ಜಲಪ್ರಳಯವು	-14728
▁ಟೆಬಹನನ್ನೂ	-14729
▁ತಂದೆಯಾದನು	-14730
▁ತಗ್ಗಿನಿಂದ	-14731
▁ತಿರುಗಾಡುವ	-14732
▁ತಿಳಿಸಿದಳು	-14733
▁ತುಂಬಿತ್ತು	-14734
▁ತೋವೆಯನ್ನೂ	-14735
▁ದಾರಿಯನ್ನು	-14736
▁ದಾರಿಯಲ್ಲಿ	-14737
▁ದಾಸಿಯನ್ನು	-14738
▁ದೇಶಗಳಲ್ಲಿ	-14739
▁ಧೂಳಿನಷ್ಟು	-14740
▁ನಕ್ಷತ್ರಗಳ	-14741
▁ನಾಗಿದ್ದಾಗ	-14742
▁ನಾವೆಯನ್ನು	-14743
▁ನಿಜವಾಗಿಯೂ	-14744
▁ನಿಮ್ಮಲ್ಲಿ	-14745
▁ನಿಮ್ರೋದನು	-14746
▁ನಿಲ್ಲಿಸಿದ	-14747
▁ನೀರುಗಳಿಂದ	-14748
▁ಪಕ್ಕದಲ್ಲಿ	-14749
▁ಪಲ್ಯವನ್ನು	-14750
▁ಪಾನದಾಯಕಾರ	-14751
▁ಪುಟ್ಟಿಗಳು	-14752
▁ಪೆರಿಜೀಯರೂ	-14753
▁ಪ್ರತ್ಯಕ್ಷ	-14754
▁ಪ್ರಮಾಣಮಾಡ	-14755
▁ಬರುತ್ತೇನೆ	-14756
▁ಬರುವದಕ್ಕೆ	-14757
▁ಬಲಿಷ್ಠನಾದ	-14758
▁ಬಾವಿಯಲ್ಲಿ	-14759
▁ಬೆನ್ನಟ್ಟಿ	-14760
▁ಭೂಮುಖದಿಂದ	-14761
▁ಮಂತ್ರವಾದಿ	-14762
▁ಮಂದಿಯನ್ನು	-14763
▁ಮಂದೆಗಳಿಗೆ	-14764
▁ಮಕ್ಕಳಲ್ಲಿ	-14765
▁ಮಗನಾಗಿರುವ	-14766
▁ಮನೆಯವರಿಗೂ	-14767
▁ಮನೆಯಿಂದಲೂ	-14768
▁ಮರಿಗಳನ್ನು	-14769
▁ಮಾಂಸವಿದ್ದ	-14770
▁ಮಾಕಾನನ್ನೂ	-14771
▁ಮಾಡಬೇಡಿರಿ	-14772
▁ಮಾಡಲ್ಪಟ್ಟ	-14773
▁ಮಾಡಿದ್ದನು	-14774
▁ಮುಚ್ಚಿದನು	-14775
▁ಮೂಗಿನಲ್ಲಿ	-14776
▁ಮೈದಾನಕ್ಕೆ	-14777
▁ಯಥಾರ್ಥವಾದ	-14778
▁ಯಳಾಮನನ್ನು	-14779
▁ಯಾಗಿದ್ದರು	-14780
▁ಯೆಬೂಸಿಯರೂ	-14781
▁ಯೌವನಸ್ಥನು	-14782
▁ರಲ್ಲೆಲ್ಲಾ	-14783
▁ವಾಗಿದ್ದನು	-14784
▁ವಾಲೆಯನ್ನೂ	-14785
▁ವಾಸವಾಗಿರು	-14786
▁ವಿಧೇಯನಾಗು	-14787
▁ಶಬ್ದವನ್ನು	-14788
▁ಶಾಶ್ವತವಾದ	-14789
▁ಶೆಕೆಮನಿಗೂ	-14790
▁ಸಂಪಾದಿಸಿದ	-14791
▁ಸಹೋದರರಿಗೂ	-14792
▁ಸಹೋದರಿಯಾದ	-14793
▁ಸಾಯಿಸಿದನು	-14794
▁ಸಾರಯಳನ್ನೂ	-14795
▁ಸಿದ್ಧಮಾಡಿ	-14796
▁ಸುತ್ತುವದು	-14797
▁ಸೆರೆಯಲ್ಲಿ	-14798
▁ಸ್ತ್ರೀಯರು	-14799
▁ಸ್ವರವನ್ನು	-14800
▁ಹತ್ತರಲ್ಲಿ	-14801
▁ಹದಿನೇಳನೆಯ	-14802
▁ಹನೋಕನನ್ನು	-14803
▁ಹುಡುಕುತ್ತ	-14804
▁ಹುಲ್ಲುಗಾವ	-14805
▁ಹೂಣಿಟ್ಟನು	-14806
▁ಹೆಂಡತಿಯರೂ	-14807
▁ಹೆಬ್ರೋನಿನ	-14808
▁ಹೇಬೆಲನಿಗೆ	-14809
▁ಹೇಳಿಕೊಂಡು	-14810
▁ಹೋರಿಯರಿಂದ	-14811
ట్లన్నిటిని	-14812
మందినిబట్టి	-14813
యకుండునట్లు	-14814
వస్త్రములను	-14815
వాడైనప్పుడు	-14816
ಕೊಳ್ಳುವದಕ್ಕ	-14817
ವರೆಲ್ಲರನ್ನೂ	-14818
ವಾದದ್ದರಲ್ಲಿ	-14819
ಸಮಾಚಾರವನ್ನೂ	-14820
ಿಯಾದದ್ದರಿಂದ	-14821
ಿಸಿಕೊಳ್ಳಿರಿ	-14822
▁Midianites	-14823
▁Perizzites	-14824
▁compasseth	-14825
▁fatfleshed	-14826
▁generation	-14827
▁graciously	-14828
▁messengers	-14829
▁prosperous	-14830
▁threescore	-14831
▁understand	-14832
▁wickedness	-14833
▁नगरवासियों	-14834
▁पिलानेहारा	-14835
▁प्रफुल्लित	-14836
▁स्त्रीधर्म	-14837
▁అబీమెలెకుఈ	-14838
▁ఆశీర్వదించ	-14839
▁ఆశీర్వాదము	-14840
▁ఆహారమగునని	-14841
▁ఇయ్యవలెనని	-14842
▁ఉన్నప్పుడు	-14843
▁ఎల్లప్పుడు	-14844
▁ఏటిలోనుండి	-14845
▁కట్టించెను	-14846
▁కత్తిరించు	-14847
▁కలుగజేసెను	-14848
▁కలుగునట్లు	-14849
▁కలుగుననెను	-14850
▁కాదేషుకును	-14851
▁కుమారుడును	-14852
▁కుమార్తెయు	-14853
▁కేయినానును	-14854
▁కొన్నాళ్లు	-14855
▁గర్భవాసమున	-14856
▁చిక్కిపోయి	-14857
▁చెప్పితిని	-14858
▁చేయకమునుపు	-14859
▁చేసెదననెను	-14860
▁తండ్రితోను	-14861
▁తింటిననెను	-14862
▁తినవచ్చును	-14863
▁తీసికొనెను	-14864
▁తుడిచివేయు	-14865
▁తూబల్కయీను	-14866
▁తెలియచెప్ప	-14867
▁త్రాగించిన	-14868
▁దీవించుమని	-14869
▁దుఃఖనివారణ	-14870
▁దేవుడునీవు	-14871
▁నక్షత్రముల	-14872
▁నడువగలిగిన	-14873
▁నప్పటికిని	-14874
▁నిందారహితు	-14875
▁నిచ్చెదనని	-14876
▁పక్షులలోను	-14877
▁పర్వతమునకు	-14878
▁పారిపోయెను	-14879
▁పిండివంటలు	-14880
▁పురుగులును	-14881
▁పురుషుడును	-14882
▁పెట్టుదురు	-14883
▁పెట్టుదువు	-14884
▁పెనిమిటికి	-14885
▁పొట్టేలును	-14886
▁పోవిడిచెను	-14887
▁పోవుచుండగా	-14888
▁ప్రదేశములో	-14889
▁ప్రయాణమును	-14890
▁ప్రయాసమును	-14891
▁ప్రవాహజలము	-14892
▁ప్రవేశించు	-14893
▁బంధింపబడిన	-14894
▁బావిలోనికి	-14895
▁బెన్యామీను	-14896
▁మనుష్యులను	-14897
▁మనుష్యులలో	-14898
▁మాటచొప్పున	-14899
▁మాటలాడెదను	-14900
▁మిస్రాయిము	-14901
▁యెలుగెత్తి	-14902
▁యేండ్లవాడు	-14903
▁యోసేపుదాని	-14904
▁రాత్రియందు	-14905
▁రాత్రులును	-14906
▁లాబానునీవు	-14907
▁లేచిపోయెనో	-14908
▁వచ్చినట్లు	-14909
▁వచ్చియున్న	-14910
▁వచ్చునట్లు	-14911
▁వస్తువులను	-14912
▁వస్త్రహీను	-14913
▁వారినడుగగా	-14914
▁విస్తారమైన	-14915
▁శ్మశానభూమి	-14916
▁శ్రేష్టమైన	-14917
▁షిమ్యోనును	-14918
▁సంతానమువలన	-14919
▁సంవత్సరమున	-14920
▁సంవత్సరముల	-14921
▁సమస్తశరీరు	-14922
▁సమాధానముగా	-14923
▁సహోదరునికి	-14924
▁సాగిలపడిరి	-14925
▁సాయంకాలమున	-14926
▁ಅಡಿಗೆಯನ್ನು	-14927
▁ಅಪ್ಪಿಕೊಂಡು	-14928
▁ಅರಾಮಿನಲ್ಲಿ	-14929
▁ಅರ್ಥವಿತ್ತು	-14930
▁ಅರ್ಪಿಸಿದನು	-14931
▁ಅವನಿಗೋಸ್ಕರ	-14932
▁ಆರಂಭಿಸಿದರು	-14933
▁ಆರಾಧಿಸಿದನು	-14934
▁ಆಹಾರಕ್ಕಾಗಿ	-14935
▁ಇಷ್ಮಾಯೇಲನೂ	-14936
▁ಉಣ್ಣೆಯನ್ನು	-14937
▁ಉತ್ತರವನ್ನು	-14938
▁ಊಟಮಾಡಿದ್ದು	-14939
▁ಎಂಭತ್ತೆರಡು	-14940
▁ಎಣ್ಣೆಯನ್ನು	-14941
▁ಎದ್ದುಹೋದನು	-14942
▁ಐಗುಪ್ತ್ಯರು	-14943
▁ಒಂಟೆಗಳನ್ನು	-14944
▁ಒಂಟೆಗಳನ್ನೂ	-14945
▁ಒಯ್ಯಲ್ಪಟ್ಟ	-14946
▁ಒಳ್ಳೇದನ್ನು	-14947
▁ಒಹೊಲೀಬಾಮಳು	-14948
▁ಕಂಡಿದ್ದೇನೆ	-14949
▁ಕಟ್ಟಿಕೊಂಡು	-14950
▁ಕತ್ತಲೆಯಿಂದ	-14951
▁ಕರೇಕಳುಹಿಸಿ	-14952
▁ಕಳುಹಿಸಿದಾಗ	-14953
▁ಕಳುಹಿಸುತ್ತ	-14954
▁ಕಳೆಗುಂದಿತು	-14955
▁ಕಳ್ಳತನದಿಂದ	-14956
▁ಕಾಣಿಸಿಕೊಂಡ	-14957
▁ಕಾಯುವದಕ್ಕೆ	-14958
▁ಕಿಟಕಿಯನ್ನು	-14959
▁ಕುರಿಗಳನ್ನೂ	-14960
▁ಕುರಿಗಳಲ್ಲಿ	-14961
▁ಕೇಳಿದ್ದಾನೆ	-14962
▁ಕೊಡುವದಕ್ಕೆ	-14963
▁ಕೊಡುವದಿಲ್ಲ	-14964
▁ಗಂಡಸರೆಲ್ಲಾ	-14965
▁ಗೋಪುರವನ್ನೂ	-14966
▁ಚಿಂತೆಮಾಡದೆ	-14967
▁ಚಿಕ್ಕವಳಿಗೆ	-14968
▁ಜನಾಂಗಗಳಿಗೂ	-14969
▁ತಂದೆಗೋಸ್ಕರ	-14970
▁ತಕ್ಕೊಳ್ಳಲಿ	-14971
▁ತಲೆದಿಂಬಾಗಿ	-14972
▁ತಿನ್ನಬಹುದು	-14973
▁ತಿನ್ನಬಾರದು	-14974
▁ತಿಮ್ನಾತಿಗೆ	-14975
▁ತಿಳಿಯಲಿಲ್ಲ	-14976
▁ತೆಗೆದಿಟ್ಟು	-14977
▁ತೆನೆಗಳನ್ನು	-14978
▁ತ್ವರೆಪಟ್ಟು	-14979
▁ದಹನಬಲಿಯಾಗಿ	-14980
▁ದಾಸನಾಗಿರಲಿ	-14981
▁ದೇವಕುಮಾರರು	-14982
▁ದೇವರೊಂದಿಗೆ	-14983
▁ದ್ವಾರದಲ್ಲಿ	-14984
▁ನದಿಯೊಳಗಿಂದ	-14985
▁ನಾಣ್ಯಗಳಿಗೆ	-14986
▁ನಿಂತಿದ್ದನು	-14987
▁ನಿಶ್ಚಯವಾಗಿ	-14988
▁ನೀರುಗಳನ್ನು	-14989
▁ನುಂಗಿಬಿಟ್ಟ	-14990
▁ಪಟ್ಟಣದಲ್ಲಿ	-14991
▁ಪಟ್ಟಣವನ್ನೂ	-14992
▁ಪಶ್ಚಾತ್ತಾಪ	-14993
▁ಪೋಟೀಫರನಿಗೆ	-14994
▁ಪ್ರಕಾರವಾಗಿ	-14995
▁ಪ್ರತಿದಂಡನೆ	-14996
▁ಪ್ರಾಣವನ್ನು	-14997
▁ಬಂದಿದ್ದೀರಿ	-14998
▁ಬಾಧ್ಯನಾಗುವ	-14999
▁ಬಿಲ್ಹಳನ್ನು	-15000
▁ಬೆಂಕಿಯನ್ನೂ	-15001
▁ಬೆಳಕುಕೊಡುವ	-15002
▁ಬೇಸರವಾಗಿದೆ	-15003
▁ಮಂದೆಯೆಲ್ಲಾ	-15004
▁ಮಗನಿಗೋಸ್ಕರ	-15005
▁ಮನೆಯಲ್ಲಿಯೂ	-15006
▁ಮಹೋನ್ನತನಾದ	-15007
▁ಮಾಡಿಕೊಂಡನು	-15008
▁ಮಾಡಿದ್ದಾನೆ	-15009
▁ಮಾಡುತ್ತೇನೆ	-15010
▁ಮಾತನಾಡಿದನು	-15011
▁ಮುಖ್ಯಸ್ಥನೂ	-15012
▁ಮುದಿಪ್ರಾಯದ	-15013
▁ಮೇಕೆಗಳಲ್ಲಿ	-15014
▁ಮೇಲ್ವಿಚಾರಕ	-15015
▁ಯಜಮಾನನನ್ನು	-15016
▁ಯಥೇಚ್ಛವಾಗಿ	-15017
▁ಯಾಕೋಬನೆಂದು	-15018
▁ಯೂಫ್ರೇಟೀಸ್	-15019
▁ಯೆಗೂಷನನ್ನು	-15020
▁ಯೆಹೂದನೆಂದು	-15021
▁ರೂಮಳೆಂಬವಳು	-15022
▁ವರುಷದವನಾಗಿ	-15023
▁ವಾಸಮಾಡಿದರು	-15024
▁ವಿಷಯಗಳನ್ನು	-15025
▁ವ್ಯಸನವುಳ್ಳ	-15026
▁ಶಪಿಸಲ್ಪಟ್ಟ	-15027
▁ಸಂತತಿಯಲ್ಲಿ	-15028
▁ಸಂತಾನದಲ್ಲಿ	-15029
▁ಸಂಹರಿಸಿದರು	-15030
▁ಸತ್ತುಹೋದಳು	-15031
▁ಸತ್ತುಹೋದವು	-15032
▁ಸಮಾಧಾನದಿಂದ	-15033
▁ಸಮ್ಮುಖದಿಂದ	-15034
▁ಸಿಕ್ಕಲಿಲ್ಲ	-15035
▁ಸುತ್ತಲಿರುವ	-15036
▁ಸ್ವಾಸ್ಥ್ಯದ	-15037
▁ಹರಿದಾಡುವವು	-15038
▁ಹಾಕಿಕೊಂಡಳು	-15039
▁ಹಿವ್ವಿಯನಾದ	-15040
▁ಹೂಣಿಡುವೆನು	-15041
▁ಹೆಸರಿಟ್ಟರು	-15042
▁ಹೆಸರಿಡಬೇಕು	-15043
▁ಹೇಳಿಕೊಂಡನು	-15044
▁ಹೇಳಿದಂತೆಯೇ	-15045
▁ಹೋಗುತ್ತೇನೆ	-15046
పెట్టుకొనెను	-15047
ದ್ದೆಲ್ಲವನ್ನೂ	-15048
ಿಸುತ್ತಿದ್ದನು	-15049
▁imagination	-15050
▁inhabitants	-15051
▁possessions	-15052
▁seventeenth	-15053
▁एसाववंशियों	-15054
▁कर्मचारियों	-15055
▁ज्योतिषियों	-15056
▁मिद्यानियों	-15057
▁అతడుచిత్తము	-15058
▁అదుల్లామీయు	-15059
▁అర్పక్షదును	-15060
▁ఆకాశమునుండి	-15061
▁ఆజ్ఞాపించిన	-15062
▁ఇంటిలోపలికి	-15063
▁ఉద్యోగస్థుల	-15064
▁ఐగుప్తీయుని	-15065
▁ఐగుప్తీయులు	-15066
▁ఒక్కడైయున్న	-15067
▁కప్పగించుము	-15068
▁కప్పగించెను	-15069
▁కలిసికొనెను	-15070
▁కలుగజేసెదను	-15071
▁కుమార్తెలతో	-15072
▁కూర్చుండెను	-15073
▁కోపపడనియెడల	-15074
▁క్రిందనున్న	-15075
▁చిన్నబుచ్చు	-15076
▁చెట్లన్నియు	-15077
▁చెప్పినయెడల	-15078
▁చెప్పుమనెను	-15079
▁చెరిపినందున	-15080
▁చేదుకొనుటకు	-15081
▁జంతువులలోను	-15082
▁తండ్రియొక్క	-15083
▁తినుచుండెను	-15084
▁తీసికొనుమని	-15085
▁దయచేయునుగాక	-15086
▁నేలమీదనున్న	-15087
▁పారిపోయెనని	-15088
▁పొట్టేళ్లను	-15089
▁ప్రతిదానిని	-15090
▁ప్రేమించెను	-15091
▁భూలోకములోని	-15092
▁మనుష్యులును	-15093
▁మింగివేసెను	-15094
▁ముసలితనమందు	-15095
▁మేయుచుండెను	-15096
▁యెబూసీయులను	-15097
▁యెహోవాయెదుట	-15098
▁యెహోవాసొదొమ	-15099
▁రెఫాయీయులను	-15100
▁లన్నిటిలోను	-15101
▁లాబానునొద్ద	-15102
▁లేనివన్నియు	-15103
▁వందలయేండ్లు	-15104
▁వారసుడగునని	-15105
▁వారినందరిని	-15106
▁వారియొద్దకు	-15107
▁వెళ్లగొట్టి	-15108
▁సహోదరుడునైన	-15109
▁సహోదరులందరి	-15110
▁సేనాధిపతికి	-15111
▁స్వాధీనపరచు	-15112
▁హివ్వీయుడైన	-15113
▁ಅಂದುಕೊಂಡೆನು	-15114
▁ಅಡ್ಡಬಿದ್ದರು	-15115
▁ಅಡ್ಡಬಿದ್ದವು	-15116
▁ಅದುಲ್ಲಾಮ್ಯನ	-15117
▁ಆಶೀರ್ವದಿಸಿದ	-15118
▁ಇಟ್ಟುಕೊಂಡನು	-15119
▁ಇದ್ದದರಿಂದಲೂ	-15120
▁ಇಲ್ಲದ್ದರಿಂದ	-15121
▁ಇಲ್ಲಿದ್ದೇನೆ	-15122
▁ಇಷ್ಮಾಯೇಲ್ಯರ	-15123
▁ಉಂಟುಮಾಡಿದನು	-15124
▁ಉಂಟುಮಾಡಿದ್ದ	-15125
▁ಎಲ್ಲಾದರಲ್ಲಿ	-15126
▁ಕತ್ತೆಗಳನ್ನು	-15127
▁ಕದ್ದದ್ದನ್ನೂ	-15128
▁ಕಾಣಿಕೆಯನ್ನು	-15129
▁ಖಂಡಿತವಾಗಿಯೂ	-15130
▁ಗಿರ್ಗಾಷಿಯರೂ	-15131
▁ಗೆರಾರಿನಲ್ಲಿ	-15132
▁ತಂಗಿಯೊಂದಿಗೆ	-15133
▁ತಿರುಗಿಕೊಂಡು	-15134
▁ತಿಳಿದುಕೊಂಡು	-15135
▁ತೆಗೆದುಕೊಳ್ಳ	-15136
▁ದುದಾಯಗಳನ್ನು	-15137
▁ದೇವರುಗಳನ್ನು	-15138
▁ದೊಡ್ಡವನಾಗುವ	-15139
▁ನಾಶಮಾಡುವಿಯೋ	-15140
▁ನಿಂತುಹೋಯಿತು	-15141
▁ಪಕ್ಷಿಗಳನ್ನೂ	-15142
▁ಪಟ್ಟಣಗಳನ್ನು	-15143
▁ಪ್ರವಾಸಿಯಾಗಿ	-15144
▁ಬದುಕುವದರಿಂದ	-15145
▁ಬಾಗಲಲ್ಲಿದ್ದ	-15146
▁ಬೇರ್ಷೆಬಕ್ಕೆ	-15147
▁ಭೂಮೃಗಗಳನ್ನೂ	-15148
▁ಮನುಷ್ಯರನ್ನು	-15149
▁ಮನುಷ್ಯರನ್ನೂ	-15150
▁ಮಾಡಿದ್ದನ್ನು	-15151
▁ಮಿದ್ಯಾನ್ಯರು	-15152
▁ಮುಚ್ಚಿಕೊಂಡು	-15153
▁ಮುದುಕನಾಗಿಯೂ	-15154
▁ರೆಬೆಕ್ಕಳಿಗೂ	-15155
▁ವರ್ತಿಸಬಹುದೋ	-15156
▁ಶೆಕೆಮಿನಲ್ಲಿ	-15157
▁ಸಂಬಳವಾಗಿರಲಿ	-15158
▁ಸನ್ನಿಧಿಯಿಂದ	-15159
▁ಸಮೃದ್ಧಿಯಾಗಿ	-15160
▁ಸರ್ವಶಕ್ತನಾದ	-15161
▁ಸಹೋದರರೆಲ್ಲರ	-15162
▁ಸುದ್ದಿಯನ್ನು	-15163
▁ಸೇವೆಮಾಡಿದನು	-15164
▁ಸ್ವರೂಪದಲ್ಲಿ	-15165
▁ಹೆಂಡತಿಯೆಂದು	-15166
▁ಹೆಣ್ಣಾಗಿರುವ	-15167
▁ಹೇಳುತ್ತಿದ್ದ	-15168
▁ಹೊಲದಲ್ಲಿದ್ದ	-15169
▁అందుకతడునేను	-15170
▁అడిగినప్పుడు	-15171
▁అతనికిచ్చెను	-15172
▁అన్యునియొద్ద	-15173
▁అబ్రాముఇదిగో	-15174
▁ఆజ్ఞాపించెను	-15175
▁ఇష్మాయేలీయుల	-15176
▁ఇస్సాకునకును	-15177
▁ఏశావునొద్దకు	-15178
▁కనబడుచున్నది	-15179
▁కలిగినప్పుడు	-15180
▁కుమారులయొద్ద	-15181
▁చెదరగొట్టెను	-15182
▁చెప్పినందుకు	-15183
▁జరిగినతరువాత	-15184
▁జీవరాసులకును	-15185
▁తూర్పుననున్న	-15186
▁తెలివినిచ్చు	-15187
▁త్రవ్వించెను	-15188
▁దానిదృష్టికి	-15189
▁దీవించునట్లు	-15190
▁దేశములన్నియు	-15191
▁దేశములోనుండి	-15192
▁నక్షత్రములను	-15193
▁నానావిధములైన	-15194
▁నిలిచియుండగా	-15195
▁పరలోకమునుండి	-15196
▁పాతిపెట్టిరి	-15197
▁పానదాయకుడును	-15198
▁పుచ్చుకొనుము	-15199
▁పూడ్చివేసిరి	-15200
▁పొలములోనుండి	-15201
▁ప్రవేశించిరి	-15202
▁ఫలవృక్షములను	-15203
▁బలాత్కారముతో	-15204
▁బెయేర్షెబాకు	-15205
▁భాషలప్రకారము	-15206
▁మీతోకూడనున్న	-15207
▁విత్తనములుగల	-15208
▁విశ్రమించెను	-15209
▁వెళ్లిపోయెను	-15210
▁శారానుగూర్చి	-15211
▁సాగిలపడుదురు	-15212
▁ಅಂಗೀಕರಿಸಿದನು	-15213
▁ಅಪ್ಪಣೆಕೊಟ್ಟು	-15214
▁ಅಬ್ರಹಾಮನನ್ನು	-15215
▁ಅರ್ಪಕ್ಷದನಿಂದ	-15216
▁ಆಜ್ಞಾಪಿಸಿದನು	-15217
▁ಇದ್ದವುಗಳನ್ನೂ	-15218
▁ಉದ್ಯೋಗಸ್ಥನಾದ	-15219
▁ಒಣಗಿಹೋಗಿತ್ತು	-15220
▁ಕಾಣಿಸಿಕೊಂಡನು	-15221
▁ಕೆರೂಬಿಯರನ್ನೂ	-15222
▁ಕೇಳಿಸಿಕೊಂಡಳು	-15223
▁ಗರ್ಭಿಣಿಯಾದಳು	-15224
▁ಗುಡಾರದಲ್ಲಿಯೂ	-15225
▁ಜನಾಂಗಗಳೆಲ್ಲಾ	-15226
▁ಜಲಪ್ರಳಯವನ್ನು	-15227
▁ಜೀವವೃಕ್ಷಕ್ಕೆ	-15228
▁ತಿನ್ನುವದಿಲ್ಲ	-15229
▁ತಿರುಗಿಕೊಂಡನು	-15230
▁ತಿಳಿದಿರಲಿಲ್ಲ	-15231
▁ತೋರಿಸಿದ್ದಾನೆ	-15232
▁ದಹನಬಲಿಗೋಸ್ಕರ	-15233
▁ದೇಶದೊಳಗಿಂದಲೂ	-15234
▁ನಾವೆಯಲ್ಲಿದ್ದ	-15235
▁ನೀತಿವಂತರನ್ನು	-15236
▁ನ್ಯಾಯತೀರಿಸಲಿ	-15237
▁ಪ್ರಾಣಿಗಳಲ್ಲಿ	-15238
▁ಮಧ್ಯದಲ್ಲಿರುವ	-15239
▁ಮನುಷ್ಯನಿಂದಲೇ	-15240
▁ಮನೆಯಾಗಿರುವದು	-15241
▁ಮರೆತುಬಿಟ್ಟನು	-15242
▁ರೊಟ್ಟಿಗಳನ್ನು	-15243
▁ವ್ಯವಸಾಯಮಾಡುವ	-15244
▁ಸುನ್ನತಿಯಾದಾಗ	-15245
▁ಸೆರೆಮನೆಯಲ್ಲಿ	-15246
▁ಸೆರೆಯಲ್ಲಿದ್ದ	-15247
▁ಸ್ತುತಿಸುವೆನು	-15248
▁ಸ್ತುತಿಹೊಂದಲಿ	-15249
▁ಸ್ತ್ರೀಯರನ್ನೂ	-15250
▁ಹಿಮ್ಮಡಿಯನ್ನು	-15251
[...]
